#version: 0.2
Ġ Ġ
ĠĠ ĠĠ
ĠĠĠĠ ĠĠĠĠ
o n
ĠĠ Ġ
e r
i n
r e
a t
s t
o r
e n
ĠĠĠĠĠĠĠĠ ĠĠĠĠĠĠĠĠ
ĠĠĠĠ Ġ
a l
a r
l e
) ;
g e
Ġ c
Ġ =
t h
/ /
ĠĠĠĠ ĠĠĠ
s e
t e
i d
Ġ '
i on
Ġ {
t r
in g
a n
i t
o l
) ,
i l
Ġ f
c t
m e
i s
d e
Ġ }
en t
at e
x t
i c
r o
u r
a s
Ġ _
a ge
Ġ re
m p
a c
e s
Ġ th
u l
ĠĠĠĠĠĠĠĠ Ġ
Ġ (
i g
Ġ S
u t
ge t
il d
u e
u n
a d
Ġ n
ar t
p e
Ġ //
Ġ b
Ġ p
tr ing
a p
t o
Ġ s
Ġ "
c on
Ġ C
i st
0 0
ĠĠĠĠĠĠĠĠ ĠĠĠ
Ġ v
Ġ e
i f
l o
at ion
in t
Ġc on
ac k
or t
a me
( )
Ġ T
* *
' ;
' ,
ur n
m ent
h e
t urn
c o
I n
ol or
S t
te xt
d art
i mp
v er
Ġre turn
e d
Ġ d
Ġ ),
ĠĠĠĠĠĠĠĠ ĠĠĠĠĠ
Ġ 1
Ġ a
in al
t er
h t
Ġ 0
imp ort
s on
u s
c e
Ġf inal
se t
a b
a m
L ist
Ġ= >
Ġ o
on t
Ġ st
e xt
o de
Ġ w
( );
al ue
i z
Ġ// /
h ild
e l
y pe
ul l
Ġ @
R e
u ild
Ġth e
S tring
id get
ĠĠĠĠĠĠĠĠ ĠĠĠĠĠĠĠ
" ,
Ġ m
as s
Ġ [
ct ion
e y
ack age
Ġ if
e t
at a
e w
c h
' :
C on
ig ht
( '
re s
Ġc hild
u p
Ġ F
q u
o t
p ackage
id e
Ġth is
Ġ in
ĠS tring
r i
y n
Ġcon st
Ġ M
a in
ĠĠĠĠĠĠĠĠĠĠĠĠĠĠĠĠ ĠĠĠĠĠĠĠĠĠĠĠĠĠĠĠĠ
en d
u m
u b
ul t
i al
Ġ A
ad d
o ver
o d
" :
ig n
Ġ as
Ġn ull
St ate
Ġ P
l ass
Ġ to
f f
v e
č Ċ
Ġ t
- -
** **
W idget
re n
p t
te st
o w
D e
o c
r ide
a y
ab le
ĠT ext
over ride
Ġ is
ĠĠĠĠĠĠĠĠĠĠĠĠĠĠĠĠ Ġ
Ġ l
Ġ 2
T ype
an d
i m
i re
Ġ E
u re
i le
e ct
ro m
Ġ get
a se
C o
or d
j son
Ġ $
R es
I con
iz e
] ,
y le
i r
Ġ );
Ġ de
Ġ B
ĠĠĠĠĠĠĠĠĠĠĠĠĠĠĠĠ ĠĠĠ
al l
ol l
s er
i th
es s
o o
le ment
o id
it y
Ġ :
Ġ on
Ġe x
r or
Ġ= =
s s
at h
or m
pt ion
Ġ .
c lass
Ġc o
j ect
n ame
p l
at ic
D ata
J son
K ey
Ġ <
p o
a g
Ġ *
ĠC olor
A l
a it
ic e
i me
) .
I d
lo c
Ġ tr
Ġv ar
Ġ ?
f l
pe ct
k ey
) );
i te
ĠĠĠĠĠĠĠĠĠĠĠĠĠĠĠĠ ĠĠĠĠĠ
p er
// /
a ct
yn c
q ue
a il
i el
Ġ r
s ion
iel d
o ol
Ġ D
Ġn ew
P ro
B uild
in e
ut ter
Ġ h
C olor
Ġ int
l i
Ġ List
Ġst atic
v alue
N ame
w ait
Ġ} );
or y
p on
T o
oll er
' '
tr oller
er ial
o ur
te d
( "
Ġe xt
s c
que st
[ '
Ġ !
00 00
ĠĠĠĠĠĠĠĠĠĠĠĠĠĠĠĠ ĠĠĠĠĠĠĠ
con text
Ġre s
pon se
m o
o x
Ġo f
Ġ( )
re ate
un t
Ġb uild
Ġa wait
f rom
am ic
yn amic
1 0
Ġ 3
id th
an ce
fl utter
' );
i ew
e x
end s
ord er
Ġv alue
de x
M ap
se d
Ġ! =
it le
' ]
Ġ O
ode l
Ġc olor
ĠS t
s h
Ġ R
at or
Ġ G
b ject
a v
ign ment
s it
t p
Ġext ends
ar d
co re
ren t
Ġ g
o m
un d
un ction
ar y
Ġcon text
**** ****
at erial
E n
ut ure
Ġas ync
er y
al se
ar g
Ġf ont
he ight
C h
i ve
v ent
Ġv oid
Ġf or
x is
ĠĠĠĠĠĠĠĠĠĠĠĠĠĠĠĠ ĠĠĠĠĠĠĠĠĠ
A p
t y
er s
o me
st r
ire d
ut t
d ate
p ro
an ge
Ġ L
S ize
Ġex pect
u te
-- --
St yle
' )
o re
ĠColor s
Ġ test
Ġ un
Ġ json
in d
add ing
V alue
Ġtr ue
th is
i b
v ice
S e
Ġ set
Ġ I
( ),
S c
qu ired
A xis
Ġ +
P age
en g
r ror
b er
set s
Ġf alse
Icon s
up er
utt on
e st
Ġ ],
u ct
T ext
ad i
Ġ} ,
ro w
a st
Ġ me
Con text
our ce
o ut
o g
c k
p ut
Con troller
Ġb e
Ġ -
mp le
P o
Ġ N
ol d
' ),
ac e
E rror
E lement
. _
us er
v id
Ġ se
g le
f o
Ġ U
i es
ain er
= "
ĠĠĠĠĠĠĠĠĠĠĠĠĠĠĠĠ ĠĠĠĠĠĠĠĠĠĠĠ
o ub
f orm
l y
oub le
W ith
E x
k en
de d
Ġ key
qu al
at ch
eng th
. .
an s
u th
T ime
( (
W e
o f
p y
) )
Ġb ool
an t
C ode
en er
ff set
Ġp ro
sit ion
ht tp
ap p
u d
int er
ĠF uture
] ;
re en
Ġn ame
ĠT he
co m
at us
a k
ont ainer
ess age
3 2
Al ignment
i o
th od
Ġchild ren
il l
S h
0 1
u ment
Ġ 4
Ġd ynamic
Ġ Widget
Ġ 5
he ck
Ġs h
F ield
f a
co de
ent er
l ine
adi us
th er
T r
Ġ Ã
re f
d ge
A n
Build er
res s
Axis Alignment
l se
as h
ate d
d ata
( {
t ype
i p
st ance
ĠSt ate
Ġ_ $
Ġ and
Ġ an
p b
c or
Ġst yle
er ror
Re quest
re d
ĠĠĠĠĠĠĠĠĠĠĠĠĠĠĠĠ ĠĠĠĠĠĠĠĠĠĠĠĠĠ
i x
lo ad
ur rent
1 2
P ar
Ġs uper
e m
te m
a x
c ess
Ġun it
od y
if i
In sets
ite m
Res ponse
B y
B utton
vid er
& &
ĠC ontainer
ar ch
dge Insets
Ġc reate
Ġ Icon
B ox
Ġe lse
fa ult
ĠE dgeInsets
Res ult
u st
Ġ H
p ort
Ġ height
Build Context
ss age
um ber
f t
I tem
Ġd ata
( _
ow n
V iew
6 4
im age
b uild
B ar
i a
Ġres ult
Q u
cor ation
an n
Ġ In
Ġ arg
i v
Ġunit test
on e
[ "
Ġ id
c ted
M essage
1 1
re e
oo gle
f ig
2 4
> [
ĠE x
Ġco re
2 0
con t
r int
ic ation
Ġ text
Ġw ith
R adius
> (
Ġw h
er t
ĠĠĠĠĠĠĠĠĠĠĠĠĠĠĠĠ ĠĠĠĠĠĠĠĠĠĠĠĠĠĠĠ
S et
Ġ `
Ġ )
tr y
ro up
ic on
v al
Ġ &&
Ġw idth
Ġw idget
r a
ap i
1 6
M odel
In fo
Ġ Re
m age
p ar
ĠM ap
ol um
N ot
olum n
l ength
ĠText Style
v oid
n e
sc ri
o b
E R
u se
iz ed
in k
ur ation
le ction
} ,
qual s
Ġ. .
() .
lo g
Ap p
F ont
f ile
te s
ur l
Ġ /
qu ery
Ġ i
S er
Ġc ase
A r
Ġd ouble
U ser
li ent
o p
c l
Ġt itle
Ġ V
m ap
py With
ir c
oc k
2 5
Ġ y
We ight
] .
Ġp adding
", "
re am
l ay
" );
up date
: //
ption s
ic k
mp ty
U n
- .
" ;
7 5
Ġ 6
ul ar
p an
w h
c olor
Ġre quired
m m
E vent
p ath
9 9
ĠF unction
u g
I N
en sion
******** ********
Ġ al
Ġ( _
he me
av ig
t ing
Ġp ar
en ce
Ġn ot
Ġ De
lo w
Ġt ype
to m
ame ter
A d
Ġc h
1 8
D ate
from Json
b ack
U p
Ġth at
ar k
} )
w idget
Ġ |
// //
Ġcon t
ab el
Ġ? ?
co unt
Ġp rint
R o
1 4
w ord
con d
Ġ1 0
H e
order Radius
ĠĠĠĠĠĠĠĠĠĠĠĠĠĠĠĠĠĠĠĠĠĠĠĠĠĠĠĠĠĠĠĠ Ġ
ro und
Ġc lass
---- ----
ic al
Ġp ath
() );
Qu ery
( ()
oo k
Ġth row
l ist
3 0
M e
an g
.. /
ir st
a re
Ġ or
m l
Ġm ain
p tr
con st
a mple
le ct
O bject
O N
m aterial
r c
w e
d er
r ary
d it
ĠP o
loc k
or k
act ory
N umber
1 5
T est
ation s
ĠA p
m odel
e p
ot tom
Ġl ist
N ode
In dex
in it
T heme
'' '
ri te
P res
O ffset
L oc
am s
Ch ange
I mage
st ate
v ar
To ken
Ġ item
in dex
F rom
Ġ 8
) ),
Ġ user
E N
b ool
In t
pe c
k e
oc ument
scri ption
f er
u le
3 3
P ath
A s
n ull
Ġ en
al e
ol lection
res ult
A t
s rc
ĠA l
Ġf ile
Ġ le
b l
ized Box
0000 0000
Ġp o
g round
ĠÃ Ĺ
" ),
ro ss
an k
a rent
Ġb y
r l
Ġ error
if y
ain s
F F
b ase
t itle
Ġc an
im ation
ifi er
Pres sed
ad er
ail s
ĠĠĠĠ ĠĠ
pl ay
r oll
u c
E xt
v iew
Ġs c
ĠS izedBox
> >
d ynamic
f ield
l at
ate g
E mpty
St atus
ver t
to String
_ _
U rl
T ag
Ġ2 0
st art
Ġ it
ĠĠĠĠĠĠĠĠĠĠĠĠĠĠĠĠĠĠĠĠĠĠĠĠĠĠĠĠĠĠĠĠ ĠĠĠ
Ġ W
ĉ ĉ
A c
on g
$ {
" ]
ĠO bject
p age
r ice
http s
e quals
z ed
mp on
wh ite
mpon ent
ic s
F ile
ĠM aterial
s ub
lo ud
ust om
me ssage
er e
p res
mp l
o und
le cted
I C
c urrent
re quired
a de
ree zed
Co unt
w idth
1 9
as k
r ight
c irc
5 0
u es
F orm
1 3
f or
v g
Con fig
g ist
un ter
Ġm ap
? .
u ff
L e
Ser vice
1 7
ĠF ont
s p
mo ve
ac h
Pro vider
ce ption
er sion
Ġfont Size
f oo
Sc reen
D et
Ġc all
< $
r ap
p h
w w
O f
O r
il ter
Ġv al
ĠS c
en c
ting s
m in
ĠC olumn
2 8
c enter
Ġf rom
ann el
d is
Ġ add
= =
Ġ1 6
ex pect
Ġ| |
Ġin it
c reate
ĠAp p
m ary
G oogle
T ap
ĠP ro
ĠC o
Ġ x
Ġon Pressed
ĠB ox
A ction
T E
7 7
Ġc heck
a ve
ass word
'' ',
il y
Ro ute
Ġb ody
Al l
3 4
C ont
ul d
u it
Ġ ass
n ap
I D
ign ore
Ġo ther
to p
ĠÃ ·
a ff
s ize
Ġf reezed
00 0
ib rary
f ont
a int
Ġs ize
A R
! .
k B
res ponse
ire ct
Ġ imp
Ġs ub
Ġin dex
Ġbuild er
Ġf actory
ross AxisAlignment
Ġ} )
Ap i
Co pyWith
F am
De coration
ad ing
Ar g
ser v
ac he
b o
ar get
if ication
Ġ@ $
6 6
sh ot
Ġ query
per ty
S tr
] );
d uct
i e
' ],
7 9
n ew
7 0
p re
Ġ >
Me thod
a ction
ial og
cont ains
ĠA n
Ġset State
a uth
L og
avig ator
N ull
O R
h as
ack ground
Ġ k
2 9
Ġst ate
u sed
o ther
p ri
on ly
H and
re ak
w es
Ġ icon
wes ome
Ġin stance
3 8
p en
Ad d
Ġ ro
L o
Sh kB
th en
y m
4 4
S ub
ĠP adding
ShkB ShkB
6 0
n o
o uld
nap shot
Ext ension
f ul
ĠM ain
y p
Ġme ssage
> <
ĠPo inter
S T
aff old
v o
c hild
": "
ĠĠĠĠĠĠĠĠĠĠĠĠĠĠĠĠĠĠĠĠĠĠĠĠĠĠĠĠĠĠĠĠ ĠĠĠĠĠ
s vg
In put
K G
le ar
5 5
u de
ateg ory
Fam ily
l ight
Ġ app
le ss
Ġd is
Ġres ponse
C all
O ptions
} );
g er
Ġde coration
po sit
m is
Ġsh ow
Co unter
w ork
Ġme thod
le te
lo b
ĠD ate
ref er
ĠThe me
Ġ' ../
W idth
s ing
+ +
Ġ ignore
Co mm
Json Key
se cond
2 2
ra w
Ġ$ {
us h
Ġ Ð
O n
A wesome
Ġ image
ĠC on
uff er
n g
F or
e c
at ive
Ġ update
Ð °
E dit
h ash
Ġh as
ic es
Ġc ode
O D
7 8
ã ģ
re quest
p art
Ġ he
Ġc urrent
Ġre quest
6 8
n ot
B e
n al
Ġwh en
w rite
po sition
re turn
m ail
Ġ at
ic en
lement s
Ġ* /
ĠR ow
P er
imp le
Ġb reak
S E
tr ans
Ġfont Family
ire ction
V al
A L
C lient
3 5
ĠFont Weight
Ġ ac
6 5
ĠIcon Data
> ?
ed ia
ĠT h
] )
By tes
Ġa re
Ġass ert
re ad
str ing
G ener
Ġw ill
A N
M aterial
end er
y st
M ode
circ ular
Up date
Se arch
H J
Ġ loc
Ġde fault
val id
r id
f irst
il s
Ġ 9
b u
T I
3 9
F unction
H ome
C ollection
Ġ$ _
ang u
or iz
Ġn ode
o u
C loud
to List
com m
p ac
angu age
Tag Number
v el
ide o
posit ory
t ime
Ġm ax
Ġ 00
Ġs pec
Ġcon troller
7 4
ĠĠ Ċ
T h
Ġcont ent
Ġr ight
De vice
A uth
po se
C ard
at ing
st ore
L ibrary
c ur
Par ameter
ĠĠĠĠĠĠĠĠĠĠĠĠĠĠĠĠĠĠĠĠĠĠĠĠĠĠĠĠĠĠĠĠ ĠĠĠĠĠĠĠ
Par ams
a pe
pres sion
le t
en u
yst em
L E
lob al
D es
ne ction
st atus
icen se
He ight
fer ence
O ut
ak e
ĠN avigator
8 0
U E
ire base
par se
In stance
li b
p s
lat form
uc cess
ifi ed
Ġst r
b e
uct or
Ġon Tap
Al ign
ap pl
ful Widget
oc us
de fault
e lement
i able
it s
Ġfont Weight
Ġ api
} ;
Ġt ime
R E
he d
ĠC h
) {
//// ////
st yle
r y
less Widget
U ri
Change d
Ġ end
ex port
y s
l utter
erial iz
id ent
G g
ib le
x f
6 9
m a
G et
Ġb orderRadius
ĠB orderRadius
ĠState lessWidget
Ġf ield
Ġs ource
A C
d own
a red
l er
n er
Po sition
f inal
r ag
ri pt
field s
m ax
G roup
Ġ log
null able
g ress
Det ails
E qual
Ð ¾
x ff
w it
Ex ception
t a
4 0
Ġw e
ĠDate Time
" >
Ġe vent
ĠC ard
b ody
c all
c ent
Ġs er
able d
o te
T itle
second s
lo se
de f
pl ace
Ġ1 2
Ġb ackground
Ġ use
Ġtest er
and le
e vent
'] ;
ic h
Ġ1 5
c heck
ĠMain AxisAlignment
Ġ j
Con str
> ();
con troller
ĠS e
sc reen
M an
r ay
B order
ect or
B loc
D ialog
lect or
Ġo bject
ag er
Ð µ
ub l
Ġ 7
ce pt
n ode
Ġst art
s ign
S ource
or age
Str uct
f e
C lass
U t
F uture
un try
ä ¸
( [
b y
Ġto p
a ded
Google Cloud
Ġcreate State
Ġmain AxisAlignment
Gg HJ
-------- --------
en s
tr ib
or g
GgHJ GgHJ
P rice
bl ack
Ġ1 1
Ġ} ;
ĠTh is
po int
o s
ĠState fulWidget
Ġl abel
T e
ĠSc affold
sh ow
8 5
bo ard
j c
An d
D is
ĠEx ample
C hild
yp es
b ug
ĠG et
I mpl
T H
p arent
Po inter
d ouble
d i
Ġp age
Ġe lement
Ġ+ =
Ġ Icons
wit ch
Po int
in es
oriz ont
Tr ans
o k
at ab
el l
Ġm in
tr ic
et work
Ġg roup
v ate
arg in
at ter
B ase
mis sion
**************** ****************
in ed
o v
ument s
S ide
orizont al
E S
Ġ J
t al
T ile
it er
le ft
atab ase
ĠĠĠĠĠĠĠĠĠĠĠĠĠĠĠĠĠĠĠĠĠĠĠĠĠĠĠĠĠĠĠĠ ĠĠĠĠĠĠĠĠĠ
4 5
A U
b ar
per ation
KG UE
res h
g re
Ġp re
I s
KGUE KGUE
le d
In ter
d f
g r
ct or
er o
Ġimp lements
Ġp er
widget s
k a
2 3
str act
a mp
h o
Cont ent
Pro perty
gist er
pro to
p ush
contains Key
c ord
Ġ all
St ream
Ġtr y
Ġ_ _
] ),
Sc roll
Co mponent
ro p
ĠBox Decoration
Ġo ut
d ic
ad ata
le ase
ĠC enter
Equal ity
Des c
Font Awesome
P l
" )
u i
L ength
4 8
Ġc lear
ĠI f
2 6
in stance
rap h
V ersion
Ġ' |
Ġa uth
P lay
pan ded
ment s
se arch
ĠDe ep
u id
Ġl ate
le g
is h
il ity
Collection Equality
c re
ĠDeep CollectionEquality
Ġ url
co mp
Ġ( !
9 0
w ith
S ign
m ain
l ink
Ġ{ "
f ind
Ch annel
cont ent
in o
Ġf orm
Ġsh ould
Ġ used
ute s
at ure
th e
Ġbuild Counter
as sets
Add ress
Material Icons
Ð ½
ad ers
ance l
C l
A A
r ame
s g
m it
ick er
Ġto ken
out line
Ġ Key
| ',
er nal
b ox
ĠM essage
model s
D irection
or s
n s
avig ation
n um
Ġa ction
Ġ Ċ
m d
f i
to ken
Ġ4 0
Ġv iew
M y
re move
O M
ut o
1 00
ww w
Re f
c es
Ġinit ial
O ver
2 7
f unction
tr ol
build er
ĠD uration
b loc
v as
Ġb ottom
ĠU ser
sp ace
Loc al
Ġf ind
! ,
M et
C heck
v ir
Res ource
ĠT Result
u al
enc es
l ast
F ilter
I G
D ocument
ion s
ser ial
ant s
4 9
le v
Ġco mp
Ġ K
Ġo ver
Ġpar ameter
Ġ[ '
Ġ3 0
un ded
f ace
r ank
is it
s ym
v ed
Ġbackground Color
à ¸
L ine
or ted
ĠAl ignment
et ch
old er
En d
< /
to re
IN G
ro id
t tp
' ));
n ext
Loc ation
St art
2 1
8 8
Re ct
ri mary
pe d
per t
Ġd ate
Ġtr ans
Ġ te
ĠM edia
vir on
I S
irect ory
Ac count
ĠI mage
Ġe quals
a w
r on
ĠExample Icon
Color s
V ar
O S
de code
Ġb order
N o
Arg s
Ġo b
ĠSt ream
3 6
n ess
loc al
Call back
U R
po st
Ġf ill
c y
Le ft
Edit ing
B uffer
ĠC rossAxisAlignment
ut ils
ĠS et
pert ies
l l
Ñ Ĥ
co pyWith
00000000 00000000
to Json
Ġde scription
Ġ{ }
g ener
Ġs uit
L abel
n ing
Ġc rossAxisAlignment
ĠE lement
Ġn um
Ġst atus
Ġd o
Ġto Json
we en
e ed
( $
ĠU n
3 7
ent ity
g roup
s pl
viron ment
Ġval id
t ity
icon s
u mp
pro vider
ĠR ank
un ity
ĠV ector
En try
se s
ĠS uit
p ng
Co mp
g oogle
Ġp art
it ude
ab stract
' s
From Json
T ypes
ĠĠĠĠĠĠĠĠ ĠĠĠĠĠĠ
ĠT est
am er
ĠO ffset
0 9
il li
il t
8 9
We b
ĠĠĠĠĠĠĠĠĠĠĠĠĠĠĠĠĠĠĠĠĠĠĠĠĠĠĠĠĠĠĠĠ ĠĠĠĠĠĠĠĠĠĠĠ
An imation
uper t
t ails
pe cted
upert ino
i ent
me d
Ġn o
ind ow
Ġ us
Ġse arch
orm al
List ener
e ar
> {
s pan
po p
l d
ShkBShkB ShkBShkB
me tric
P I
Man ager
leg ate
m er
Ġ[ ];
Ġm argin
Ġ{ '
B lock
ind ing
en e
Ġal ignment
m ark
ol ic
ĠM y
x F
._ (
ing le
M M
ption al
Ġle ft
En um
AU ka
m ber
Ġr un
Set tings
Ġv ersion
em ail
Lo ading
c m
Ġf unction
Page State
Ġc atch
con vert
AUka AUka
ref ix
x e
Constr uctor
ã Ĥ
Ġthe me
Ġwh ich
De fault
ent ifier
ï ¼
U int
co pe
ann ot
` .
de scription
Ġy ou
d ay
B ody
Ġco mm
R ange
ĠMedia Query
b old
Ġpath Offset
as ync
C ase
mpl ate
Ġch ange
ĠEx panded
M enu
() )
Ġco mple
Ð »
ser t
C reate
ĠT o
ent ial
Ġ1 00
v en
Ġ load
Ġo ffset
A S
TI ON
5 6
Ġ' /
name d
P ackage
Re pository
illi seconds
n ow
a i
me thod
Editing Controller
appl ication
li p
bu f
5 4
O T
j o
Ġ/ **
Ġa ct
refer ences
Re ference
P h
per ator
sym metric
se lected
s ource
tr ue
iz ation
à ¤
T Y
A B
ĠT r
l ag
th in
s imple
Ġpo sition
py right
ail ure
le x
In it
all y
ĠL og
5 9
m b
x FF
Ġ' _
En tity
Ñ ģ
Ġ ));
t t
S tore
Ġc lient
Ġp arent
A M
S erializ
2 00
W h
ht ml
h ome
amer a
p rice
Date Time
lo at
D uration
O ne
ĠS h
" ];
L ink
om ain
() ..
Re g
dic ator
FontAwesome Icons
Ġn ext
bl ue
serv ices
s w
P assword
pri vate
ge st
Re gist
ar p
Ġin put
n ect
it ies
p end
C M
on th
ud io
ig h
10 10
Ġapp Bar
Ġ up
f ter
in s
gre y
vo ke
D own
Pro gress
Not Empty
c i
B l
cl ude
ad ow
Ġh ave
Ġ< /
p orted
olic y
c lient
Field s
Ð ¸
Un it
ĠA d
Ġstr ing
Ġspec ified
Ġf ound
Pro file
al let
act or
op en
ĠR o
b ook
b ottom
Comm unity
Ġf irst
Co mple
Po st
Ġ' '
u res
a W
Ġ2 4
a ir
hash Code
OD O
we b
en code
ser vice
font Size
Ġse lected
n on
Ġ1 4
j s
L ook
O b
M o
E E
co ver
add ress
lo sing
Ġ5 0
7 6
lib rary
l D
Det ail
d G
an sition
i k
st atic
H el
Ex p
A T
T ab
Ñ Ģ
form ation
Form at
ar act
P latform
ile d
Val id
m od
Ġre f
++ )
pac ity
co untry
Ġpro ject
comm on
Ġm ust
Look up
co der
he l
sh arp
T able
He ader
E T
c ast
P art
De te
Ġl ast
is NotEmpty
av i
ut able
w ard
>< /
\ /
Ġ http
if ic
IC lD
co mponent
ock et
al y
Z W
Ġd ocument
Ġval ues
Ġx ml
Ġm odel
D art
IClD IClD
at io
as on
Ġ z
A ct
Ġp l
Ġc l
in ation
ire store
Ġm od
ĠIn put
ix ed
dis pose
R ight
Ġ1 8
Ġc ur
R ender
en um
pro ject
an gle
Le vel
iv ity
U sed
cl ar
Z X
b r
ur i
ĠĠĠĠĠĠĠĠĠĠĠĠĠĠĠĠĠĠĠĠĠĠĠĠĠĠĠĠĠĠĠĠ ĠĠĠĠĠĠĠĠĠĠĠĠĠ
image s
and om
3 1
u ch
To p
4 2
is Empty
n own
v is
U N
] ',
Ġe mail
name s
ĠApp Bar
Font s
ver s
d o
Ġb ase
iv en
ubl ic
Community Icons
== ==
f ore
ter able
ĠRe turn
ĠMaterial CommunityIcons
Ġs witch
form at
M em
Pro duct
un i
con fig
return s
an y
loc ation
n ack
D ouble
R ule
ar row
Regist ry
ap t
R ow
M od
Axis Size
ut ion
ath er
5 8
N ew
Ġg ener
l abel
un c
ay out
Ġ ^
unt ime
al c
s k
M atch
Ġn umber
a z
s o
a use
ob jc
proto buf
++ ;
f low
sub string
m y
A TE
ix in
b ol
o bject
Q ue
Ġint er
Ġy our
O pen
Ġan y
at ar
S l
un ch
ĠT ODO
irc le
ç ļ
E ach
ate s
Ġf fi
> .
red ential
" ))
A D
b i
init ial
D ay
the me
ĠMessage Lookup
ĠD art
å ı
Ġs ign
type def
çļ Ħ
Ġc ast
Log in
ĠText EditingController
Ġm atch
serv ed
Ġxml ns
e k
S w
ĠB uild
" ],
By Library
0000 00
Ġ ];
ĠMessageLookup ByLibrary
L L
Ġcon fig
10 1
ĠF ile
C enter
est ure
Ġ2 00
ĠB order
simple Message
u ilt
C ontainer
P re
H o
S D
spl it
T R
ver sion
lo ok
f in
E D
Un named
ri x
q l
in put
Ġinit State
C olumn
E M
L G
pri mary
Ġon ly
in fo
ĠAl l
ser ver
p c
h andle
Ex pression
con nection
C ur
c ollection
o ffset
Ġ' \
L m
iz er
g in
S ystem
circ le
m an
ĠA r
h orizontal
Ġb utton
pres ent
pre c
7 2
a unch
P adding
at rix
or ies
private Constructor
S P
he ma
end ar
In dicator
Ġo ptions
ident ical
at er
Ġd uration
Ġm ay
Ġs napshot
CopyWith Impl
ĠCo pyright
Hand ler
im it
ĠA uth
I T
as set
En vironment
ĠU se
al endar
iz ations
ĠC ustom
p ump
4 6
de lete
m illiseconds
ann er
Used Error
privateConstructor UsedError
Ġt arget
Item s
0 6
ĠA s
ĠF lutter
t ag
Con st
_ $
for Each
U T
ĠG oogle
d oc
ail able
ĠC reate
Ã Ĺ
0 2
T ask
im er
z z
val ues
Ġp ass
mo unt
Cont act
A b
re place
Ġin st
right ness
ĠĠĠĠĠĠĠĠ ĠĠĠĠ
Ġre served
Ġh ash
Met adata
l ined
d At
Ġto String
Ġ2 01
t ail
Ġ' ÃĹ
Ġ Y
Ġ'../ ../
oo m
f ir
Parameter s
C ustom
O P
init State
8 6
Ser ver
o us
Page Route
C ategory
set tings
ro ute
ert ical
//////// ////////
GgHJGgHJ GgHJGgHJ
n ed
io s
? >
z m
Ġ' <
Ġ X
et a
ay ment
Ġv er
Ġg iven
') )
' t
R atio
c ard
Ġp rimary
Ġcon vert
ch ange
ĠL oc
Not ification
Ġext ernal
Re port
he ad
c lose
E mail
U se
Extension Registry
b utton
Name d
Ġp assword
d ocument
N avigation
F actory
ys is
b n
EN T
init ion
ist ory
ĠG lobal
M id
e e
child ren
? ,
Ġm ock
l ate
() ),
m ock
li ver
ic le
ĠL icense
Or der
" /
Ġpar ams
font s
4 7
u me
m ment
Ġw rite
EN SE
` `
Ġ ]
f irebase
h avi
# #
A v
pl y
ac count
Sc ript
ge e
at s
Par am
ult i
io us
ĠP df
IC ENSE
De f
ĉĉ ĉĉ
ã ĥ
al ysis
ri ption
0 5
Not ifier
Var iable
Dete ctor
Ġp h
Ġon e
S p
ext ension
d b
k nown
Ġp ackage
he et
s um
t arget
Api gee
Ġl ine
C H
w o
Ac cess
M ark
log in
' ).
tr act
et ween
g o
act ive
S napshot
Ġco unt
Ġde tails
B ottom
Play er
Not Null
Se lected
un it
st ream
Ġt ag
Ġitem s
Se lector
ĠText Align
ĠĠĠĠĠĠĠĠ ĠĠ
Ġsh ape
ron et
2 01
I mp
ĠĠĠĠĠĠĠĠĠĠĠĠĠĠĠĠĠĠĠĠĠĠĠĠĠĠĠĠĠĠĠĠ ĠĠĠĠĠĠĠĠĠĠĠĠĠĠĠ
d k
r un
Ġ} ),
Ñ ı
i se
Ġsc reen
le an
av or
ĠP ar
Ġde bug
g ame
Ġg over
P olicy
Ġa b
r adi
Ġl ength
C ache
K X
int s
d ing
me mber
T arget
ĠE n
clar ation
E C
Ġpo st
prec ated
V ideo
Ġpar se
n ormal
ull Type
Ġse cond
å Ī
ĠH ome
Init ial
M edia
n od
r an
o to
i ct
KGUEKGUE KGUEKGUE
Ġtext Align
mer ge
lev ation
t able
im g
p g
c loud
s ent
I F
qu es
Ġdis play
nod oc
GoogleCloud Apigee
GoogleCloudApigee V
Ġarg s
Ġst ream
havi or
Ġ) ),
u Y
s Response
raw er
x y
tr ait
Widget s
ow er
9 8
De legate
B ack
S pan
o ff
Ġs ame
Ġan imation
Ġreturn s
Ġ ad
Re ad
ex p
it ion
l anguage
< _
Ġ/ *
und er
Ġh int
est ed
ol low
To Json
ĠList View
ap ter
alc ul
Ġo perator
UR L
P b
serial ize
aract er
Ġst ore
ĠCo mple
Ġth en
O ff
Val ues
ist ri
S ync
up ported
pro duct
w are
Ġ' ${
out lined
atter n
trib ute
U S
mo te
ĠT ype
Ġp lay
page s
m s
Ġd b
F B
S uccess
00 1
ĠSt ack
) ));
re gister
t ip
uni ques
B o
Ġ import
0 8
ch annel
Con trol
s napshot
ph one
s pec
f alse
Ġres ource
uct ate
ith ub
st amp
tr a
I A
ĠReturn s
c ol
re ct
nack Bar
} ';
ĠU int
Ġupdate s
Ġl icense
9 5
ĠIn t
c ustom
in voke
ĠM e
ite d
Ġright s
Ġ Value
Desc ription
v ious
Ġp res
tr ies
ro unded
Ġ1 3
Ġh ome
C ronet
ade Hand
text Theme
L ines
Ġ &
Sh ow
Ġf t
Comm and
an vas
ab ility
7 3
Ġ> =
ay s
u x
Ġde f
L ast
ĠH ttp
Ð¾ Ð
D i
I f
Ġloc al
Ġin fo
p assword
a wait
Ġ \
0 4
Ġ(_ )
wh ere
O pacity
pac ing
Id entifier
Ġl anguage
ï¼ Į
s or
al led
Ġro ute
Ġ order
m ine
ic it
f ilter
ym bol
ocus Node
ĠF irebase
O peration
S te
: :
Ġ2 5
ar ray
Hel per
Ġpro perty
M in
lo ating
F ailure
z ero
List en
Ġ row
Gener ated
sh ared
ĠTo ken
Text Style
Ġ' -
Ø §
co mple
0 3
} ',
im ated
ĠL ICENSE
T O
load Options
S C
Ġon Changed
s end
AC E
H ash
ug in
æ ľ
Ġform at
tr ics
ve lo
th ing
om it
Ġw as
Ġ' ',
list en
Pro ject
ff i
g ion
Ġ qu
V y
c lear
p ing
D ir
Po p
ra ft
id er
F it
vert ical
Ġ?? =
dis play
s l
N um
i od
Ġquery Map
ren cy
-- ;
ut il
med ia
R ate
ument Error
ĠAn imation
auth or
ver se
ç Ķ
ĠIcon Button
S cope
fir m
look up
in ce
Ġhe aders
Ġloc ation
b eta
Ut il
ĠS ize
n umber
p es
Ġb ox
ĠList Tile
De code
L ight
on icons
2 000
Ñ ĥ
Ar ray
Ġ[ $
utt ify
A re
ĠI onicons
Tr ue
x link
from Environment
En abled
St orage
Sh adow
Ġ Data
* /
v ices
in ary
> ,
ĠTr ans
As ync
ĠS P
Ġarg uments
Ġcan vas
c ategory
Ġ old
Ġsc roll
i ant
Ġv isit
ar ge
ĠInput Decoration
jo in
Ġser vice
Hand le
F lutter
F irst
O L
mo b
Ġgover ned
ult ip
Ġ' .
a o
Ġre ad
H T
ä »
ĠG esture
m all
Ġm o
Ġf ilter
me ta
Ġh andle
b le
ĠF ullType
Que st
) ).
ĠA PI
A g
Ġ' $
Re cord
> ';
3 00
---------------- ----------------
D E
De lete
ph a
hed ule
ob j
b m
P a
pend enc
W rap
h y
ist s
an imation
Ġus ing
Ġ6 0
Ġse e
9 4
9 6
B ackground
Ġo pen
In line
o ptions
I L
Ġc ustom
our ces
Y S
if t
str ap
Ġf it
Ut ils
tt f
st orage
ph oto
Ġclear Field
Ġ under
ch at
Ġl ong
get Font
a iled
untime Type
R O
ff ect
, "
Google Fonts
ĠS ingle
status Code
radi ent
ĠMaterial PageRoute
g static
M ock
Ġaction s
V oid
c ache
ot strap
trib utes
P references
Ġcall back
ĠEx pect
H ttp
ĠPdf GoogleFonts
c ase
" ));
ref s
pect Ratio
ac c
ac es
own er
V er
Ġ' ';
G B
ist ance
ens ure
v es
Ġ We
a h
l f
ur se
4 00
Ġle ading
: ',
Ġc or
Mem ber
Ġn ative
} ');
screen s
sc roll
Ġ` ``
â Ģ
Ġal low
Ġb l
Ġco pyWith
B inding
ĠAd d
end ing
u zz
avor ite
p atch
1 10
O ption
component s
C redential
add All
Ġparameter s
U C
Ġa v
C urrent
par ameter
Set ting
ĠO ut
Tr ait
>[ ];
Ġadd ress
Ġb ar
ĠP age
ript or
i as
ho to
e ad
ĠB SD
i er
ShkBShkBShkBShkB ShkBShkBShkBShkB
A G
Device Details
K ind
t ach
d omain
t adata
im al
M ax
v ideo
dit ion
Ġc ategory
n etwork
Per mission
d iv
) ?
Ġex pected
ĠT ime
ver ter
Ġ{ },
par am
Ġview Box
Ġex p
ĠR adius
G ame
pro file
of t
AUkaAUka AUkaAUka
Builder Info
ri ver
/ *
and s
Ġfield s
ĠM ock
DeviceDetails Data
er r
Are a
a fe
o ptional
m sg
Ġe levation
Ġs erializ
D irectory
Se lect
L ayout
l ation
ck et
a f
"/ ></
D atabase
at able
G e
ã Ģ
Ġfind s
._ ();
ĠĠĠĠĠĠĠĠĠĠĠĠĠĠĠĠĠĠĠĠĠĠĠĠĠĠĠĠĠĠĠĠ ĠĠĠĠĠĠĠĠĠĠĠĠĠĠĠĠĠ
ex ample
Generated Message
I M
un its
Key s
ĠFont Awesome
st ination
Ġs p
è ¯
ant ity
Ġpro vid
from L
build Counter
ug gest
11 1
trait s
ig ger
P icker
Ġser ver
Ġ Request
99 9
H as
ubl ish
ĠGesture Detector
s uccess
å ħ
rop down
B ool
å Ĳ
ĠF or
Ġdo es
Ġdis pose
ix el
is ible
Ġ< =
ĠF orm
iter al
Con nection
N ative
d en
8 7
Ġw ork
F lag
f ull
Ġ Result
invoke Method
Ġe mpty
Ġhe ader
Ġout put
P T
ĠSP ACE
g reen
t s
M ixin
g en
ro ke
ol ve
back ground
Ġ lo
P ri
load ing
ent ication
sh ould
m on
c r
P ort
o od
By te
Device Trait
a j
Ġto tal
Name s
S pacing
h er
$ _
5 2
Ġac count
Ġs o
'] );
æ ĸ
item s
Se lection
ĠT ab
c raft
ib ility
T ER
Ã ©
Sub scription
f ill
u int
Pro cess
er m
uzz le
d raw
ys ics
6 7
ff ff
R un
Ġvar iable
m atch
ed it
am ap
to tal
Ġit er
Ġro ot
Serializ able
Ġspecified Type
U L
å ®
E X
6 00
Re quired
ĠGlobal Key
g ithub
aly z
ĠIn ter
qu are
6 2
J S
ch art
ut er
ol ate
i ke
Ġ_$ _
Ġre n
L O
ĠEx ception
5 00
ol id
Ġwh ere
P arent
0000000000000000 0000000000000000
Q p
po s
Ġ[ ],
" "
ĠC om
View Model
Ġs uccess
valid ate
" },
De claration
Ġresult s
N ested
N ext
30 8
] (
t x
Ġwh ile
g l
J ob
As set
b lock
ĠC ur
Pro to
Ġex ample
mine craft
ren der
Sc ale
5 1
Ġb uffer
01 1
4 3
or ld
fl uttify
D rag
Ġc olumn
Action Button
Ġitem Builder
t ask
ä º
ĠD i
Ġa fter
Ġde vice
Ġset tings
ĠBox Fit
Quest ion
mo ved
S end
ĠSe e
m ant
ĠI terable
A TION
å Ĭ
n one
on s
g gle
te mp
ĠU p
S k
Constr aint
Ġ Z
it al
F ill
n et
Se cond
gr am
An sw
L ong
Ġ Json
Ġb ack
Ġde lete
t le
Par ser
Ar t
F rame
Rect angle
Ste p
' },
Ġ{ @
Form Field
en try
Pro perties
g n
i um
gener ate
S H
as ses
Ġl ibrary
Ġinst ead
i an
ĠG ener
Ġen try
Ġconst r
se lect
Ġn e
pl ication
vo ice
annot ation
t ab
play er
Ġconst ra
Navigation Bar
ig inal
re q
Gener ator
Con cept
up port
par ams
query Params
ty pes
E L
Ġin clude
p rint
Arg uments
P aint
w ner
am l
******************************** ********************************
oo lean
as ic
St ar
ĠE vent
Y X
refer ence
ith er
co ding
.. .
re pository
Ġo peration
Tr ace
ss ion
Def inition
im ate
Ġact ive
AN D
B ook
iv ed
Ġren der
and ler
i que
Desc riptor
to ol
qu ence
Ġac cess
@ ',
im um
Pro ps
Scroll View
D ynamic
C ircle
with Opacity
**************************************************************** ********
Ġch annel
mo v
5 3
on d
Ġb ut
ĠI N
T ool
mo g
ub it
ain ed
ĠC ode
Ġv ertical
trans parent
am o
S pec
i ver
å ¤
oc ation
ay load
Ġ3 2
Q L
Ġm ore
f it
W indow
Ġm ark
c c
Ġt able
r iter
() ));
lo y
! );
h ir
Ġ0 1
5 7
Ġn on
res ource
de vice
0 10
{ "
= $
) }
Ġn eed
Screen State
fl uctate
Bytes Ho
al th
) :
ol ume
mog ene
Ac cent
Ġ appl
ĠMe thod
Ġob j
j pg
Ġ{ };
Ġreturn ed
loating ActionButton
c losing
con nect
ĠPro vider
Ġ ************************************************************************
ĠU ri
A P
le ted
lo t
ay er
pe ated
B old
BytesHo mogene
8 4
b um
Ġpro duct
Ġitem Count
Ġse lector
U M
ĠMaterial App
not ation
Tr ansition
Ġnot ify
Q U
ĠC OM
Ġde mo
path Offset
Ġst ack
Ġl ink
(' $
ultip le
Ch ar
Ð° Ð
Ġ dart
Ġ https
c ancel
al t
irc ular
ĠCh ange
ĠB loc
Ġ00 20
IClDIClD IClDIClD
Ġ************************************************************************ **
F l
BytesHomogene ous
S I
c olumn
Tr ade
ES IS
g ing
Ġres p
Tr ack
ĠO n
s ync
ĠN OT
B etween
en ted
ĠB o
R ed
Ġpro cess
B atch
Id s
9 7
B ound
k W
Trans action
G rid
Ġc lose
E lse
OD E
ud ent
is hed
9 3
ol y
i ed
Test Script
ro ot
ĠN ot
Be havior
d y
Ġl at
Ġby tes
s ave
b G
EM P
th row
default Instance
ĠLog in
Ġ1 7
ĠĠĠĠĠĠĠĠĠĠĠĠĠĠĠĠĠĠĠĠĠĠĠĠĠĠĠĠĠĠĠĠ ĠĠĠĠĠĠĠĠĠĠĠĠĠĠĠĠĠĠĠ
6 3
ing s
ĠL o
n V
ĠDe fault
sh ip
(( _
ar ning
fin ity
d ark
quest ion
Co mment
p ub
c upertino
f r
OR S
0 7
und le
Answ er
ĠPo sition
ĠCo mp
Ġex pression
Ġco mponent
Out put
T he
i h
con str
C ancel
ĠB uilt
at ures
ge d
Ġc enter
w ays
ĠP er
and roid
pl at
our s
Ġc ard
ic ip
Ġimp lement
> )
St ack
Ġcont ains
pl an
ex pected
Ġid entifier
Local izations
Ðµ Ð
ov ie
æ ĺ
s ide
Wh ere
F actor
ĠBorder Side
g an
Result s
9 2
F ocus
Ġin formation
cess ary
val u
ĠC heck
ĠG ro
Ch at
Listen ers
ord in
F loat
ig in
ĠAr g
iv es
ut f
Ġ u
qu atable
Y W
ess ion
P O
n d
z M
Ġpass Struct
D I
av ed
TR B
1010 1010
N etwork
Ġr adius
Ref resh
4 1
Sc heme
out er
Ġname d
Ġ ap
Ġ ]),
Ġcolor s
(' /
fromL TRB
ĠB lock
Ġpar am
Home Page
C ap
è ®
Lo ad
o th
al ity
EMP TY
u ction
Ġre move
ĠS er
Over lay
ĠRo unded
H E
ĠI D
de bug
m i
Ġf lag
ic ate
ĠMain AxisSize
o ice
Ġcreate d
S heet
P rint
e ature
Ġp refix
plat form
Ġver ify
D el
f irestore
amo unt
kW ell
c ip
)) ),
Ġf l
Ġs end
Ġmain AxisSize
ĠSe arch
D ark
Sh ape
ĠÐ ¿
ä ½
Ġ ]);
al ax
ared Preferences
re port
Ġre ce
Serializ er
c an
w allet
st ack
Loc ale
Key word
arg s
alax y
mob ile
, ),
Al ert
Ch art
co ded
P an
Imp ort
Pa inter
> );
ĠP lease
Progress Indicator
re t
ĠB ase
Ġsc ale
ĠE rror
As pectRatio
| |
è ¿
Ġext ension
ĠC ity
ĠP latform
p adding
Ġb lock
t en
Ġ #
C n
cre t
ĠP l
Gener ic
8 2
al ance
C ell
m ath
Tr aded
if f
a uto
Ġ'| -
S nackBar
Query Component
Ġp latform
Ġh orizontal
Config uration
Trade Value
! ;
Ġal so
s ort
Ġbe fore
ob x
F I
d a
En code
Ġ8 0
Icon Data
Ġsub title
replace All
Ġit s
S M
Ġhash Code
velo per
8 3
L C
Rectangle Border
od o
Ġtest Widgets
g ular
App Bar
ĠTheme Data
Re turn
Cl ick
æ Ī
sc ale
Ġ uri
im ension
ad ded
Ġis F
ug h
decode QueryComponent
Test er
FF FF
i pe
Ġp ri
() {
G alaxy
X J
te mplate
Ġ. ..
e mpty
F unc
ule s
Ġlist en
((_ )
Query Param
Ġte mp
ð Ł
Ġ' ''
Ġid ent
hel per
b a
ĠIn kWell
ident ifier
ov in
My App
Ġm y
primary Color
Dis play
ateg ories
u Z
ĠI t
ĠA c
L anguage
key s
æ ķ
() ).
const ants
he aders
up load
current Color
Ġex ec
ans w
') ),
Ġpro perties
Ġloc ale
W ork
c le
Ġs ystem
U s
Ġd own
Ġ( (
Reg ular
T ree
==== ====
l ong
ol ution
On ly
r it
Ġa ut
B IN
I terable
' .
Ġ4 2
Ġto ol
Ġ application
P rimary
de v
sc hema
Ġt ask
" ><
P ress
] =
v ocation
Theme Data
Ġconstra ints
ho st
in sert
In valid
7 00
Rule s
6 1
ref resh
Field Type
mm utable
ĠGro ovin
d uration
as ure
Ph one
ĠGroovin MaterialIcons
Ġm an
b ers
oc i
en ame
Ġf lex
s dk
de tails
mis s
in ue
cont act
ict ure
é Ģ
Update d
tr ack
M ain
> ;
t ax
h older
w atch
Ġch ar
C amera
At tribute
space Between
12 3
N ote
test er
N O
d atabase
he ader
ĠD O
S top
H istory
r ation
in finity
le vel
Ġc ache
Ġfinds One
read y
vers ation
l v
m ode
C or
he art
c imal
f rame
ĠText Input
U TH
ag no
ĠfindsOne Widget
c ed
s i
ĠH T
Ro ot
t ml
Out line
ĠAs set
ail ing
Ġre present
r ate
Se ction
ac y
d io
trans form
GgHJGgHJGgHJGgHJ GgHJGgHJGgHJGgHJ
ĠRounded RectangleBorder
Ġp aint
Ġ q
Ġst op
serv able
IG N
ra de
KG E
C re
æ Ĺ
Act ive
merge From
Ġ== (
P W
Ġf ollow
Ġin to
] [
connection Type
st at
Ġauth ors
çĶ ¨
P E
l icit
ĠC ont
De precated
create d
able Concept
Trans form
Ġd irect
Con verter
Ġhint Text
fo und
M on
inter nal
Ġm ode
ĠA UTH
Ġen abled
parameter s
G L
g lobal
alyz er
. ',
ĠC lass
Ġreturn Type
Null able
ĠD IA
Ã ¡
BIN ING
ĠCOM BINING
Ġ" ";
Ġ0 308
ER ESIS
Ġload ing
ĠDIA ERESIS
d d
en ded
Ġre t
not ification
Sign In
ĠSingle Child
'] .
user name
A mount
l n
ĠS tr
Ġs ome
M onth
st ar
he ther
] +
s ive
Ġs k
F ind
^ ^
ĠA N
Ġthrow s
lat Button
uc er
Ġf uture
ĠMy App
cur ity
g raph
com ment
out put
f ix
ZX R
C ON
lev ated
Mark er
ĠL ine
ĠAUTH ORS
d ir
ĠO r
le s
Ġth ere
Ġrun App
B r
Ġr ange
Input Border
ap er
A I
C lose
L ng
Ġ3 00
ĠUp date
Ġf etch
pl ash
Ġserializ ers
Ġf ull
Ġbe en
action s
Ġd i
Ġvalid ator
r am
ç »
De mo
cm V
Ġy ield
b uffer
'] ),
G raph
S ocket
ro om
Ġpl ace
scri pt
ĠS liver
Error Code
scri be
Ġor Else
rag ma
Bl ue
Ġe ach
de lay
Pb List
Ġth an
Pl ace
C L
An gle
Ser ies
B u
un k
Te mplate
Open ed
State ment
D irect
j i
or ity
Text Field
7 1
ĠText Span
line InputBorder
Ġ Response
b order
ab s
AN G
C E
j e
p r
ATE D
ĠB utton
Ext ent
" .
I mmutable
o st
G l
å Ľ
ac cess
p ragma
r untimeType
Ġm sg
Ġadd QueryParam
Ġav ailable
qu ire
C k
p ur
Ø ±
Ġ entity
Ġcreate Empty
Met a
ĠDi vider
uff ix
ĠcreateEmpty Instance
re gion
pan sion
Q Q
d le
Ġconstr uctor
st op
Ġg ame
pendenc ies
g Exp
r ink
ast er
AB LE
f etch
Ġre moved
lo sed
P L
S S
] ).
p le
ĠRo ute
s ystem
ĠC upertino
K H
er ve
Ġwe b
at al
Reg ion
De coder
Av atar
Ġpo int
Ġme et
ĠJ S
R pb
Ġex ist
Constraint s
A PI
Ġs ide
ne cessary
Ġpre vious
ĠSingleChild ScrollView
Ġco m
pro cess
KGUEKGUEKGUEKGUE KGUEKGUEKGUEKGUE
levated Button
Ġre q
em on
) ",
ot al
Ġ ar
Ġ ).
Ġ} ).
Ġle vel
comple te
te ger
Json Serializable
R GB
p in
Ġis True
k Font
ĠS ign
per i
Te mp
pre v
us ic
sum er
F ull
I m
am ond
" ].
ĠC ircular
Ġnotify Listeners
t ics
ĠĠĠĠĠĠĠĠĠĠĠĠĠĠĠĠĠĠĠĠĠĠĠĠĠĠĠĠĠĠĠĠ ĠĠĠĠĠĠĠĠĠĠĠĠĠĠĠĠĠĠĠĠĠ
R I
} \
co me
Ġ ì
Re move
A ss
Block s
Ġt ypes
AA AA
Ġ" ${
ĠS imple
Ġa mount
Ġkey board
o se
re y
ĠSc roll
ome try
trans late
c atch
l aunch
Ġ{ });
s ure
pe ed
Ġ Web
S imple
p x
Ġc ancel
å ¼
ĠO b
Ġ" /
. ');
Ġs l
F eed
S ession
Be en
S olid
s a
w ise
Ġd istri
Ġper mission
Ab sent
L n
ai sed
Ġ Query
ĠĠĠĠ Ċ
Ġv ideo
po ch
no Inline
ĠBuild Context
no te
Ġcur ve
Message s
D to
Menu Item
ut or
s uper
ist ic
oriz ation
En g
ĠO R
EN ER
} /
t ion
Lo aded
p aint
var iant
for ward
Ġp r
Re ce
c d
Ġf rame
is ion
Event s
M ed
user Id
ex pression
Ġg lobal
Ġpro ps
c ar
ĠAp i
M ore
ĠPosition ed
Has Been
Ġl imit
/ **
um mary
ir ror
from Map
Ġfont Package
Po s
Ġ__ $
ĠF latButton
Ġevent s
me di
Element CopyWith
F in
T P
Ġd oc
et ter
J o
um b
rid es
Ġbe gin
unit test
p a
vis ion
Y ear
dG lv
an ces
x x
ĠD is
y ear
m ented
â ķ
M ulti
Card Set
result s
m onth
Ġbuild Unnamed
Ġen um
ĠAl ign
Ġ( $
ĠP lay
cl ub
>{ };
` ,
st ant
Ġprovid ed
Ġc alled
ĠF ield
ĠR un
arg uments
ne cted
ol ved
ĠA xis
current State
Ġcheck Unnamed
lookup Function
R oom
V E
s List
ref Id
ĠW h
Ġ Res
M E
us ers
per ations
Ñĥ Ð
tr im
M adeHand
N e
Ġph one
d XJ
ĠM adeHand
pen ame
Immutable CardSet
color s
m enu
if fer
G lobal
ĠAn d
C anvas
M atrix
a ur
Ġ'| +
T erm
ifier Extension
å ľ
Ġ Name
ic ro
Me trics
t ile
æķ °
c amera
Ġlong itude
il er
Render er
Ġre cord
Ġre gister
Ġhe l
al pha
Ġco py
Ñ Į
set String
x l
U I
m art
ĠC lip
70 8
> ().
F ound
ĠC all
K E
Ġme mber
is s
Ġtrans form
agno st
answ er
ĠPro duct
> ('
in y
ĠI tem
cont ainer
Create d
t n
ĠText FormField
ex ec
mant ics
L H
Ġm ake
Eng ine
f d
pump Widget
Ġwrite NotNull
igh light
Dynamic Library
Ġ2 2
ĠE levatedButton
ty pename
Q y
W ord
n ob
t ap
Ġe dit
V isit
de serialize
g u
Ġcont act
Ġlist ener
co unter
) ',
I H
Ġ' ,
M sg
f b
r ic
Ġlog in
W ill
I tal
Ġpres erve
and ard
by Type
._ ()
P X
l ated
Ġa uto
ĠText Field
t c
ip hy
Ġlat itude
d ialog
Act ivity
1 999
h h
Ġf lutter
Ġa g
D A
P S
n a
R el
ĠB ottom
aised Button
Ġ3 5
ter s
Home address
Child ren
oft ware
ĠC ON
Ġen able
r ange
yp to
K S
p ol
view s
Ġs ave
I p
ro t
Ġp refs
Ġpro vider
Home PageState
licit Rules
Ġcont ainer
00000000 00
ain ing
loc ale
Ex ample
77 77
Sub mit
Ġend point
P refix
Ġc ol
v a
is sing
Ġd atabase
gr pc
F ailed
T W
Ġco mment
Extension s
ĠF l
di amond
m Z
Ġ æ
ĠS ub
from Buffer
ust er
à ¥
ĠObject ive
A fter
p refix
n ative
ĠG DeviceDetailsData
ĠN ote
ER R
Arg umentError
cre ment
Ġcomm and
per son
Ġmax Lines
G u
H Vy
a ut
ob ile
Th is
Ġmessage s
tr ade
ENER ATED
p th
to Double
Ġ %
G V
T otal
Mo ve
F etch
Ġun used
Ġspec ific
ĠSh aredPreferences
ensure DynamicLibrary
HasBeen Opened
ensureDynamicLibrary HasBeenOpened
k it
Ñ ĭ
ĠRe gExp
D one
Ġc annot
ar s
et te
ĠP aint
L ower
ver y
Ġh ere
g iphy
ĠCircular ProgressIndicator
I i
å Ń
In formation
ĠT e
p references
Û Į
Ġ5 00
G radient
25 5
Of B
yn tax
P ayment
a a
d ia
u ce
ĠL e
Ġme tadata
Ex ec
F ixed
\ '
Ġe lements
Ġp ort
Ġn ote
dXJ u
s With
Ġpreserve AspectRatio
9 1
ĠRe ct
plan ation
ĠArg umentError
B uilt
Widget Tester
Ġ2 8
ci pe
S ymbol
am b
ak er
Ġin valid
Ð° Ð»
spl ash
ch or
ĠR E
map s
Pb FieldType
Y Mid
d C
x Mid
de ep
Ġle t
xMid YMid
r ule
s b
Ġc ollection
} ");
ĠSc reen
ĠY ou
y cle
Ġparameter Types
gener ated
b ed
sh are
k g
D rawer
ch ase
Ġcomple te
er ic
Ap plication
s Request
ce ll
re cord
Sc affold
B B
St atic
al low
Element s
u ted
ak ing
A udio
alcul ate
at Lng
by tes
j a
Const ants
Ġmethod s
a udio
"] );
ĠMethod Channel
ĠDe vice
C ubit
" ).
Ital ic
re st
al i
Ġuser name
Ġf oo
Ġre ason
vid ers
push Named
ublish er
added Blocks
Ġo ff
ublic Key
C alendar
Ġe mit
Type Args
let on
Comple te
V ER
c ity
Ġtext Style
f il
Ġc re
an alyzer
Ġo d
y y
Ð º
Con tract
Par se
tach ment
aly tics
IF Y
'' ');
S core
Ġo Json
M ask
Ä ±
ĠAn imated
H tml
Ġ" $
Ð½ Ð°
o ard
te x
Ġst ep
Ġ4 00
D B
P ur
ĠCreate s
I t
ar m
Ġse lection
Ġquery Params
sp ade
S witch
D oc
u a
ack et
Re gister
Ġ? .
par ator
bm N
re ce
W N
Ġ 64
Pro xy
ĠR aisedButton
9 00
ĠComple tes
f loat
f reezed
Ġre d
Ġ[ "
iz ers
es c
found ation
ĠOut lineInputBorder
V AL
ar ies
log ger
Ġtrans action
tp Center
IG HT
c hed
ad ge
/ {
get Instance
ĠP ath
S ince
ad o
(" /
to ast
And roid
//////////////// ////////////////
Ġplay er
atal og
Ġlabel Text
delay ed
Ġac c
ld HVy
ai V
W allet
å º
Ġshow Dialog
co gn
Document aiV
ene fit
P tr
è ¡
get Selector
Ob jc
Ġb loc
mo ke
Method Info
row ser
Ġpro file
ST R
Te am
losing Price
Objc MethodInfo
Ġ art
ĠN ull
Ġj s
ur face
IN T
Ġcon nection
nob r
B anner
b it
ĠF lex
request er
> (_
Ġ Id
'] ['
optional TypeArgs
Point s
C ol
O B
Ġre ference
Ġp op
ĠO F
p i
Ġp refer
ross Axis
ol ver
8 00
ent ic
Ġb u
Ġ 000
Co re
point s
bi B
type d
25 6
Ġb ound
Ġ[' @',
> ()
Ġn ow
Ġw indow
Ġl ike
c s
var iable
ĠText Button
ĠCon str
8 1
R L
v isit
comm and
ĠTextInput Type
expect Async
cent Color
ent ation
D o
op le
ent ities
Ġse lect
D TO
Ġ" ",
pl us
Ñģ ÑĤ
ĠAnd roid
ve ctor
Ġnot ification
V isible
S ong
[ ^
ĠĠĠĠĠĠĠĠĠĠĠĠĠĠĠĠ ĠĠ
R outer
Ġunit s
] ));
Z nV
j dGlv
en able
Sc hema
ĠC ircle
Ġst orage
ĠH e
Ġcl one
iffer ent
d x
Ù Ĩ
j ust
Ġobject s
common s
ag ing
ä¸ Ģ
E poch
S vg
Time out
Ġwith out
Ġre place
ĠN O
b atch
at ient
ĠM od
all ery
que ue
ĠG ENERATED
ang ular
Ġw ant
l ing
l ines
const ant
Ġab out
ran ch
Ġ ter
al s
To ast
ĠR ender
Per son
t il
Ġtext Color
Te ar
Ù ħ
Page Token
Ġ Q
av atar
Ad apter
Sub ject
c n
Top ic
Pri vate
Ġcont inue
man ager
p Z
Bo otstrap
Ġd irection
P e
ĠN etwork
a X
Ch aracter
As String
ir d
Ġse lf
Ġ'../../ ../
If Absent
ac ity
Ġt wo
F older
in st
ĠGoogle Fonts
G ET
( -
I am
M L
Ġchange s
\ \
Ġo ptional
Ġpro gress
P hoto
l ta
s ired
w indow
(' -
Ġb inary
ĠBuild er
mo ji
enc y
Per iod
(' ${
ĠV oid
atter y
te am
Ġd irectory
ĠĠĠĠĠĠĠĠĠĠĠĠĠĠĠĠĠĠĠĠĠĠĠĠĠĠĠĠĠĠĠĠ ĠĠĠĠĠĠĠĠĠĠĠĠĠĠĠĠĠĠĠĠĠĠĠ
ĠPro to
mov ie
æĺ ¯
L ive
L ayer
Be an
be gin
fl ag
Ġ6 00
O UT
Ġre port
Ġvalid ate
ĠV al
ĠPro ject
in ess
al ette
from RGB
Ġs ingle
Inter face
Ġb ook
Ġp rice
Ġst roke
En ter
Pl ugin
Over flow
ĠN o
B us
Ġ html
Ġtr ansition
Ġtr ailing
ĠSet tings
Ġdebug Print
AUkaAUkaAUkaAUka AUkaAUkaAUkaAUka
Ġd ay
Ġde sc
An notation
ition al
vid ence
>> {
mb ers
ĠPo st
ĠStream Controller
d one
Ġd ialog
el se
ShkBShkBShkBShkBShkBShkBShkBShkB ShkBShkBShkBShkBShkBShkBShkBShkB
Z S
ct x
ache d
an imate
int l
Json Value
] ['
inding s
TY PE
red it
T odo
doc s
U i
h ook
Ġcon trol
Mod ule
aj or
pro gress
b b
ub e
T ri
14 7
K C
ĠC ategory
c alendar
Ġd id
Ġcomm ons
ĠisF alse
ĠG ame
de tail
ĠCh at
C ar
ĠB Y
fromRGB O
red ux
=" #
ĠAnimation Controller
om atic
md W
ident ity
Sp ace
as sed
st ro
ĠAl ert
Ġfile s
get S
ZnV uY
Ġp attern
J ldHVy
tr ie
we et
Ġd raw
Re tail
/ $
L ock
index Of
background Color
t d
Ġnamed Args
Error s
N on
as c
Ġe l
AL L
ĠM OD
put IfAbsent
Up load
Ġde precated
s ite
ĠLoc al
> >(
un g
Check ed
er n
Ġre ct
Re lease
er mo
He aders
Ġre verse
Ġgener ate
k ind
Ġs upported
ĠN e
sc affold
Ġor iginal
Ġw ord
D omain
/ \
Per cent
afe Area
de veloper
ure d
is ibility
Ġuser Id
Ġ ge
ers ist
IN E
AM E
Pre view
C art
un known
Comple ted
ãĢ Ĥ
å į
Ġex ception
bu ted
GoogleCloud Retail
se lection
tr aded
A tom
æ ł
acc TradeValue
units Traded
E F
c ry
head line
ĠMaterial Icons
photo s
Ġspec ify
x s
pro perties
in ner
C ity
re set
Ġis s
open ing
. ",
Visit or
F oo
Ġb etween
Re ader
Ġbe ing
C an
L iteral
[ _
Ã §
Re ply
lo aded
Ġse ction
form Key
aW Y
OfB enefit
planation OfBenefit
Tear Off
r andom
S ink
E ven
comp are
Ph ysics
Const ant
T imer
an a
ex ception
N S
Ġ ;
Con firm
Se curity
. ");
Ġover flow
j unction
m F
Ġh ost
lat ive
g if
Api Request
fe atures
ĠAc count
ator s
proto type
ĠCur ves
R aw
d rop
v ide
St ats
Wrap per
Ġkeyboard Type
Ġs ymbol
S ort
U sing
Ġ1 9
av a
P air
ĠLoc ation
ĠBo otstrap
We ek
Inter nal
Ġref resh
I P
eng ine
ĠMOD IFY
Lower Case
Bootstrap IconData
5 12
p icker
ack ed
Co m
Ġsub Part
def ined
O wner
Ù Ħ
se ssion
Ġco untry
u k
Ġlog ger
get String
ĠC ODE
Ġr aw
aract ers
st roke
font Weight
vis ible
O K
c id
ĠV ideo
res olve
Ð ²
on Tap
P in
ro ugh
ĠT able
Ġch art
le c
S uggest
se lf
Ġh andler
F n
u uid
60 5
K Qp
S ingle
Ġ array
Since Epoch
Widget State
Ġtest s
Th ermo
U g
Key board
se ction
Ġper son
present ation
D ig
o use
å °
ĠS ource
C upertino
log o
N avigator
d irection
Ġm enu
Ġarg ument
ä¸ ª
I E
ĠB e
Ġ'. /
il ation
Ġcomple ter
âķ Ĳ
F A
S ave
Ġident ical
å ĩ
Ġ Ñģ
Ġe ither
C T
f uture
sit ive
ĠPar ser
¾ ç
w i
ash board
ser ies
rag ment
Thermo stat
Ġg rid
Ġ Qu
st iny
Ġl ib
json Decode
Search Token
me tadata
A Y
ro uter
to LowerCase
Ġt ile
ĠJS ON
er ature
Ġa void
Ġt ree
Ġgener ated
00 18
Ġl ines
res pon
lay out
D istance
ri ve
ss ible
sh ade
el low
ES S
peri ment
Ġ ,
Ġf il
ĠB rightness
cover y
we ather
Ġborder Side
Ġc tx
U P
á »
Ġ1 000
app ing
ĠPo int
Ã £
Ġlo aded
T Result
P ool
Up per
à ¹
å ½
Ġconfig uration
ateg y
project s
Ġl ight
g it
Ġiter ator
G esture
Ñ ĩ
ĉĉ ĉ
Ġus ers
Ġp ur
avig ate
Ġerror s
Background Color
m t
AR R
Ġm onth
um my
Mo use
ĠD irectory
ĠStr uct
Al ias
co py
Inter val
Ġact ual
a u
m ixin
ĠSt yle
E l
J s
m ac
Re view
'] )
ĠG roup
( <
F irestore
re et
An alysis
Ñ İ
Ġme dia
az y
Ù Ī
Re place
li ps
GoogleCloudRetail V
Con nect
call back
id den
Sh are
Ġm ajor
ĠAsset Image
Ġ ui
Ġs erial
V ertical
sub title
B undle
GoogleCloud DocumentaiV
M ess
h our
pe t
Ġcon s
Ġas set
Ġt ab
get N
By Id
Ġr andom
: "
c he
Ð ¼
User s
Ġset Up
&& (
Ġtool tip
has Length
D b
F hir
X ml
ic ode
is ode
ro ad
ri er
P icture
File s
ub ble
00000000000000000000000000000000 00000000000000000000000000000000
st ep
to do
Flag s
A uto
Re peated
33 33
Que ue
Ġpar ser
Ġbl ur
Setting DeviceTrait
Thermostat SettingDeviceTrait
Ġw hether
2 65
U B
Re st
BytesHomogeneous Uint
stro y
ĠA ction
Ġtr ack
W atch
Ġs ong
De bug
Ġ3 9
Arg ument
Ġup load
p loy
Ġd ark
Ġa xis
er Id
con trol
ĠC lient
(' ''
ĠĠĠĠĠĠĠĠĠĠĠĠĠĠĠĠĠĠĠĠĠĠĠĠĠĠĠĠĠĠĠĠ ĠĠĠĠĠĠĠĠĠĠĠĠĠĠĠĠĠĠĠĠĠĠĠĠĠ
Ġdistri buted
d W
add Listener
pendenc y
Ġ1 50
adi o
cl u
ĠApp Colors
âķĲ âķĲ
O F
ro me
App State
Ġ(_ ,
sing le
Ġmod ifierExtension
0 101
ĠH AND
C r
in te
id dle
trans action
\ "
d ers
g or
at tributes
Ġp ub
pt im
Ġte mplate
ĠS afeArea
ĠV ersion
h a
99 99
M ovie
p ass
l imit
ĠT ask
key Value
P r
S aved
al ert
alcul ator
é ¢
from List
ar io
Time stamp
Ho st
V ector
s ocket
Ġthe y
Native Function
ĠN ew
istri ct
de mo
Co untry
sh op
ĠN ode
so le
as ThermostatSettingDeviceTrait
Ġre gular
Ġass oci
Ġal ready
OR T
scri ptions
page Size
Ġ[' |
apt ion
c ure
v m
ĠRe ference
TE D
KX t
F irebase
gan ization
T C
p od
k s
ens ity
ĠNot ification
P ixel
ĠIn it
Set tle
b W
Ġp assed
ĠCon fig
write ln
Ġbase d
q r
Bo ard
ĠWh en
g y
AR T
I TH
ĠS l
Ġ() {
Svg s
d id
f ree
} ",
Ġ --
json Encode
ĠBootstrap Svgs
Cur ve
ĠP h
Ġg r
Ġv isible
row s
Un known
g ment
Ut f
O p
ass ert
serial izers
clu ded
B alance
Ġme ta
Ã£ o
M ixed
mp loy
å ¯
is on
ra ction
p ick
bu ilt
b ound
Image s
Ġcor rect
L ib
â ĸ
Ġl aunch
Z one
Ġg radient
Ġy ear
Ġk ind
il i
ig Int
Ġe qual
Ġco urse
ex ists
Ġpro to
Ġg o
Ge o
B A
P ass
S ans
event s
P R
ĠD io
page Token
Form atter
serial izer
an e
c a
Ex tra
IClDIClDIClDIClD IClDIClDIClDIClD
N av
l ations
Ġin voke
ĠI mp
W E
re lease
Ġsecond ary
M ath
Ġo ption
Ġs ort
Ġse ssion
Ad min
Av ailable
L imit
low er
B R
f ocus
in a
oc ial
oc used
G r
Ġun necessary
p ad
Co py
Ġ View
List View
0000 0
pre vious
38 9
exp and
Ġs upport
b us
p mdW
al f
if act
ĠF loatingActionButton
Ġchar set
G en
G DeviceDetailsData
En coding
Code ableConcept
Ġupdate d
Wh en
ĠChange Notifier
Ġis Loading
ä ¹
update d
en abled
iz es
ri end
Ġon Error
ĠS ystem
List Tile
de sc
pl ugin
AC K
tag s
E quals
M S
x z
Ġ2 6
Ġ2 55
Ġkey s
ĠC H
Ex planationOfBenefit
te cted
Re mote
down load
d out
Ġo pacity
Ġparent Id
sign ed
po sed
t ree
ped ia
Ġre pository
ific ant
Med ium
F fi
is Loading
ĠE dit
)) )
Ġre st
up le
ĠG e
Ġpre v
Ġsk ip
Fhir Extension
L en
P RE
Ġ pe
tr o
ver age
De leted
Ġfollow ing
ĠD ocument
c art
ĠI S
eng er
Ġch at
as y
ĠM odel
Id entity
ĠVal id
c ause
å Ĩ
to Int
Ġe ffect
Re po
Credential s
Ġget Default
m V
Ø ¯
Ġsub ject
. ';
M A
U id
Ġreturn Struct
Con dition
cur ren
in valid
ĠB ar
) ';
v ite
Ġm ath
State fulWidget
Ġ3 1
Page s
S uper
ĠVoid Callback
c anvas
h p
l and
é ¡
EX T
pe at
Ġun ique
; \
ĠB y
y aml
And Settle
ĠD o
Ġname s
Ġf ailed
Ġ2 1
ĠPro file
appl y
fe ed
s mall
Ø ª
son g
um bn
display Name
Token Type
F eature
p ag
æ ī
Route s
Ġg oogle
l c
p ublic
ad min
Ġmo ve
Ã Ń
é Ĺ
r ong
fo od
Ġauth or
Ġ(! _
Sw K
pump AndSettle
Cor ner
F ace
e quatable
n avigation
Ġ3 6
Ġph ysics
imension s
Ġsh adow
Ġn ormal
cur rency
ĠS IGN
Ġw rit
Ġcreate dAt
message s
G R
G rey
l a
Ġsign ificant
C O
ĠLoc ale
Sc an
Sh ort
g p
ge x
S ummary
st er
he ll
In st
ĠX ml
Pan el
str Homeaddress
Form State
E vidence
f older
H int
ĠW ork
str uction
ĠS tore
Ġpo s
Bu cket
O ri
Ġd on
C losingPrice
i res
it or
is ual
show SnackBar
O mZ
d r
Ġch aracter
Ġde legate
Tr igger
Ġpar sed
z e
æ İ
ĠD atabase
wait ing
ĠDe lete
ĠBox Constraints
P uzzle
im m
element At
ĠBuilt Value
> ",
sc ure
() }
fa iled
Ġfrom Json
Ġlet ter
if est
ĠT imer
Ġ2 9
Ro le
L I
R andom
Ġn etwork
String s
Ġwidget s
Ġ2 3
Ġh ow
Ð½Ð° Ñı
sum mary
> ),
ĠMy HomePage
Ġ **
Ġre set
ap sed
initial ize
t i
v i
ĠText Overflow
ir th
Ġ 70
Ġfl uctate
ĠÐ ²
N AME
o Y
P ush
a e
s quare
de sired
ĠÐ º
Ðµ Ð½
Ġblur Radius
pl icit
w rap
½ ®
Ġr untimeType
ON G
VAL ID
Ġpo ints
Tag s
current User
M irror
ad or
Ġs cope
pl it
Ġf ail
Ġ- >
Data Source
inter face
m ory
av el
Mod al
g rid
g rade
Ġpre load
Ġchange d
ĠA C
Scroll Physics
entic ated
lips is
In d
Ġd ifferent
Re q
red ient
create dAt
Ġcomple tes
it o
In voice
dis patch
Ġdefault Value
Valid ator
sk ip
Ġ' :
Ġ1 32
start sWith
Ġro om
Sw atch
ĠHome Page
Di agnost
throw s
s ample
Re ason
par ser
æĹ ¶
Ġre quire
W rite
r adius
ĠM ark
Ġsp ace
Tool tip
Gener ate
Dis miss
re qu
ĠA b
ĠAlert Dialog
Down load
AG E
ĠS p
ĠĠĠĠĠĠĠĠĠĠĠĠĠĠĠĠĠĠĠĠĠĠĠĠĠĠĠĠĠĠĠĠ ĠĠĠĠĠĠ
ĠE xt
web p
ĠHttp Server
r ating
IC Ag
position al
mergeFrom Message
m ar
x ml
æ į
Ġcreate Repeated
L aunch
ap is
Ġ5 8
Ser vices
== =
M argin
Ã ³
In vocation
ĠU RL
ĠBloc Provider
e h
w ay
Ġand roid
Ġimage Url
F OR
I R
P attern
b est
å Į
cl asses
f avorite
Ġo wner
ĠEx pression
un ted
Ġis NotNull
Ġde stination
Loc ations
ĠOr der
B rightness
ot a
ĠWidget s
L k
ail y
Ġal ways
Gl z
N one
c are
v olume
Ġover head
Se cret
Ġcur sor
ERR OR
ä¸ Ń
M ov
her ited
= [
e f
am ily
ordin ates
Sc hedule
ĠAs ync
ran e
JS ON
in clude
ĠHT TP
t ain
Se mantics
Get ter
constr uctor
b ind
ĠV er
time stamp
' \
g ative
Wh ite
F avorite
Ġ ))
ĠR andom
Ġac cept
periment al
F R
to oth
. ''',
u ally
Ac cept
Direct ive
Ġ question
Ġd ue
Lo ader
C R
é ĩ
pro perty
Ġen sure
AS S
Ob server
b c
h and
ĠV ar
## ##
l s
ĠD ropdown
Ġwith in
then Answer
Ġj o
Generic Extensions
ro utes
Ġr ule
GeneratedMessage GenericExtensions
on y
Ġbox Shadow
ä ¼
de legate
ĠGener ated
rink Wrap
aur ant
Cur sor
ĠLine ar
ol og
Group s
Package Name
Ġs w
Ġbe cause
Ġprimary Color
l icense
Ġcon dition
loc ity
Ġjson Decode
Ġser ies
Bl ack
Ġdocument ation
road cast
> ((
ac centColor
] :
At tachment
sub ject
Hel lo
Ġassoci ated
per mission
kFont Fam
Ġp ublic
ĠRe ad
Bytes Nested
Ġmatch es
G reen
Ġg l
Ġf loatingActionButton
Ġ[ ]).
ĠB l
Ġg raph
has Required
e lements
Ġvariable s
fix num
w p
Ġl ak
ore d
70 7
Ġtag s
3 18
hasRequired Fields
Change s
P lease
We ather
ĠBox Shadow
next Int
animation Controller
"}, {"
D ropdown
j df
o h
Ġset Field
R ating
F ix
Ġ' "
ĠÐ ½
Bottom Sheet
cache d
ì Ŀ
at as
Ar row
Ġs uch
ĠP op
ĠBottom NavigationBar
L T
Over ride
Initial ized
tr l
an alysis
ch ain
Th an
C lip
R Rect
æ ŀ
Ġb oth
s heet
Ġc ell
Ġ" ,
Ġad ded
X T
ach ine
day s
tool s
Ġw rap
LC J
if orm
ed ge
Base Request
End point
l ang
Ð ´
im ing
ÑĥÐ ±
S ample
Ge ometry
p ayment
t imer
Ġkey word
p ay
Ġ} )),
sh ort
Ġp a
app end
H orizontal
to ggle
ter min
av ing
Second s
r aries
up l
ä» ¶
c G
li pb
01 2
Ob j
3 19
c p
d l
str uct
ĠComple ter
Ġs oftware
Ġex it
12 8
) >
z one
ur ing
Ġcontent Padding
MM M
10101010 10101010
M ENT
S quare
s ink
} }
Ġre po
ĠN umber
first Where
K e
s core
Ġ' @',
Ġper form
St at
Ġl ayout
ordin ate
M s
Ġ5 9
k emon
Ġre fer
msg Send
Ġpermission s
un splash
ction ary
F ore
P H
åı ĸ
umbn ail
| '],
ar ison
GgHJGgHJGgHJGgHJGgHJGgHJGgHJGgHJ GgHJGgHJGgHJGgHJGgHJGgHJGgHJGgHJ
en te
is True
Ġjson Decoder
by Key
32 9
At tributes
scroll Controller
N E
ç Ľ
Ġ ~
({ @
ĠToken Type
( !
sym bol
ven ue
k ing
lat itude
My HomePageState
Ġun known
New s
åĬ ¨
á º
\/ \/
m n
Ġ enter
o YS
ac cept
to Map
lo or
Ġthe ir
av ailable
ĠW rap
ĠOb servable
f ixed
n y
el lipsis
f SwK
Ġc over
Ġc lip
ĠI s
As sets
Ġen vironment
ï¼ ļ
æ Ķ
Ġcon nect
Ġh ide
Ġtext Direction
mod ule
d rag
h andler
IN D
Ġ' );
end or
vent ory
Ġsh ort
ä¸ į
: \/\/
Ġo p
ifi ers
Ġsub scription
Des ign
down loadOptions
h int
z a
Ġp hoto
(' \
second ary
e ven
Ġb el
Al pha
Code s
He ad
d H
oly line
Ġ} ));
ak es
org an
æ ³
>>{ };
O perator
e ase
Ġdoes n
imm utable
Ġ ë
as Function
Ġimp licitRules
gest ure
lipb oard
ist ics
Ġis Null
pro d
Ġtime out
apt ure
ĠCircle Avatar
L icense
a OS
ĠF ind
error s
ON E
F O
Be fore
ĠSer vice
L F
R ot
S ER
Ġ âĢ
ĠHttpServer Mock
Replace ment
if ec
red icate
He alth
) ],
g b
re mote
le ep
am a
Co urse
C OM
I ED
ext ernal
Ġm aking
key board
'] !.
h istory
ot ion
` ',
sign In
> ))
Ġ img
p attern
Ġnode s
Ð°Ð» ÑĥÐ±
G E
Ġv ec
Ġd one
Or Null
@ $
update s
or iginal
ĠP ackage
Ġt ap
Text Color
ick et
Resource Type
je ction
ifec ycle
Ġre ader
Ġpo inter
Ġj ust
Ø ¨
Ġco unter
file s
T wo
Z m
Action s
pen se
hed ul
Find er
s moke
od d
ANG UL
! [
D j
32 0
Art icle
f ailure
tr al
Ġ3 8
Link s
è §
st it
Ġe m
To String
ĠCh ar
f ire
Match er
w n
æ Ŀ
ic a
Log ger
pend ing
merge FromJson
O k
>> ();
f c
ag raph
Field Error
Ġquery Offset
string Response
k ed
Ġallow ed
ĠAN Y
Ġres olve
date Time
ital ic
ĠÐ¿ Ð°Ð»ÑĥÐ±
ĠM em
Ġscroll Direction
mergeFrom Buffer
ĠDe coration
Ġ' ');
app le
ĠÐ ¾
long itude
s To
Ġs ent
ĠH ANGUL
iter ator
upload Media
gor ith
I l
Ġc ity
Ġ3 4
Text ure
Z h
or ange
ĠLog ger
full y
pac er
F ocusNode
I ss
R l
b rightness
mo re
Ġpro d
icker Provider
a Glz
Un its
at tr
), ),
Ġa udio
sc an
spec ified
posit ories
Ġdef ined
H ex
st age
Ġdis abled
d om
x i
Ġf ocusNode
ud it
ĠTrans form
Ext ernal
launch er
ĠO ver
UC T
Auth or
è ½
ä¸ º
Day s
) _
r ics
ing er
resh old
m and
Ġ uid
ĠC loud
com b
ed s
ĠF irestore
Sl ider
/ '
r ase
s upported
Ġthe m
Code c
ãģ Ħ
æľ ī
ĠF ocusNode
ĠA t
refer red
cre te
k er
å ±
en ge
32 5
Ġqu antity
Upper Case
Y ou
ĠInit ial
Ù ĩ
id s
sc hedule
al es
Ġrow s
ad a
qu antity
Ġro utes
Ġc rossAxis
Ġn avigation
201 6
3 13
H our
f old
id u
ĠS nackBar
Ġd rag
åľ ¨
Even ly
3 15
o peration
up loadOptions
ĠCont act
3 16
G o
r ing
Ġre gion
ĠRe f
w d
Ġin d
Al low
Ġ4 8
space Evenly
nack bar
è ¾
Ġde code
Ġco mb
pro viders
ml m
Ġ00 2
C ert
E B
R v
al ent
ut ation
Ġin dic
14 6
Pl us
ol ute
ĠT ween
ĠString Buffer
P ub
m ake
å ¸
re verse
ĠL ink
ĠĠĠĠĠĠĠĠĠĠĠĠĠĠĠĠ ĠĠĠĠ
ĠĠĠĠĠĠĠĠĠĠĠĠĠĠĠĠĠĠĠĠĠĠĠĠĠĠĠĠĠĠĠĠ ĠĠĠĠĠĠĠĠĠĠĠĠĠĠĠĠĠĠĠĠĠĠĠĠĠĠĠ
ĠĠĠĠĠĠĠĠĠĠĠĠĠĠĠĠĠĠĠĠĠĠĠĠĠĠĠĠĠĠĠĠ ĠĠĠĠĠĠĠĠĠĠĠĠ
Resource Api
cur sive
ĠUn icode
el come
Ġ4 5
ĠAn alysis
å® ļ
V M
Ġh and
20 20
PO ST
Ġap pro
JldHVy biB
I g
loc ations
Pop up
ĠFlex ible
t xt
re ported
Ġm ultiple
fl ict
and id
T ween
i et
en tries
Ex it
for ce
Man age
F e
h ide
re build
c at
ĠM atrix
Ġ+ +
12 00
S Y
p isode
ä ¿
er ci
11 7
Ġ20 20
Long Press
ret ch
KGUEKGUEKGUEKGUEKGUEKGUEKGUEKGUE KGUEKGUEKGUEKGUEKGUEKGUEKGUEKGUE
De stination
s m
Ġex tra
ĠTo ast
omatic ally
L Ap
M issing
c ap
en se
" )),
R y
m usic
Ã ¼
Ð ¿
ro le
Ġsh rinkWrap
Comp any
Ġappl y
Sh ared
Ġstack Trace
b re
Ġb rightness
if ference
Ch oice
ĠCon nection
ĠLo ad
D rop
u ite
C g
or igin
Ġd ir
OR D
n b
act ual
View State
we ek
St amp
wh en
apt ive
Ġf ore
hel lo
p or
pro t
Ġsc ript
helper s
Ġ_ (
ex it
Ġ answer
32 8
79 0000
-------------------------------- --------------------------------
mant ic
I j
row n
ĠNO TE
dis abled
ee ded
^^ ^^
medi ate
on ical
ill ing
Sign ature
Ġiss ue
ing leton
ch ool
De pendencies
ĠCo untry
Ġa st
Re set
Ġhe ad
Ġpart ial
even odd
un tries
from Index
ĠAr t
: ${
T T
e valu
Ġin dicator
color Scheme
ĠDate Format
Ġiter able
Com ments
to UpperCase
el y
all enge
pl ier
Trans fer
Contact s
game pedia
L INE
g g
é Ŀ
check ed
KE Y
K T
K aWY
ch ar
ĠÐ¿Ð°Ð»ÑĥÐ± Ð°
R pg
a xis
Ġ' :',
Ġm atrix
44 44
compare To
Ġo c
ĠU I
ĠFirebase Auth
b ig
Ġro uter
Cur rency
Ġd io
Be gin
s n
Ġtype d
pre ad
d irectory
s cope
un ce
Ġm aterial
image Url
mploy ee
3 17
Ġre lative
ac ed
li ke
12 34
ER O
cond ition
C A
F i
f aces
s ur
Ġs ample
li ance
top ic
re peated
ud y
An imated
ĠLo ading
jdGlv bi
c g
ĠCon st
Pl an
" }
. $
Built Value
C mlm
E dge
y ellow
Ġ3 7
Ġ' ')
and ing
> ['
C ategories
F r
res ses
center Left
ARR AN
product s
M illiseconds
Ġf b
State Mixin
ĠW ARRAN
B reak
s witch
er ge
er ies
ĠDe mo
Node s
Ġinter face
ĠFontAwesome Icons
Ġexist ing
Rpg Awesome
ud W
ĠSe lector
A st
H H
s Y
ĠF ocus
Var iant
Ġmay be
Notification s
d D
on es
(' (
new s
Ġpro gram
ĠBox Shape
Del ta
O U
V t
Ġnew Value
Ġro t
Ġtime stamp
ĠRE ST
j ob
Ġf ailure
00 2
ĠA uto
ick ness
ens or
(' .
ot s
ject or
Ġag ain
ĠM o
catch Error
Ori entation
B tn
Ġ ç
Ġin sert
Star ted
b all
List State
An im
Ġch aracters
gorith m
I TE
re ason
Ap Qy
no tes
Mem ory
Char Property
N OT
ble m
oly g
re ader
re view
ic able
ĠE quatable
ĠD esc
======== ========
C B
Ġs pan
ba idu
ĠUnicode Range
= !
L A
S A
Transform er
P ay
Ġd omain
ke ep
scure Text
ĠChar Property
Ġ' @
Ġs plash
Ġ< <
not ify
ll ig
re po
Ġvar i
ApQy ApQy
oo p
per cent
Ġletter Spacing
: `.
n av
_$ _
ApiRequest Error
if ies
Ġdef inition
M T
Comm on
ĠAuth ors
P ayload
Button s
17 9
Auth entication
ĠScroll Controller
P RO
Z E
c lock
Ġf irebase
Ġw orld
ĠSt atus
Bound s
O ptional
P kg
al ign
() ?
aX M
Q F
Ġre lease
Ġp i
N l
th es
Ġc rane
mo unted
body Text
next PageToken
run ning
ĠD et
v ron
Ġ1 33
10 2
E sc
con firm
Ġe very
E ffect
it Test
ĠĠĠĠĠĠĠĠĠĠĠĠĠĠĠĠĠĠĠĠĠĠĠĠĠĠĠĠĠĠĠĠ ĠĠĠĠĠĠĠĠĠĠĠĠĠĠĠĠĠĠĠĠĠĠĠĠĠĠĠĠĠ
Me asure
ĠCode ableConcept
Jo in
G it
12 5
11 9
s pe
TI ES
S yntax
icip ant
æ ģ
ĠG rid
ĠApp Localizations
æĸ ¹
Ġcenter Title
t or
ce ptions
list ener
comp ute
Ass ignment
Ġhel p
curren ce
I I
v ing
w ire
As sert
L y
Ġp ayment
Ġw ould
ĠAdd ress
åĬ ł
p are
mo us
Ch ip
Sh ould
ĠPer mission
Ġp ayload
if e
cl ick
Render Object
lement ation
Ġs core
Res p
Url Request
Ġsub Builder
Ġtop ic
TION S
ickerProvider StateMixin
S dk
l B
Ġre mote
ĠS pec
18 79
llig ence
3 14
on Pressed
Ġacc TradeValue
Ġunits Traded
D ensity
le m
ĠF ilter
Reg Exp
_ ,
h i
ce p
Ġfor ce
Ex panded
32 4
e ch
. $_
Ĥ ¹
ĠU t
f ollow
et ic
Al bum
Ġ4 01
line To
bo ve
æ Į
de sign
ch ron
Ġro le
Ġstr uct
Ġcomple ted
ik i
task s
p ause
Dart Type
ĠGoogle Cloud
riter ia
Checked Mode
N U
Ġ1 20
To ggle
ang er
Dis patch
\ $
n am
Re cogn
ir t
B U
re ater
ĠW ITH
Ġdown load
package s
cl us
Ġav atar
B it
re ply
ge on
Ġf ocus
Ġinter val
f s
Scroll able
rot ate
Ex port
EN D
Ġother wise
Ġflag s
Ġfinal ly
10 5
Ġpro vide
M obile
Se quence
ant i
move Next
Ġ~ /
3 30
List Item
(' <
ĠM an
Ġex ists
Ġan notation
Ġat tribute
ged In
l w
Ġf in
is ch
Ġcon firm
im ul
ag ger
I OS
Ġs up
Ex pansion
cur sor
ony mous
x c
Ġtr igger
ĠL ibrary
G F
B inary
ĠM ulti
Null FieldError
ĠBuiltValue NullFieldError
ĠVar iable
f our
ub ic
Ġ! _
default For
C ENT
S en
r at
æ Ģ
Ġadd itional
cry pt
Ġp ublisher
over lay
Edit or
ich Text
kFont Pkg
g a
Ġc amera
Ġto ggle
(_ $
ick s
ep ali
Ġover lay
Ġcolumn s
010 9
C i
ĠP ri
(" $
node s
: $
b orderRadius
ge o
qu iv
yn chron
ĠN avigation
clar ations
Ġimport s
Ġ[ _
OS Policy
?> ({
positional Args
ĠB ook
ĠL atLng
Ġcont ain
ĠTrans action
ouse l
ĠDecoration Image
B ranch
Ġs rc
Ġs ocket
Ġd rawer
Ġst ar
Ġde leted
out ube
ĠWe ather
W arning
r ift
Ġp ush
Ġw ait
iv ate
" ',
c ut
ĠC l
Str ategy
Bytes Mixed
gener ator
9 38
e X
¤ º
Ġe dge
15 265
has Data
åı ¯
milliseconds SinceEpoch
4 80
Ġp ixel
Ġh igh
main ing
H ub
m icro
s y
Ġd iv
Ġex cept
14 4
Ġprimary Swatch
( ',
1 12
AR K
fe ature
STR UCT
Ġst udent
Ð¾ Ð»
Valid ation
exec ute
Ġ Resource
æĸ °
389 28
n avigator
Ġb it
ex tra
Ġbe havior
Ġ6 2
Ġupdate dAt
Ġ201 9
110 605
ys ical
Ġz ero
147 15265
Ġwrit ing
38928 1879
D ao
L atLng
N D
Ġs ync
check NotNull
Permission s
Mess enger
O C
å ·
å ī
toString As
Ġcurrent ly
Ġdescription Element
ilation Unit
D raw
L i
t l
} ),
ĠPro cess
Ġaut omatically
f ast
m atrix
Ġe st
cr ypto
requ ency
! ');
is olate
Ġis Empty
Sign al
Cl uster
> ');
m aster
Ġw atch
Ġan gle
Ġcont aining
then Return
ĠbuildCounter GoogleCloudApigeeV
inte lligence
æģ ¯
a wesome
f actory
s State
} '
Function Type
ific ate
Ġsecond s
r ine
Ġb oolean
Ð¾Ð ²
s ia
un icip
MyApp State
11 4
Ġdef ine
ĠInter face
Fin ished
CheckedMode Banner
? :
P ower
b asic
Font Size
ĠPro perty
ĠLinear Gradient
S peed
Ġ2 7
ĠD ialog
ÑĢ ÐµÐ
en v
Ġm on
Ġ5 12
ĠAp ache
Ġout line
Ġspecify ing
Rel ation
olyg on
c lip
å ¹
Ġse quence
river pod
hp cy
S liver
p ayload
ĠS vg
ri p
Show CheckedModeBanner
erci se
Ġf loat
Ġ" +
C C
d ig
ĠO ne
Ġme mbers
Ġimage s
78 9
Ġ( {
try Parse
Ad ded
mark er
ĠForm at
æĸ ĩ
è¡ ¨
A K
ĠS erializ
Ġm ov
ĠO peration
ĠA ct
= ');
g Color
Ø ³
ĠA udio
Ġex pansion
time out
ł ģ
ĠT HE
Product s
v c
Ġf eature
Base line
Play list
ĠInt l
Ag ent
h igh
Path s
not ations
è¯ ·
N ormal
P i
b ot
art icle
Ġs uffix
per iod
Ġlabel s
) ]
d irect
s K
s ZW
ĠO B
Event Listener
EE K
D istrict
Ġ ])
un used
Ġs uggest
Ġan alysis
op acity
Ġmod ify
ĠPar se
u z
ĠS T
Ġpur pose
Ġde cl
Ġr ate
Un til
Ro aXM
redential s
Ġpri vate
! )
F inal
S uffix
Ġthe se
hel p
Ġcur rency
Ġimplement ation
ĠFuture Builder
wit ter
ic o
ĠText Direction
Ġdate Time
ient ation
ĠClip RRect
ic ally
Ġbar rier
trie ve
ICAg ICAg
P ad
w t
Ġf ocused
ur al
ĠS pacer
Ġo ur
With out
Submit ted
) },
I k
Ġ im
or ph
pe ar
ĠC amera
object s
= '
g ot
em it
ĠGet s
ĠPar ameter
fr ont
notification s
Ġplace holder
ersist ent
U U
ĠT arget
ĠG raph
Ġal ign
Ġby te
Auth orization
u ation
u KGE
± »
ic ator
ĠCon vert
Ġte am
sk top
ĠSer ver
T x
ĠB igInt
]+ /
OB X
ĠWARRAN TIES
O W
ç §
se quence
Comple x
Ġopen ing
st or
ter ator
Use Case
Ġdebug ShowCheckedModeBanner
ĠEn tity
getS Z
g ments
Ġin ner
16 0
Ar ch
Second ary
l as
s ender
an im
ĠS ong
Ġ" .
ist ing
In sert
Di vider
s upport
Ġ look
ch aracter
Con sumer
Ġde lta
key value
../ ../
Ġneed s
U A
v ince
w a
dit ions
Ġquery Parameters
t wo
re al
Ġc ar
res sion
12 7
ploy ment
Ġb r
to Builder
sh ape
Video intelligence
& #
F T
æ Ń
Ġ' ðŁ
Ġn epali
ĠF loat
File Path
3 75
A V
tr ansition
Ġr ating
jdGlvbi hh
se e
25 4
Ġcontent s
Art ifact
10 6
row able
Ġpo ssible
Ġat tributes
ĠFirebase Firestore
A ge
Z oom
y e
ver ted
ĠM on
map api
auth entication
GoogleCloud Videointelligence
GoogleCloudVideointelligence V
I TY
d s
m argin
o tes
ur is
ĠH el
64 6
>> >
Ġcheck GoogleCloudApigeeV
HJ v
Ġper iod
ĠComple x
Gu ide
D F
H ook
I r
Ġ è
Ġp ick
Ġmap s
åħ ¥
æį ®
. \
J l
qual ity
proto col
ĠStream Builder
ĠSize Config
b attery
Ġd istance
State Property
E ither
P df
ĠS ql
00 3
co urse
66 66
S mall
ĠM enu
ie ce
Ð¾ ÑĢ
Props Builder
D river
l t
Ñ ħ
re lation
ĠCh art
m ultiple
Id Element
li ed
Ġmax imum
Ġcor respon
ĠConst ants
Q i
[ __
a fter
al ar
Ġ1 01
-- -
Qu antity
Ġob tain
ase s
Ġsc hedule
Ġtime s
âĢ Ļ
Y g
g ate
Ġd iff
Con versation
connection s
O ther
S el
Ġ queue
Ġre gist
Ġth rough
Ġw allet
ĠR ange
token ize
Read y
utor ial
] }
í ķ
An chor
Form al
ĠÐ ¸
fir med
ĠJson Serializable
B ER
Ġis olate
cl one
ubl ished
Ab out
document ation
k i
de stination
ĠT ag
com ing
ĠEx if
User Id
Ġsc affold
ok ie
v ance
é Ļ
st one
Ġ_ )
Ġs mall
ĠĠĠĠĠĠ Ċ
Ġmax Length
Temp erature
Ñ Ī
me trics
ĠT H
Ġmin imum
Comple ter
F ood
In teger
et ing
ĠD b
Ġor igin
1 33
ly rics
log ging
Ġper cent
ãĤ ĵ
Ġp in
Ġs b
ĠF ake
Ġ2 50
Ġi OS
ĠCh annel
cept or
F low
P C
e locity
um an
Ġwh ite
19 2
cip es
Ġf ree
C OL
o vo
ter n
Ġconst ant
class Name
act ivity
No thing
v acy
Ġp ress
Ġp olicy
oo se
__ __
Ġj ob
constr aint
C lock
p refs
an ch
he x
Ġ12 00
Sub title
DE F
ĠPer son
ĠRun In
L at
p ink
al k
po inter
li ve
10 4
Run ner
cip ient
3 32
M D
Ġc r
Ġde sign
ĠO ptional
bo se
ultip art
G Node
imp l
Ġcomp are
H ours
_ .
g ree
ĠT op
Back up
Scale Factor
P AR
l in
Ġre lated
10 24
exp r
åĽ ŀ
se lector
T er
Y y
Ġ unt
Ġs ure
Ġinitial Value
Mem bers
ced ure
Ke ep
C P
Q o
Y w
ç łģ
key word
Ġ20 21
Ġ9 0
udW xs
I Z
f loor
per s
Ġh ighlight
Us age
Ġv sync
Ġde lay
ĠO pen
ĠW hether
M ac
Res olver
Ġde tail
Me tric
SP EC
Ġ201 4
) "
ther e
port s
No tes
à¤ ¾
åº ¦
C m
Ġd ig
Re al
ight s
base Url
of ocus
Ġen tries
icen sed
contact s
w arning
ĠC ar
board ing
comp any
medi um
1 30
ar i
Ġto do
Se mi
sub scription
il ities
ĠC ollection
imple mented
Is olate
go od
Ġthrows A
bu cket
Ġcontent Type
Ð°Ð ²
ĠPlay er
pZ ih
u f
v Z
Ġb indings
ag ram
ĠSt atic
min Price
license s
A Map
S ome
å ¾
lo sure
Ġin vo
Ġco uld
ag ination
Ġsh ared
ĠIn fo
ces sed
H older
m ulti
st retch
Set ter
ĠDe f
Method s
push Replacement
Ġn avigator
mit ted
Ġmod ule
N V
n ector
ar n
Ġm ulti
ĠRe quired
Ġsign ature
C riteria
D D
D om
d ot
Ġt x
01 6
11 5
fer red
Ġint ernal
Ġappl icable
Ġter m
AUkaAUkaAUkaAUkaAUkaAUkaAUkaAUka AUkaAUkaAUkaAUkaAUkaAUkaAUkaAUka
C losed
X X
a ment
re venue
tr ace
10 9
sh adow
Search String
Sign Up
ĠS em
imp licitRules
Pro gram
max Price
Sw id
valu ation
d mF
ç ±»
Ġs pread
ĠB oolean
Ġset ting
Un ion
ĠAp plication
top Left
Red ucer
eX Bl
text ure
im mer
Ġwe ek
ĠS w
Ð½ Ñı
b ul
Ġa bove
Ġdirect ives
Feed back
ĠScreen Util
am ber
En able
arch ive
Ġ7 00
Play ing
Ġview Model
> ());
e ffect
å Ģ
over rides
Ġg u
Ġimp lied
Lm E
ĠWITH OUT
h c
er ved
al ing
de lta
é ĥ
Ġc ap
Ġ' #
xt ure
Ġ" -
Con nected
query Map
Ġob scureText
æĪ Ĳ
scaffold Key
j fd
m ic
bloc s
mock ito
ar ing
set State
ĠD rawer
mo use
sub scribe
Ġcomp ute
ĠK IND
fluctate Rate
closing Price
prev ClosingPrice
opening Price
Ġ': '],
ĠPop up
= >
Ã ª
Ġl ask
Ġal sk
ĠMaterial StateProperty
Over rides
Filter Builder
Ġfill Color
Web View
toStringAs Fixed
Ġalsk jdf
C F
E z
z h
Ġg en
Ġ9 8
local ization
bottom Center
l ers
al bum
for med
Ðµ Ð»
Label s
MM MM
comple ted
Ġserializ er
ĠCont ent
A E
H ive
d c
w s
ET TER
Suggest ion
C over
M C
En tries
Static Type
o res
y oh
at ched
20 21
Ġen code
comm it
Ġcl ick
G as
w orld
ãģ ®
hel f
enum s
yoh om
00 4
De cor
Ġde ck
Ġrun ning
Ġrepresent s
/ ${
> (),
(" ${
are a
Ġass ign
mod ules
p ress
ĠF hir
Ġal ias
der r
s ame
00 7
L ike
P ublicKey
ĠF I
Ġare a
label s
eh icle
O G
v ey
32 6
Ġan other
IN VALID
uch sia
ĠOut put
O i
ç Ĥ¹
Ġde claration
Int ent
yp ted
LE D
Ġover ride
Ġpr inter
éĿ ¢
M i
d istance
è ¦
Ġ lower
S ql
o ke
Ġf r
Ġs imple
Ġl ayer
Content s
Ġplay list
S urface
p ixel
u y
ĠS D
ĠC r
Ġh istory
AR GB
bn V
ä» ¥
4 14
I O
en ch
oo th
11 8
update dAt
Ġbound s
Ġv ia
(' #
ĠB AS
ĠD es
pon sive
Ch apter
AR E
AR Y
TI ME
ĠSe lect
Ġco pyright
34 9
Ġinitial ize
ShkBShkBShkBShkBShkBShkBShkBShkBShkBShkBShkBShkBShkBShkBShkBShkB ShkBShkBShkBShkBShkBShkBShkBShkBShkBShkBShkBShkBShkBShkBShkBShkB
: '
c ision
u er
Ġto Map
To uch
Ġsh are
Ġcont ained
Object ive
Ġicon Size
Ġpres ent
[^ /\
Ġserial ized
iz ing
Ġuse s
é¡ µ
K it
ĠL ETTER
Not Found
Imp lementation
EC T
pur ple
g ender
æ ĭ
Ġ >>
Ġs ink
Ġwh at
Sp rite
Ver ification
cep ted
o pt
o perator
r pc
s afe
ç º
ac on
Ġin side
ĠA P
L ate
a im
İ ·
ĠĠĠĠĠĠĠĠĠĠĠĠĠĠĠĠ ĠĠĠĠĠĠ
Ġf e
ĠS end
Sh op
Ġbu cket
o ption
s ome
Ġp rom
Ġset up
ud ing
ĠBottomNavigationBar Item
F ire
first Name
Sign ed
O perations
Y E
a ar
s ql
th umb
ac ing
Ġd en
ĠE num
Ġpage Size
Rece ived
Pur chase
FOR M
at t
Ġ[ ]);
res ources
Ġl a
Document s
junction Type
ĠImp ort
l iteral
en vironment
Ġc alendar
me mbers
Ġ" "
Ġin ability
ĠN QF
Ġrece ived
unicip ality
K c
T od
get List
loc ate
lect ive
ĠCon sumer
Ġrequest s
ä½ ¿
Ġexpansion s
S uch
Ġ 75
Ġt ake
we ight
/\ [^/\
R h
id ity
ut ing
Ġb asic
Ġon Saved
32 7
ãĤ ĭ
ĠInput Border
P A
U uid
u ck
00 6
(' &
10 8
Ġcontent Types
method s
Ġcl asses
Ġexp ress
! =
from ARGB
Home State
comp arison
Ġtheme Data
Ġhint Style
ver sed
ĠP assword
ĠO ther
ĠSh ow
dir ty
} ";
St ory
ĠIn dex
cl uding
B E
M ON
Ġ Question
Ġre build
Ġse parator
com ments
Account s
re gist
ĠM unicipality
ĠIn stance
Test s
AR AC
mark s
3 12
Ġcomp ile
P ER
S V
c rop
r x
s un
Ġ" ""
ĠT ool
Ġd uring
ag ent
'' ';
Method Call
change d
Diagnost ics
? >?
B O
ame l
ĠApp Theme
case s
B oolean
h ive
l k
l ish
s q
s Data
Ġ ##
Ġm issing
Ġle ast
Ġtop Left
cre ase
Exp r
P ublic
re positories
Ġm ight
En coder
Len ovo
Ġfore ground
! ");
Ġc ert
tr od
Ġs dk
Ġt xt
ĠE X
Ġjson Encode
Ġbe low
ĠU til
ip ping
Or ange
max Width
comb ine
on Error
re ction
Ġh ref
') :
route Name
co in
Model s
User Info
Of Day
ĠNetwork Image
ARAC TER
M ultiple
P atch
ĠT itle
text Style
ĠP ayment
ir y
b H
} .
ut ions
ver ify
ĠSt art
Text Input
Ġle g
Ġat t
ĉĉĉĉ ĉĉĉĉ
ern el
ar us
Ġf older
": {
Ch unk
part ment
local izations
br ands
ĠCom mon
Term Type
åŃ Ĺ
Pin Code
he alth
Ġd er
ĠĠĠĠĠĠĠĠĠĠĠĠĠĠĠĠĠĠĠĠĠĠĠĠĠĠĠĠĠĠĠĠ ĠĠĠĠĠĠĠĠĠĠĠĠĠĠĠĠĠĠĠĠĠĠĠĠĠĠĠĠĠĠĠ
ĠE mpty
Ġ3 3
W orld
Ġf eed
Ġh our
"] ),
Comm it
Control s
) *
S to
ar er
Ġf ood
ĠL anguage
64 7
Set up
vers al
ĠĠĠĠĠĠĠĠĠĠĠĠĠĠĠĠ ĠĠĠĠĠĠĠĠ
Ġ' --
un necessary
ĠT erm
ĠR ed
Qu ality
25 0
Token s
Or igin
mb ed
L ICENSE
V olume
s id
al ignment
es h
ĠC alendar
List s
Ġwh o
Ġerror Message
pre view
ĠCon stant
dG hpcy
Access or
d os
Ġme asure
current Index
H ero
Ġl p
ĠG it
Ġtop Right
Version s
ĠKey word
P ick
Ġf actor
Ġs um
av oid
ateg or
Ðµ ÑĢ
Comple tion
ĠDart Type
Variable s
upl icate
2 68
S ingleton
ont ser
ĠE mail
Ch lB
Ap Yw
14 5
bnV sb
Ġ[ -
Ġmark er
è ĥ
ĠT AB
Ġl aw
ĠFocus Scope
le dge
Con vert
Ġtype Args
comm end
Ġpri ority
¾ç ½®
olog y
t ake
re g
con nected
trans fer
ChlB ChlB
ApYw ApYw
) ?.
S a
Ġd river
Le g
rid ge
def inition
3 60
re c
en coder
ic ient
Ġw ay
Ġtext Theme
> ',
M IN
U D
s ix
{ {
he m
Row s
Im g
mp tom
]) ');
ä¸ Ĭ
Local es
IF IED
column s
> ({
H igh
Ġ age
at ory
mp t
ĠT odo
start Time
ĠW allet
Ġwe ight
AT A
ĠTab Bar
hook s
1 000
B h
l bn
ing redient
ap ache
Ġ2 56
Res olution
æķ° æį®
è¡ Į
p aper
con versation
he el
(' _
Multi plier
S pe
Z Z
Parent s
d rawer
ag on
16 8
Ġk nown
Ġbytes Builder
G T
n avigate
ĠF eed
01 8
ĠAuth entication
h r
Al ive
20 8
Or ganization
che vron
6 25
w ifi
sc ape
View port
Post s
Ġz oom
Mid dle
Process or
è® ¾ç½®
Mon ey
: {
H M
Ġd ays
Ġan im
Ġup per
R R
U V
w all
Ġ gesture
st udent
In stant
end Mode
load er
Ġformat ted
Ġoc cur
: </
E AD
Y m
c b
g able
at o
Ġs pacing
ch n
Ġres olved
ĠN g
Http Client
Mov ies
STRUCT OR
2 34
th an
(' =');
ind icator
bu y
ontser rat
B L
U RE
ar r
is Valid
sc anner
Ġcall s
ä¸Ģ ä¸ª
AsString Sync
K Q
P ending
t v
ap s
from Address
content Type
Ã§ Ã£o
en k
Ġre g
Ġres ources
01 5
Ġdisplay ed
Dismiss ible
Z T
Map ping
ĠH ive
font Family
Side C
"/ >
ĠZ ERO
ĠParser ErrorCode
there um
Ġp air
Ġs ince
set ting
Ġon ce
top Center
Custom er
Red irect
implemented Error
İ· åıĸ
C ESS
L D
d p
f ocusNode
ĠR x
Ġkey Value
99 8
Ġpost Body
Cre ation
T V
c atalog
t ty
ĠL ayout
ĠU ns
({ '
ne ed
sign ature
Ġfunction s
å¼ ı
junction s
ĠB asic
ĠD irection
pro tected
line ar
à¤ °
liver y
YX Ig
Keyboard Key
Ġrequire ments
Iss ue
i ence
ĠM in
form ance
be fore
"" ",
ĠConnection State
ĠT EXT
Se gment
Ġid entity
Is o
Ġcomp liance
Pur ple
S upported
æ Ľ
ë ĭ
Ġp ut
all back
Ġch ile
åĪ °
L arge
P LE
c oll
o sition
p uzzle
10 7
Ġmo st
éĢ ī
Ġjo in
dmF y
c lean
z A
ä ¾
pro p
ĠL icensed
An y
12 0
result Batch
Ab stract
iet nam
ä½¿ çĶ¨
C oll
al le
fl ite
Text Direction
UN D
ĠAN D
ĠApi Exception
O IN
m ask
Ġ ÑĤ
Ġs ql
ĠSt orage
old en
Ġname Element
now ledge
Ver tex
0000000000000000000000000000000000000000000000000000000000000000 0000000000000000000000000000000000000000000000000000000000000000
F ullType
p ins
ro c
Style s
RO W
ãĢ ģ
rot ation
d ial
ist o
Ġa gre
ĠÐ ´
Ġallow s
ĠCON DI
B M
C I
V ud
d in
od ies
Ġt abs
Ġget ter
ä¸ ĭ
[^ /
Ġfil led
ĠAsync Snapshot
5 68
B id
F ollow
h n
Ġs m
Ġv olume
Ġm iddle
De vices
ĠRe move
R adio
mon ey
æŀ ľ
A ir
A IL
C atalog
c aption
l m
Ġre al
qu ote
Tap ped
Ġlate st
ĠUn ique
ward s
match es
ĠCom mand
æł ĩ
ĠS H
set up
able Text
im il
Pro viders
iv o
init ions
last Name
Se parator
ĠJsonSerializable Generator
ĠBAS IS
Such Method
ĠCONDI TIONS
p ower
av ity
15 0
F L
Ġ ip
Ġc art
Ġ' )
Ġp ending
ĠB ack
cor rect
Response Data
page Controller
Ġcomm on
Ġmatch ing
Credential DeviceTrait
PinCode CredentialDeviceTrait
S an
c losed
Ġw riter
Ġw arning
ci B
7777 7777
fil led
B its
N T
z ip
Object s
TE XT
Ø§ ÙĦ
pub spec
c ident
c ategories
r is
è ·
Ex pected
Ġclass Name
35 4
Ġlabel Style
Ġgover ning
Ġfinds Nothing
Del ay
Ġrece ive
tile Id
Ġunt il
D C
S x
Ġ arrow
me mory
ĠF ade
pre load
Ġ${ _
ãģ Ĺ
ape Variable
Document Snapshot
201 9
æĪ ·
c alled
ç ī
ce ler
(" #
av es
Ġ_$ $_
86 01
document s
ffff ff
hedul er
e qual
ite ct
Test Report
Ġcurrent Index
Fl uttify
Ã ¤
ĠEx ec
Inline Array
ier arch
failed Field
Semi Bold
F ade
AC T
S ent
V isibility
Ġ// #
Re vision
ot ential
uc ce
EE EE
Column s
ĠPl ace
ĠCall s
('& '))
B i
qu iz
Ġde cimal
18 0
min us
mit ive
ĠUn less
br anch
Sl ide
Record s
alyz e
Ġrece iver
AAAA AAAA
âķĲâķĲ âķĲâķĲ
C RE
F ail
K y
se l
te ct
Ġb ot
use s
ie ve
IH Q
è¦ ģ
! ==
Ġb oard
ĠC anvas
Dete ction
Ġlanguage Element
Ġbl ue
temp t
Ġlimit ations
ĠRef resh
/ [^/
l arge
v an
re cursive
at is
Ġl en
ĠL abel
ĠH ash
ĠH ero
24 8
78 4
Ġrequest ed
Update Widget
style From
Ðµ ÑģÑĤ
ĠUn implementedError
Window s
åī į
2 13
h s
it ation
as PinCodeCredentialDeviceTrait
ad s
Ġsh rine
di ction
mob x
ipe line
Ġagre ed
S y
S plash
T ax
at tach
List Model
Local ization
extension s
Ġold Widget
W riter
e ver
i pt
st ory
Ġd ummy
To State
18 8
Co st
') ));
SE T
tool tip
Character istic
IClDIClDIClDIClDIClDIClDIClDIClD IClDIClDIClDIClDIClDIClDIClDIClD
1 75
p ublisher
å ¦
() ))
co vid
Ġ1 28
Ġex clude
Ġh over
Ġbuild GoogleCloudApigeeV
11 6
Ġapi Client
Ġexec ute
pin Code
ĠStyle s
ĠRe gister
Ġtoken s
config uration
SI ON
ig o
co ped
move To
min ute
ĠUn it
Ġlo op
Ġglobal s
Ġbel arus
A F
L l
Ã ¶
ad ic
In Progress
string s
AS H
Lm I
ĠWidgets Binding
M aker
Ġt imer
Ġis A
En t
Ġ6 5
SE ONG
Title s
Ġcomm it
F lex
T ip
Y aml
g i
ent icate
State s
Ch arge
Unit test
quiv alent
B ill
P reference
LO C
ĠSvg Picture
M icro
o ices
St udent
ab ilities
ĠM ovie
ĠD ynamic
Ex act
Ġspec ial
cur ve
Class Name
( ['
V m
Ġal bum
state s
Le ading
Ġcall ing
ĠCon nect
show Toast
Evidence Variable
evalu ate
/ '),
Q R
g allery
Ġc oll
pri ority
Bytes Int
Ġpart s
Ġus age
AT CH
: \
d river
se ss
ur a
Ġre pl
Ġview port
äº Ĩ
ĠBuilt List
ðŁ ĩ
6 29
r u
aff ic
Ġbottom NavigationBar
à¸ ²
. "),
ĠS ec
Ðµ ÑĤ
c ross
è ´
User name
Match es
Parent Data
Place holder
emon ic
Dig its
andid ate
L etter
L ifecycle
b g
Ġ utf
ac ao
ĠĠĠĠĠĠĠĠĠĠĠĠĠĠĠĠĠĠĠĠĠĠĠĠĠĠĠĠĠĠĠĠ ĠĠĠĠĠĠĠĠĠĠĠĠĠĠĠĠĠĠĠĠĠĠĠĠĠĠĠĠĠĠĠĠĠ
sub mit
æľ ¬
ç» Ħ
rece iver
SPEC IFIED
c redit
Ġ 99
Ġv m
ter mine
ĠDis play
Ġbu f
) ');
F ragment
W EEK
ĠS te
um idity
For ward
Phone Number
' re
S o
d HJ
d iff
f id
f ive
m ind
is In
Ġb atch
Pro d
'] [
Ġse cret
ec apeVariable
remove At
åı ĳ
OP ER
éĢ ļ
waiting Not
Esc aper
Ġ err
Ł ¥
Ġc ircle
Ġre ply
Ġbutton s
Initial izer
uris diction
00 5
Ġis Not
Ġtext ure
Ġshould Re
actor ing
ĠChangeNotifier Provider
! ),
F il
F ake
] ["
n ight
å Ļ
Ġp an
Ġs heet
ang ing
ĠJ ob
A X
u str
ĠF oo
ag o
Ġstr Homeaddress
Ġmin Width
AU LT
ved Animation
initial ized
Proto col
Scaffold State
ĠGe o
! !
P ause
Å Ł
de coration
ĠM ath
Value Set
An alytics
bl ur
ĠCo mponent
ãģ Ĩ
W nd
e moji
Ġnull able
Ġhe x
Ġlast Name
Ġ\ '
Ġaut ofocus
âĸ Ī
imil ar
Y our
b indings
è °
Ġ kB
ime Type
fl at
Ch rome
By b
29 3
Ð½ Ð¾
Valid ate
ĠUt ils
S W
b in
ata aar
Map per
32 2
red its
Ġdisplay Name
ĠOn ly
flag s
ç Ļ
è ī
or ing
pe ople
Ġw ell
Change Dependencies
All Types
Man y
throws A
ĠSem ant
Late st
ĠUns upported
l p
to uch
Ġpar a
Ġvalid ation
ĠTr ack
Ġsplash Color
T ex
b reak
w ind
it tle
ĠF etch
Ġl iteral
Ġr ally
Request ed
cont ain
17 8
enc losing
not ate
controller s
Ġauth entication
edit or
Rot ation
ä¿ ¡
D ot
st e
Ġo per
ĠP re
Ġis Selected
[' _
style s
Ġappl ied
iss ue
Iam Policy
R pc
b ank
00 8
Ġst dout
Ġex pl
Gener ation
Ġwork ing
aut on
ĠTarget Platform
E r
P U
P ull
] *
c ubit
j d
ĠC ol
Ġe ven
Ġde coded
TH ER
ZX J
cd n
Ġproto col
åĻ ¨
auton avi
p acked
á Ģ
se cret
Ġe valu
Re fer
google apis
Ġold Delegate
Overlay Style
enk ins
N eed
P acked
n ine
y a
un iform
Ġp uzzle
Ġin cluded
---- -
Ġjson Path
Ġme di
Ġal ert
write Byte
Cl ause
ĠStream Subscription
Ġpl ugin
I ST
an alytics
ĠA ss
Ġr ules
Ġser vices
group s
wire Name
ynchron ous
1 99
M X
is o
). .
Ġy et
E le
P ORT
c ubic
Ð ·
sp ot
vo te
mac ro
s mart
Ġex perimental
Un ique
ach er
bus iness
1 64
: (
V C
a OM
h l
Ð ³
Ġth rift
De v
Ġ_$ _$_
ĠRe pository
Direction al
Private Key
S ources
j ack
v ia
w cm
â Ķ
light Blue
Ġpage s
d t
Ġ ent
Se ed
Text Theme
Ġtext Input
Enum Value
inger print
Allow ed
ĠSql Syntax
h ar
l tr
st ick
ĠS mart
set Int
im ited
Tr y
Ġbl ack
å¯ ¹
4 22
C lear
M ar
N v
Ġ1 80
Ġo perations
Ġm ask
ĠM atch
ĠFont isto
74 0
Th reshold
by te
Check er
ä¼ ļ
ĠR IGHT
Ġspread Radius
et s
20 5
par k
Ġborder Color
blue Grey
è® ¤
E V
W ait
Ġn one
Ġd ot
Ġsc an
Pl aces
Ġstring s
Ġinst ances
Ġvisit or
Ġactive Color
å¼ Ģ
iss ues
N ow
z oom
¶ Ī
Ġb inding
ĠD rag
With Email
Ġ6 3
As Bytes
language Code
R W
Z ero
in crement
tr ins
Ġst andard
quest ions
ĠIn valid
( ${
) !.
G ap
T ODO
k o
or th
um i
Inter net
åĪ Ĺ
render ing
deep Copy
por trait
Scrollable ScrollPhysics
D imension
E o
on Changed
al ed
se c
In vite
annot ations
her it
Ġprefix Icon
ĠPlatform Exception
E Q
I X
er ce
ig ma
Ġst at
ri ct
Ġl arge
38 4
num eric
Ġsuccess fully
Ġ'@ '],
o ugh
Ġde pth
ĠR aw
Ġset s
app Bar
velo p
Ġcomponent s
Rece ive
Ġhel per
isual Density
ĠDropdown MenuItem
M err
e b
h ours
in ator
te gr
Ġf ixed
Ġs aved
ab out
Ġde coder
Log o
Ġfirst Name
æ³ ķ
D ATE
E Y
K EN
Ġw ere
Re c
ri ends
ĠO ptions
ĠW H
åĪ Ĩ
Dispatch er
itect ure
L azy
P ref
s oft
re gular
se ven
Ġn eeded
Ġstatic Type
Ð° ÑĤ
Ġ12 3
Ġloaded Fields
éĹ ´
èī ²
D en
q b
un specified
In struction
Ġm ac
ĠV isibility
17 2
j b
In ner
Ġsc hema
__ ;
ĠW ill
Ġcheck ed
sl ider
DA YS
Ġtyped Result
T ickerProviderStateMixin
u ro
ass ign
Ġas sets
Item Model
Qu ote
14 0
Ð° Ð½
not ifier
Animation Controller
56 2
R p
st ats
ig ration
Ġs ender
20 9
Var s
Num eric
Ġvari adic
B adge
d ifference
st dout
ation al
Ġ[ ]
Or ders
ĠDefault s
ĠcrossAxis Count
D rive
b alance
e ight
Ġ que
to Iso
Ġm ovie
og raph
ST AND
SE D
ĠScaffold Messenger
selected Index
report Error
na ire
å¦ Ĥ
( .
f ail
Ġde pendencies
Ch ain
Ġcase s
IC E
Ġ& #
å½ ķ
P alette
Ġ' [
Ġin vocation
json Path
Not ify
ĠApp State
Ġfil ename
Ġpreload Fields
ÑĢÐµÐ ´
F C
F alse
Ġc ategories
Ġcon ditions
able s
user Name
33 3
J h
S mi
b anner
Ġ keep
Un expected
ID TH
valid ator
ĠJ enkins
ZW J
Ġf ix
Ġb undle
ey e
ile Time
12 4
aw n
Player Controller
Flutter Binding
ACK ET
w ar
an c
12 2
Or gan
m iddle
é Ķ
me s
ĠR ichText
Se mantic
ical KeyboardKey
15 5
15 9
FFFF FF
Br acket
Ġth ird
Ġ1 34
Ġw rong
mis sed
ãģ Ļ
point ment
ĠNe ver
éĥ ¨
Decor ator
è° ĥ
G allery
Q UE
S U
ĠS k
ĠIn voice
13 8
UN SPECIFIED
Ġscreen Width
Mouse Event
Ġpa inter
C od
P rom
å §
ĠS M
av our
User Data
ĠSimple Identifier
edge s
Ġcorrespon ding
I terator
s olute
12 9
ann ing
ĠAl ways
sp aces
AR G
ãĥ ¼
Ġscreen Size
pinCode Credentials
A round
D io
de pth
ad os
Ġv ietnam
Ġ1 11
que en
scri bed
ph ab
Ġmax Width
Part s
Mod ified
Media Query
phone Number
D iv
à ¦
ç ¬
de sktop
ĠS plash
Ġd rop
Ġexpect Encoding
Time line
ĠW indow
MON TH
H over
I ik
K NO
s ocial
Ð ¹
() )),
Ġ1 10
par sed
Ġdefault s
TW H
clus ive
R adi
R untime
or n
ĠU N
query Selector
has Match
44 8
Zh ciB
ierarch y
: [
? >(
L oop
} '),
Ġcon versation
Ex ists
os ite
One of
Ġresource Type
fromL TWH
Ġfocused Border
o per
Ġ lock
ĠC ache
ab e
ĠA R
ĠB it
ĠList Builder
Ġen coding
Ġheader Params
Q s
S ound
S lot
b s
Ġc losed
Ġb o
14 8
30 6
access Token
orph ic
C ODE
C trl
D O
Ġ engine
id o
Ġs moke
De pth
De stiny
im ens
fa de
ifi able
Ġen coder
Trans lations
ho le
connection State
Ġprovid ers
ĠProject s
Smi Hash
ĠJenkins SmiHash
M p
(' [
Ġle ss
return Type
project Id
Av ataaar
Avataaar Type
2 24
G ender
h ero
ol oc
ter m
Ġo pt
red i
Ġstate ment
Side F
åĲ ¦
E levation
st reet
ĠS witch
Ġs plit
co pes
Ġst ill
Ġen coded
And Password
mod ifierExtension
cr ypted
WE I
oYS xi
l ap
w in
or a
.. ..
ud get
Ġbackground Image
UN T
TO KEN
re store
te al
ab c
ĠA st
link s
ĠSingle TickerProviderStateMixin
Sk ip
K Sk
T F
m ix
ge ometry
test ing
ĠRe st
99 5
Ġch unk
Ġob jc
Ġgener ic
Ġ201 8
! (
Ñ Ĩ
pl ift
"] ["
50 9
AN T
Ġno tes
dl For
Ġclip Behavior
6 78
è ĩ
at tribute
Ġf ake
is m
', '
Re cipe
Ġ$ $
ir ation
ĠMap Entry
ĠDe stiny
"] )
ĠConstr uctor
ĠDio Error
Objective C
dlFor ObjectiveC
D p
h over
se cure
de uce
ĠO ff
ĠCon trol
Tab Bar
à¸² à¸
( #
2 17
S plit
è Ģ
ĠF e
ip pet
Component s
book s
vis ibility
201 8
åĲ į
è¿ Ļ
ĠimplicitRules Element
B g
U plift
q q
u ous
order By
Ġg reater
ĠMaterial Button
Ph ase
EE D
Ġcur r
('/ '),
çĶ¨ æĪ·
UA WEI
3 68
B asic
B rowser
C alculate
S ite
S leep
] {
Ġl ive
28 5
Ġnum bers
Ġsuccess ful
Ġman age
oY Sl
M AP
i ment
Ú ©
an o
ĠP hoto
ay be
default Value
Ġmin ute
Case s
Book ing
Pe er
åĩ º
ador n
Ġbarrier Dismissible
ĠSemant ics
L Y
g ers
i sed
i OS
q tt
inter val
15 8
Sub type
ĠJ OIN
ran ted
ĠExt ension
T ick
d ro
k top
); \
as er
Ġp references
Ġin teger
pan el
Scroll Controller
Ġact ivity
velo pe
= {
Ġre view
Ġb us
ver ity
Ġtr ace
ĠO p
__ )
auth orization
has Error
Ġat tr
amp a
LO G
SI ZE
Ġexec ution
trins ic
> \
P redicate
p rom
un e
Ġme mory
play list
19 5
Config s
Ġstart Time
"/ ><
Ð¾Ð ¼
. ,
c li
l en
s r
é »
Ġme trics
20 4
13 9
iter able
Ġcomple tion
custom er
Last Updated
Work er
æĹ ¥
ileTime ErrorCode
b ab
Co uld
Project s
EL D
Ġserial ize
é¢ ĺ
C x
ir a
Ġ9 7
0000000000000000 00
Ġload Parents
Tab s
Ġ] ));
den sed
ANG E
ApiRequest er
au ge
Sel f
ĠUnsupported Error
L ater
Ġ um
Ġb uilt
Ġo wn
De stroy
Int Ptr
ST ATE
pend ent
Alert Dialog
KNO WN
H ighlight
// "
ext ended
12 6
BytesHomogeneous Float
ĠCheck s
Del iver
Ġprefer red
asc ript
åĨ ħ
constraint s
A ctor
P ack
P refs
V en
Ä ĥ
Test ing
>? ,
RE S
ho use
Document Page
Graph QL
cry ption
H Y
an ing
ĠE ng
Ġfor ward
Ġ5 5
Ġsc heme
dis able
write To
STAND AL
P M
p lot
æ ı
Ġs ummary
Ġin cluding
Ġco st
arg ument
Ġpro xy
13 4
Ġcurrent User
UL ATION
åį ķ
L ow
p df
Ġ" \
con s
In ventory
ĠText Decoration
Ġr adi
10 3
Down loadOptions
uni que
Ġcustom er
mov ies
T urn
Ø ´
Ġt w
ends With
error Message
ĠPlay list
Percent age
Ġb ranch
ch ars
Ġde v
Man ifest
B ank
ê °
iz z
um orphic
ser ve
ĠI M
Qu ota
ĠDe code
At t
Ġstart ing
Cre ator
]+ $
Ġcancel Token
ĠBy te
R U
d ashboard
f n
s ound
Ð ±
Ġc a
Ġc ook
un ication
Ġd om
ĠString s
Ġres pon
sh a
ast e
Un der
Ġ10 5
Dis abled
Side D
`` `
Ġcom ments
S um
s en
enc ed
Card s
æĪ ĳ
ĠTAB ULATION
1 00000
= ${
N a
f an
er gy
av ascript
ip her
View Controller
ĠDe cimal
view Model
Ġloc ator
Ġob x
Ġpackage s
ĠHttp Status
pag ated
GgHJGgHJGgHJGgHJGgHJGgHJGgHJGgHJGgHJGgHJGgHJGgHJGgHJGgHJGgHJGgHJ GgHJGgHJGgHJGgHJGgHJGgHJGgHJGgHJGgHJGgHJGgHJGgHJGgHJGgHJGgHJGgHJ
Q r
æ ±
lo re
Th ree
ãĤ Ĵ
Ġem its
5 65
m ag
p ic
s uggest
é Ĵ
in cip
Ġb ig
64 8
sub list
Ġtrans fer
ĠSet s
Ġrepresent ing
ampa ign
E LE
an te
ĠF ound
ject able
Ġr untime
Ġcolor Scheme
99 6
At tr
40 4
Stream Controller
åĲ İ
chart s
æİ ¥
A udit
B I
E pisode
e asy
de cimal
ĠT V
Ġex panded
ĠPro gress
ĠJ s
Ġdown loadOptions
à¥ į
K Y
M O
U LL
æ ¶Ī
Ġ und
an imated
Ġh ero
Ġ5 6
At trib
85 4
man age
"" "
å¤ §
dXJu IG
Pe ople
Ġrot ation
3 74
f lex
Ġd ash
ĠG en
ĠH tml
RE AD
ensure Initialized
Ġrepresent ation
H air
g t
Ġclose To
je cted
stroke Width
ĠInterface Type
re peat
Ġ' ;
co s
Ġreturn Value
ĠM ax
ĠA ST
li k
14 9
ym er
ES C
present s
ĠHe ader
b odies
å ĳ
ç İ
id x
tr ast
ist in
ĠM ode
Pro p
16 6
Ġfile Name
Ġmax Height
Ġcast ed
radi o
Ġdirect ly
( ["
o ted
z en
is S
Ġh old
AL etter
Ġmin utes
Sl ash
Ġsign In
Dig it
C D
O UR
R ename
ri ction
app s
Ġ8 00
66 7
Di ctionary
Run ning
Ġconstra int
Ġupload Media
ench mark
, -
M ill
add itional
ĠU sed
ob servable
op s
ĠBloc Builder
Ġu uid
exists Sync
Clip per
2 75
b ad
g lass
z ier
Ġ Identifier
in ations
ul um
dart z
Ġm ix
Ġh ours
mo ves
En v
ĠState Error
late st
ĠHome Screen
gn ore
Ð½Ñı Ñı
3 55
æ ¯
et y
ang a
ID E
80 80
ĠbuildCounter List
ĠRo utes
sl ide
Ġcons ider
b md
String Value
ĠA tt
Ġuser Name
Equal To
def ine
Ġ201 7
ĠEn d
table Name
block Index
Manage ment
C alculator
N z
V z
ĠS ymbol
Ġs peed
end point
em ale
30 5
ĠW orld
File Name
Ut c
link ed
Ġup loadOptions
c ss
f amily
j p
ĠĠĠĠĠĠĠĠ Ċ
re lative
Ġm any
30 9
Ġwe ather
tab Controller
EF T
oloc ator
} :
Id ent
ĠFuture Or
Ġor ganization
UM ENT
ĠPl us
Ġenabled Border
ĠMod al
Ġinvo ked
h ighlight
ç Ĳ
son s
Ġo k
Ġin active
ĠE va
Set s
Ġshould Be
Regist ration
Ġhttp Client
6 28
å Ĵ
Ġre lation
ĠP alette
Ġset Criteria
Un signed
Search Reference
Th row
Ġhead line
Sen sitive
Ġf avorite
get State
get All
Ġm d
ĠPage Controller
Will Pop
ĠLe vel
åĮ ĸ
cubic To
2 33
å ¿
id es
ol ar
de coder
ĠRe gion
par ated
Ġout er
card s
Nested Message
BuiltValue Field
Implementation Guide
avour ite
m ust
ĉ Ċ
Ġth ickness
ĠP r
Ġme ans
ĠCon text
sign al
Ġ__ )
Sw i
Ver ify
K D
p f
s olid
ĠT ree
Ġd a
De ployment
Le af
68 8
fin ite
201 5
Ð¾Ð ¹
Ġcre ation
rx dart
D at
F ree
Z TE
tr igger
Ġd y
16 9
ĠRe mote
Log gedIn
max Height
AD D
Ġscroll Controller
Process ing
ĠInter val
Ġman ager
æĺ¯ åĲ¦
cG U
B Y
W H
s lot
ç Ń
23 7
function s
Enum Map
Ġroute Name
percent age
R ank
pe g
text Color
res p
01 7
Ġ4 4
Ġdis able
constructor s
B ig
b roadcast
d ash
u ario
y es
Ø ¹
Co ord
24 4
16 7
EN CE
Ġit self
19 4
35 8
AB K
Task s
ease In
A ff
t z
de cl
yn th
ĠL EFT
ick name
13 7
39 8
EC TION
èĥ ½
A ut
U ID
p air
á ĥ
ĠM ARK
Co mb
ss ib
Ġg ender
._ ('
Ġass ignment
Ġcomp any
istin ct
C he
E va
k y
p refer
w x
æ ¡
ap pro
ty po
Ġ- =
11 11
Ġhe alth
HT C
ĠCom ment
å§ ĭ
B F
c u
p atient
Ù Ĭ
ĠC ached
ĠF R
qu ires
ren g
po ol
Ap pro
Edit able
Ġac centColor
cur acy
space Around
Primary Color
Ġeffect ive
: !
P acket
b ia
r ules
id able
ĠC art
Ġ0 10
ĠP b
30 4
79 000
Ġte ar
US ER
Long running
graph ql
ĠSign Up
O Y
S ur
Ġv ector
ass ignment
(( (
Ġ) ));
EN G
Material PageRoute
Border Color
Ġnext PageToken
Ġref Id
c z
Ġc loud
te l
ing ScrollPhysics
ĠS o
un a
am age
(' ');
ĠĠĠĠĠĠĠĠĠĠĠĠĠĠĠĠĠĠĠĠĠĠĠĠĠĠĠĠĠĠĠĠ ĠĠĠĠĠĠĠĠĠĠĠĠĠĠĠĠĠĠĠĠĠĠĠĠĠĠĠĠĠĠĠĠĠĠĠ
Ġex plicit
Ġ5 7
center Right
Ð½ Ñĭ
Check box
Act iv
istri b
Ġmo use
Network Image
ĠLe ft
Ind ent
ĠMem ber
2 64
P en
W T
c al
c ert
art ist
Ġp icker
ult il
Ġex am
ard ware
>[ ],
18 5
ĠJOIN ER
? ',
s Page
Text EditingController
Ġfile Path
Ð¸ ÑĤ
Ġmod ified
ä½ į
1010101010101010 1010101010101010
2 28
L a
S mart
s peed
Ġp tr
end ance
build Unnamed
25 8
33 7
Keep Alive
lbn Q
åĴ Į
2 66
C ross
i en
Ġf unc
Ġp atch
Ġis o
Ġon LongPress
from Iterable
pro gram
ang umi
check box
cover ed
Pri ority
Descriptor Proto
rece ive
ĠDet ail
Ġstar ted
dmFy IHQ
3 50
P UT
p oll
q f
w iki
å »
ç ¤º
is sion
get ter
ĠM MMM
De cimal
18 9
Ġimp le
mis match
Ġmin Height
23 0000
KX ty
util ities
Ġdirect ive
pol ation
2 15
b inding
h an
Ġ mp
in ated
in vo
ĠS ome
us age
ug ht
Log Enabled
fluttify LogEnabled
Ġge o
4444 47
Expansion Profile
2 14
b undle
de stroy
ĠC an
ĠC ancel
St ub
update Mask
Ġgener ator
Mark et
Ġanimation Controller
HJv dG
ä¿¡ æģ¯
' }
L ex
tr i
de l
ch ant
Ġto ast
De pendency
pl ied
Sc ene
=" );
Ġtype Arguments
Ġstate s
55 5
Material App
ĠOther wise
WithEmail AndPassword
A ST
D ri
M IS
b log
c alculate
i ation
å İ
re cipe
ing Style
ĠS ocket
Ġm illiseconds
ult y
ĠRe presents
99 1
Cl asses
Word s
Ġimple mented
B attery
N g
b d
k l
se ed
In herited
ĠO Auth
Log s
Ġk now
Call s
ĠÐ ¼
Ġhas Length
Struct ure
Side A
with out
Ġ40 22
AS g
ĠTr ansition
account s
esc ape
A W
Ġc upertino
Ġc ause
Ġf our
Ġm obile
Ġh app
Ġresult Batch
lay er
Date s
RE CT
cy an
åľ °
fil ename
ĠRender Box
ĠGrid View
C rossAxis
F raction
L ite
U TE
n or
o perations
r s
in teger
ĠS oftware
Ġb est
Ġb rowser
co untries
el s
Ġt mp
Ġis Valid
fl ash
date time
file Path
back end
Ġform Params
mov ing
R X
é ľ
St age
Ġbottom Right
xFF F
Proto buf
ĠâĢ Ķ
H UAWEI
al a
et ched
ĠP AR
ail ability
ex plicit
Error Enum
85 3
Ġauth Names
Ġtrans lation
ĠType d
Ġfilter ed
ĠTextInput Action
æ µ
Se cure
Ġ4 6
99 2
99 7
33 5
13 5
Parameter Type
ĠPh one
Ffi Handle
dH lw
ĠDb Type
C N
b rown
e v
u ent
me t
Ġin v
20 7
Web Socket
>{ '
label Text
tab s
Track ing
AI LED
ric ulum
Formal Parameter
writeTo Buffer
A i
p ack
st andard
ĠT uple
20 6
60 8
Ġbase Url
Ð¾Ð ´
Ġcard s
frame work
n l
Ġ es
Ġc alculate
lo ut
In s
Ġm er
Type d
ĠIcon ThemeData
fin ish
ãĥ ³
Sp ot
snapshot s
full Name
Ġproduct s
Gen re
A ware
q params
t rey
en ario
ĠB r
Ġon Done
Ġh Wnd
ĠSc ript
34 5
60 9
35 9
Position s
Content Type
Comp ilationUnit
Ġart icle
ynth etic
! ',
C TION
P atient
S upport
V ote
p ow
id ade
ch apter
str ument
28 6
Str oke
pre ter
Ġmin Price
Default s
Mod ifier
button s
Ġaccess Token
. </
S L
t witter
Ġre throw
Ġb ind
Ġst age
ST ART
Inter ceptor
ĠAc cess
velop ment
0 29
de pendencies
Ġth umb
to Set
Ġ4 9
ip s
Ġsearch Text
blue tooth
) [
3 66
g redient
s v
à ª
me ss
Ġth ose
Ġe tc
end region
ĠP art
Date Picker
Or Maker
Ġdefault OrMaker
Cre w
shop ping
f actor
y outube
Ġ ðŁ
ĠP RO
ĠR outer
ask et
Null ability
Trans lation
à¸ Ļ
book mark
ÑĢ Ð¸
Ġdb Date
Ġ'../../../ ../
Confirm ation
bW Vud
M usic
R ob
p icture
å Ŀ
Ġon Change
24 5
Des ktop
check Unnamed
by Value
ĠClass Element
irth day
3 65
P oll
Z ih
j ump
Ġfont Style
ly ph
Code System
Ġ5 4
24 9
Ġthrow n
min utes
ĠÐ ±
çĶ »
Ġword s
Connect ivity
prod ucer
æĽ ´
E moji
G ER
M j
S n
r ain
y B
Ġl ang
ĠO NE
30 7
30 30
current Page
å½ ĵ
d at
d rive
f ine
Ù ģ
è µ
en tral
pl ate
pon ent
Ġext end
Ro und
15 4
Ġstatus Element
IA Eo
Ġprovid es
Engine Params
åŃ Ĳ
KGUEKGUEKGUEKGUEKGUEKGUEKGUEKGUEKGUEKGUEKGUEKGUEKGUEKGUEKGUEKGUE KGUEKGUEKGUEKGUEKGUEKGUEKGUEKGUEKGUEKGUEKGUEKGUEKGUEKGUEKGUEKGUE
ĠFormat Exception
b ubble
g as
ance led
ug al
15 7
Side E
mit ter
Line ar
Ly ric
reng th
S G
h ub
Ġc y
is Android
ic i
ĠO ption
18 4
17 4
ĠCo unter
di vid
FI LE
ĠSign In
ĠDesc riptor
B ot
D imensions
F ee
u T
w an
ç ½®
al ias
it ions
ad ial
sc heme
Ġvalue Of
ĠG o
24 6
19 6
time s
post s
Cap ital
Ġregister ed
ApQyApQy ApQyApQy
P j
b az
in f
ĠP ub
Ġt yp
Ġr atio
Se gments
ill a
01 4
arch itecture
24 0
Service Call
17 0
Log ging
Ġtrans late
Ġenum s
FORM AT
J T
R IGHT
h alf
s helf
Ġc ross
ap se
ĠA UT
Ġid s
Ġmax Price
Listen able
Ġsome thing
ĠSM ALL
ch a
Ġde serialize
') ))
Ġse mantics
port ion
iv ely
19 8
Ġdis patch
Ġ201 5
Ġlink s
icip ants
OSPolicy Resource
ĠtextInput Action
åĪĹ è¡¨
k h
ĠP O
pl ug
Ġtest ing
50 5
request Focus
cept ors
48 4
Detail Page
ĠTrans fer
Current User
Diagnost ic
Ġdecl ared
åĢ ¼
2 25
F ly
k an
Ġ Named
Ġre trieve
Ġn avigate
Re moved
Widget Builder
De veloper
Sc anner
ĠH andle
13 6
17 7
38 8
ĠTh rows
ta iled
49 8
ĠUn der
Game s
track er
Ġfb Builder
Recogn izer
S izedBox
w ater
Ġs ur
Con s
Log out
ST AT
22 3
äº İ
Mon itor
Ii wi
" ===
2 16
D iff
G ood
f unc
É Ļ
75 8
auth enticated
ĠStack Trace
UM BER
/ _
F riend
ur ses
Ġs quare
00 01
Ġl ik
Ġ5 3
log out
60 4
Ð¾ ÑĤ
59 6
Ġab stract
H R
M esh
P ic
T weet
e ff
f ish
t u
t on
ul a
ri m
li vers
14 3
Ġmain Axis
33 6
Ġbuilder Func
Ø§ ÙĨ
ãĢ Ģ
Ġne gative
ĠCheck box
Foo ter
j peg
p m
mple mented
34 8
bottom Right
Ġz one
organ ization
ĠSte p
" ></
h ref
w riter
ĠD ouble
Ġun selected
auth ors
55 8
Ġne cessary
global s
ĠCall back
Built List
Ġnotification s
2 74
A verage
G ray
c us
d u
Ġc losingPrice
ĠSt udent
pro xy
Ġname space
75 7
Event Type
50 7
trans lation
Auth State
ĠCh rom
Ġover rid
Ġab le
Ġpr act
Ġprev ClosingPrice
Ġfluctate Rate
Ġcursor Color
Ġopening Price
roc ery
C apture
N EL
g ASg
se mb
te k
ĠS top
us able
ĠM eta
Response Merr
Change Detector
Ġout side
Ġap pear
BytesNested Int
æ ¬
re act
en coded
me asure
ĠS Y
get User
Ġ1 14
Sh ader
Ġ_$ $
15 6
ĠTh ere
screen util
UR N
201 7
ĠHttp Client
BytesNested Float
è¾ ĵ
K cmV
b rowser
u tr
ĠC urrent
Re gex
64 5
Of Week
Ġ}) ));
ï¼ Ī
Cap acity
åĽ ¾
ĠBe havior
ingredient s
çĲ Ĩ
L es
b adge
å ¥
Ġn ested
Ġon Selected
ĠD el
ex clude
Text Controller
adi ent
16 5
Ġy aml
Ġerror Code
no SuchMethod
remove Last
ĠAuth or
KGE p
Ġindic ates
RoaXM uY
ĠNever ScrollableScrollPhysics
P olyline
æ Ĭ
on line
ĠF OR
Ġg it
Se c
em b
70 5
cre ation
Ġinput s
long er
ĠTe am
exit Code
E m
H ote
I ON
d atas
Ġc al
Ġp atient
ĠSt andard
ly ZXR
20 2
olic ies
ï¼ ī
Ġorder By
UC CESS
Br ands
å° ı
Stat istics
pixel s
1 32
f ol
Ġ turn
Ġ io
ĠS ans
Ġb adge
Ġs urface
Ġcon verted
scri b
Ġpath s
33 4
ĠFont Style
Ġfind Node
feed back
MONTH S
D R
K h
M utation
Ġ low
ar ator
Ġ' +
co res
ch an
Co okie
Sh h
ĠIn line
17 6
Cont ains
string Value
pur chase
aur ants
deep Purple
Middle ware
G S
g s
Ġc redits
Ġin voice
Ġas pectRatio
Ġsh own
place holder
atter ns
23 6
ĠSh are
Report er
Ġpres sed
Ð¼ ÐµÑģÑĤ
Ġsupport s
Diagnostics Property
2 32
O tp
U SD
p al
y GNode
ut ures
Ġm ixin
ĠĠĠĠĠĠĠĠĠĠĠĠĠĠĠĠĠĠĠĠĠĠĠĠĠĠĠĠĠĠĠĠ ĠĠĠĠĠĠĠĠĠĠĠĠĠĠĠĠĠĠĠĠĠĠĠĠĠĠĠĠĠĠĠĠĠĠĠĠĠ
Res ources
type Parameters
11 3
bo to
70 4
sign Out
gr adient
pos al
ĠDi agnost
Ġcache d
STANDAL ON
L and
Z y
b ri
con tract
et ag
EN TI
EN TH
AR ROW
74 5
âĢ Ķ
Fl ash
ĠDropdown Button
organ izations
@ @
O l
b oolean
u med
ĠC ool
In crement
Con nector
loc ator
ĠR adio
form s
View er
33 8
à¸ ģ
ĠCur vedAnimation
Fill Properties
è¿ Ķ
Lib raries
Need s
ÑĢÐµÐ´ Ð½ÑıÑı
F lip
J ECT
V o
t re
á ŀ
on Change
re lated
Ġre try
Ġm apping
Ġex port
Tr avel
ĠH ow
66 6
78 5
ãģ ı
Min utes
Stop ped
Ġart ist
ĠSystem Chrome
V I
x k
In clude
up on
Ġto uch
ard own
ĠEx p
70 9
ĠCON STRUCTOR
Corner A
Ġind ent
ENTH ESIS
2 79
b or
w b
ce l
Ġm erge
inter faces
44 0
Bytes Packed
comm erce
Ġbottom Left
çĻ »
) ]);
e g
à ´
ç ®
ol ocation
Ġf n
ul let
Ġjson Res
ER E
sub scriptions
Art ist
å¤ ļ
AP P
answ ers
allow ed
assert ion
2 29
t w
à °
Ġ" _
Ġcon nected
ĠF raction
Ġl ater
per form
ĠV M
99 4
ĠW IDTH
remove Where
Ñģ Ñı
Parser ErrorCode
Ġne ver
permission s
åı¯ ä»¥
ĠFR OM
riculum Setting
/ "));
D ashboard
Z C
f ragment
Ã ł
Ġre c
Ġp ref
Ġs nap
Ġset ter
Ġ5 2
User Event
Pres enter
cord ing
Ġver ification
Ġphone Number
Ġsuffix Icon
COL OR
N L
W ater
Ã ¢
å ĵ
Ġ ÑĢ
il ist
ist ent
am az
ub a
ime ter
__ ++)
69 8
gre g
comp ile
ĠSh ared
theme s
ĉĉĉĉ ĉ
LI ST
ĠPAR ENTHESIS
K Cl
b lob
m irror
n emonic
p ublish
ac i
get I
Ġo ptim
Ġ2 16
28 7
39 5
74 7
Ġpage Token
Ġmatch er
Lm xl
åħ ³
Ġtask s
Ġcre w
Ġred irect
å» º
Ñ ī
ic ial
ap on
ĠT ile
Co in
sub Topic
Google Longrunning
Ġpre pare
Ġdemo Cupertino
è¿ ĩ
abs olute
ĠRes ponsive
ĠTe mplate
ĠSl ide
D ash
S F
` :
s nap
æ ĥ
Ġf amily
Ġs oft
Type Id
Ġpre view
My HomePage
ĠValue Changed
DE LE
PO INT
Suggest ions
H idden
c ue
ç «
Ġp ause
In cident
Ġto o
im a
Ġget All
16 3
66 8
Add resses
Ġresponse Body
do or
Ġstore d
DE X
stack Trace
Fin ish
ĠPaint ingStyle
Ġstudent s
æ± Ĥ
E A
b on
à º
ç ´
un focus
00 9
end Time
Ġex act
Ġ10 8
Update s
Ġ7 3
Side B
Ġnumber Of
ffff ffff
Bold Italic
Symbol s
Iam Permission
ultil ine
2 12
C AN
Z V
b tn
h ere
se ll
Co ordinates
Res ize
pl aces
per ia
ĠN ative
py ZXR
For ce
35 6
Hel p
dition al
redit Card
tern ate
sq flite
Semantic Label
ENG TH
KXty ZXR
p ublicKey
Ġf i
lo op
ame d
order s
Ġtext ScaleFactor
Be arer
65 8
blue Accent
58 6
åĪ ¶
connect ivity
Fore ign
Cmlm KH
redi ction
C md
L ik
in formation
Ġc md
Ġcon tract
Con sent
Pro vince
60 6
content s
à¸ Ń
ĠTest Script
apt ured
Ġ\ "
Ġpub spec
179 000000000000000000
N et
c redential
Ġf ails
Ġon Refresh
(" &
from String
._ _
(( __
An notations
red Accent
18 6
Loc ator
create Time
77 7
top Right
79 3
go ing
ĠCur rency
Ġinclude s
Deliver y
Ġto Builder
Ġis S
Ar c
cl amp
28 9
OR E
Function s
Ġlocal izations
IL ITY
ÐµÐ ¼
ĠRun Out
Ġlib raries
ĠSl ider
æĮ ī
Ð¼ÐµÑģÑĤ Ð½Ð°Ñı
A sc
g ray
ĠE M
Ġan chor
Ġch ain
Ġor ientation
77 9
TI VE
Dis pose
ĠK I
Ġproject s
Act ual
Min ute
Ass ign
V i
ing State
sh rink
App le
valid ation
Top Level
LL ABLE
ĠGoogle SignIn
pad Left
' ^
2 38
s aved
in h
in uation
Ġf s
Ġ" ");
set Width
ER S
29 8
Sub scriptions
SE LE
Ġ9 5
74 9
Pre vious
animate To
W R
a mpl
c fe
à ¬
ç ķ
é «
to day
Ġm id
res olved
Res olved
19 7
68 4
Ġgroup s
ĠUser Model
End Block
Dart Entry
format ted
Dir ty
LH M
window s
ĠCH ARACTER
O w
c alculator
f ake
al arm
Ġ' '),
ĠB R
ex tract
Ġsub mit
ãģ Ł
Ġexp r
ĠPl uto
ĠGraph QL
need EndBlock
G ro
H ist
l azy
al ways
Ġc alcul
() ',
co ord
ĠD B
74 6
49 5
Ob servable
Cur riculumSetting
("/ "));
ĠOver lay
ĠUnique Key
Fluttify Channel
C al
C tor
y l
ue st
Ġp ay
act ivate
ĠD own
(" =");
24 7
Auth ors
ler p
with Alpha
ĠSet ting
gener al
Ġno thing
Serializ ers
YE OK
è¿Ķ åĽŀ
ĠKI YEOK
) >('
B igInt
F UN
H ide
O pt
] ))
p Value
å ŀ
de livery
Ġth ree
qu ad
Id x
Pro portion
By Name
Date Element
Ġdis count
Ð° ÑĢ
RE D
comp iler
Num bers
JldHVy bi
? ?
T M
T mp
Ġst ory
18 7
34 4
On Error
65 4
Ġj urisdiction
85 7
ins ights
Ġpl an
Ġcover age
ĠMem ory
Ci Ag
/[^/ ]+/
t mp
æ Ļ
Ġ ios
re cipes
tr ip
Ġan imate
Request s
ob s
77 8
pri se
encode Full
Ġad min
prefix es
ĠAb stract
good s
K Ck
L ess
S nackbar
b as
h d
h old
m en
t ick
z y
ol er
Ġe quivalent
Ġde vices
ex ceptions
ind igo
ĠRe ce
Ġch oice
Bl ur
Member ship
native Library
CO UNT
^^^^ ^^^^
âĸĪ âĸĪ
A u
E s
o ot
get Extension
Ġa verage
remove Listener
Ġsign ed
LO AD
åŃ ĺ
deep Orange
Mess aging
qr t
anim ations
Hive Field
C annot
W J
ĠĠĠĠĠĠĠĠĠĠĠĠĠĠĠĠ ĠĠĠĠĠĠĠĠĠĠ
Ġf irestore
Ġde termin
order ed
Ġg rowable
Ġun expected
ly ing
Ġtime Stamp
ĠAr ray
Ġparse Bool
Ø§ Ø±
Ġ['| +
é» ĺ
G rade
W elcome
` ).
e val
o auth
Ġre lev
get Color
ĠP uzzle
Ġde l
64 4
Ġ(_ $
Ġquery Selector
29 4
part s
Ph rase
ĠSh ape
Exp and
mod ifiable
Part icipant
If Null
OL D
render er
Ġstop s
sess ment
3 01
D a
\ ':
re l
or ientation
en ant
un defined
ĠM ake
ve st
Ġg ood
Po i
ill s
api Key
ĠValue Key
ĠButton Style
thes is
P referred
n p
on a
is Selected
ul o
ĠM ust
": {"
test s
ĠB ool
ĠU i
current Context
50 4
22 2
Ġstart s
trib ution
Channel s
Variable Declaration
Dropdown MenuItem
Vt ZW
ĠSD K
é»ĺ è®¤
D ATA
T iming
i ance
} "
is IOS
Ġcon verter
ĠB and
ĠO K
pro ps
Sh ift
Par agraph
He ading
19 0
Ġversion s
AT OR
Ġgener ation
Last Name
Pixel Ratio
ĠValid ation
QUE ST
ĠSY LLABLE
T uple
m r
st inations
ĠC alled
Ġ1 12
Ġo prot
ch allenge
Res erved
Se ason
Theme s
70 3
Log ic
Ġgroup Value
Base d
OT T
æĢ ģ
support s
Ġtear Down
C ircular
F N
J d
X peria
s is
Ġc amel
Ġf ast
Ġre cogn
Ġp ool
Ġkey value
ĠAn y
65 9
ĠK EY
Success ful
Ġim mediate
Ġfe atures
/\[^/\ ]+/
("& "))
Q g
t weet
de leted
co variant
res sed
Pro blem
Ġse ed
33 9
Ġ00 1
Ġsearch List
ĠCustom Painter
æľ Ī
S IGN
S uite
T v
ĠD raw
old Widget
error Code
ĠPo ssible
40 5
Ġstatus Code
ZX cg
ĠEn typo
First Name
SH ORT
Ġdi vider
Person al
C rop
d ropdown
e ded
s up
th ird
Ġ" #
List Response
Type Name
ĠD iv
pac es
ĠSe lection
([ ])');
xFF FF
ĠInter net
ĠBo unc
script or
Ln Byb
ĠDef ines
Ġassign ed
Shop ping
é« ĺ
) ];
L M
s chool
Ġd ropdown
Ġ1 16
Ġm aint
State Error
em bed
>( [
ĠV ertical
75 5
Ġal t
Ġ16 0
new Value
++ ){
Pa ren
Health care
2 35
c f
e a
| '
Ã º
Ġ With
te le
Ġb etter
con verter
Ġ0 11
res olution
end a
ĠR ET
ĠIn dic
ock er
ĠAn si
time line
Ġlog ic
è½ ½
< <
F AILED
G A
Y i
j f
Type Parameter
ĠL I
ĠU RI
Ð¾ Ð½
EE E
catch ArgumentError
Ġcre ating
åĩ »
Ġpixel s
è¾ĵ åħ¥
/ ",
M d
n ome
Ġ lookup
Ġv is
Ġres ize
ex perimental
ĠU P
base d
uff le
Ġposition al
Iam V
Bus iness
1234 56
Capital ization
Ġc redentials
ĠP e
par ate
word s
uc HJvdG
"] !.
Auth enticated
ma j
Ġcl uster
ĠValue Notifier
ble ms
ĠInter nal
|| (
xx xx
rest aurant
an cy
Ġa ctor
Widget Dj
ĠD ay
Ġ8 5
File System
Of Type
Ġicon s
Ġgroup Id
local host
Ġmod ifier
å® ¹
lec tric
3 64
8 75
C V
N j
f ess
k t
p ied
s ources
ĠĠĠĠĠĠĠĠĠĠĠĠĠĠĠĠ ĠĠĠĠĠĠĠĠĠĠĠĠ
Ġc lean
se curity
Ġs yntax
Ġ" ")
ĠC ronet
co pyright
ath s
flutter toast
Ġg reen
Ġstyle s
red irect
ann ed
68 9
Gener al
69 5
à¸ £
Ass oci
DA Y
//////////////////////////////// ////////////////////////////////
ĠMan age
C are
R out
S ender
p olicy
s d
à ®
re versed
Ġ' {
ĠM obile
ĠA tom
Ġde sired
Icons Data
Button State
Action Controller
Align ed
Ġend Time
xff F
åı ·
number Of
éĻ ¤
Ġhighlight Color
ĠCool IconsData
B K
I mplemented
M ail
b inary
u v
ro s
ro boto
get Element
to dos
00 40
Ġm ade
Ġis n
Ġde scribe
ĠB ody
Ġh idden
ĠO pacity
Po kemon
cor ded
Ġi prot
25 9
Ġloc ations
39 4
ens ation
cm F
Quest ions
af ety
b f
ì Ĺ
Ġ Ä
me ter
Ġn g
ĠF irst
ĠM MM
Ġde ad
') [
min imum
68 6
ĠJ ava
ĠFlutter toast
GV uZ
unknown EnumValue
van ced
. '),
L ENGTH
Z M
d Ã©
t it
Ð ¡
Ġm ag
ĠA v
sh ield
ud i
Ġcase Sensitive
75 6
Ġfrom Map
screen Width
Package s
dy lib
Ġexec uted
graph y
Direct ives
gu ide
yy yy
variable s
Pr inter
irt ual
p k
ç ¨
Ġs pe
Ġd x
arg ing
Ġexpect Later
Url Response
bo unce
69 7
air s
ĠCustom Paint
IL D
ãģĦ ãģ
ĠCached NetworkImage
éľ Ģ
M a
i ate
x h
Ġ er
te ction
Ex am
Query Snapshot
Ġen v
ĠSc hedule
let ter
ĠSliver Grid
Ne gative
direction s
Ġgoogle SignIn
B D
J i
S izes
g rowable
urn ament
De c
Data Header
ĠG A
ong o
79 5
38 5
pen ses
Ġuse ful
ĠCustom er
Ġ201 6
KX JldHVybiB
ä½ ľ
Click ed
peri ence
Ġstroke Width
bound s
uKGE pe
pushReplacement Named
Lmxl bmd
G ithub
ul ate
get Value
List Page
Ġas m
ib ration
Text Span
Ġarg Fields
50 8
34 6
AR D
web view
Switch er
ĠAb out
Tod ay
D IT
M al
Z G
c alc
f riend
g C
o y
r r
ate Screen
ĠT ap
ver ification
we ep
13 1
comm unity
36 7
Concept Map
amb da
Doc s
Ġpi geon
arr ative
incip al
) =>
ç ©
Ġ" <
In gredient
Al arm
01 3
Ġsh ift
file Name
Ġstart Date
Ġinitial ized
M H
g mail
lo od
Ġ1 15
Ġa m
Al gorithm
(" \
Un iform
ep isode
17 3
22 7
On line
Ð° Ñģ
Ġcomp iler
Min us
ĠHe alth
Proportion ateScreen
D id
O V
P G
S ING
u cted
u tral
Ġ ir
or ary
an chor
00 28
() [
ĠE ND
Ġget Data
ref lective
Ġan notate
44 5
di vider
gener ic
ĠAd aptive
Ð°Ð ·
Ġlisten ers
Ġenum Values
inte gr
ĠChrom ium
! ._
J C
T S
n i
w ave
me up
Ġs ales
ch unk
ri b
Ġto List
enc ry
85 8
Ġtool bar
ĠHT ML
à¥ ģ
strHomeaddress Live
ĠFe ather
2 18
N y
V elocity
Ġc are
Ġb alance
() :
Ġ0 5
pl ain
Ġvar iant
Ġnot ice
Check out
resource Type
FI ELD
å¯ Ĩ
è¯· æ±Ĥ
èĩ ª
2 11
D IS
J V
P ol
c ake
s yntax
Ã °
al Code
Ġs it
set Bool
ĠA ut
Sh a
ĠSe cond
gest ures
ĠTab Controller
ained Box
Ġpick ed
Ġmaps EventListener
SELE CT
L ang
P ersistent
S erial
d ummy
p ull
Ø ²
ic ed
ad aptive
Ġs orted
ver bose
Ġde tailed
ĠU s
type Arguments
ĠH istory
Qu iz
play ers
create Sync
79 8
39 6
74 8
69 4
Ġpre vent
Ġproject Id
Ġdocument s
Access Token
Ġorder ed
æľ Ģ
Modal BottomSheet
Rv dHlw
Relation ship
uKGE sY
2 78
H y
S i
T s
U ris
W S
_ :
r untime
Ġ â
ro les
as i
Ġb anner
Ġp oll
Image Url
serv ation
Tile s
()) ?.
Ġsl ider
Cert ificate
TextInput Formatter
2 30
I V
U Y
b an
l ittle
è İ·åıĸ
ent ion
ur er
Ġre quires
ĠS ession
Ġ" )
ĠP ush
De cl
An ime
Test Case
Theme Mode
Ġen closing
Call Back
ĠTheme Mode
bar code
#### ####
Lifecycle State
ĠUnder lineInputBorder
K Sl
M I
O ptim
à ¨
ro tt
Ġre cent
Ġb gColor
Ġs in
In voke
ab sent
Icon Button
Ġde c
Ġde pendency
Box Adapter
Class Element
ĠSh ould
bm V
Http Request
asc ade
ĠConfig uration
ĠArt icle
F inding
H alf
M erge
h idden
å Ł
ç ¼
é ħ
ĠP ublic
01 9
ĠAl bum
center insights
sing leton
ĠSp ace
è½ ¬
) ['
. '
> */
E d
H i
S B
j las
p Cn
s jd
ic ular
Ġ" %
lo s
ch o
Ġex tract
str ong
An ce
75 0
Ġal ks
ach able
77 4
AR B
pri ate
55 9
GoogleCloud Private
AA A
js fd
ĠAs sert
Report s
Ġlak jlas
Ġlak sjd
Ġlak jsfd
æĸ¹ æ³ķ
jfd lk
Ġlask jdf
Ġlask jfdlk
uy en
Ġalks jfd
GoogleCloudPrivate catalog
Ġlakjlas d
P od
P iece
] !;
ì ļ
ar a
), _
ĠC re
Ġget It
wh ich
init With
ke leton
Google IamV
65 7
Scroll Extent
Ġauth orization
replace First
nd Gg
inst ances
Ġcontrol s
ĠWidgets FlutterBinding
A x
N h
i or
t ur
} ${
Ġ ut
id ers
Ġp ower
Ġs n
Ġst reet
ĠF it
ĠF ace
ĠM ultipart
ĠP in
mo uth
User List
Image Provider
Ġerror Text
enc il
yst ick
comm ands
And Remove
Comp an
ĠNew s
Ġmaybe Map
Ġforeground Color
Ġshrine Product
ĠBehavior Subject
B C
C ATE
b ill
e levation
k u
n n
é ĺ
se parated
ĠT w
Ġd t
ĠF ore
Res ume
Ġh alf
ĠIn c
28 8
65 1
Contact centerinsights
Ġaccount s
dXJu IH
Errors In
OF TW
hedul ing
Mill is
E h
E ar
P Y
P y
h u
r ol
Ġs livers
Ġst rict
'] ));
ĠThe se
Ġan notations
red dit
ĠH ook
75 9
50 2
Screen s
29 5
68 7
ĠGener ator
ĠLogin Page
Ġedit or
Ġpur chase
ĠVer ify
ĠFhir Uri
Contactcenterinsights V
C ut
ar c
de claration
ist r
ĠR el
ĠRe cipe
ĠDe bug
back up
Url s
68 5
Ġ9 00
Home Screen
Card State
Ġser bia
Ġte le
54 7
run ner
ĠGener ate
ME d
Exec utable
ĠNe umorphic
¾ç ¤º
Ġcorrect ly
Inst all
ĠVer ification
Ġmaybe When
ĠDet ails
ĠPopup MenuItem
OTT OM
E st
E mployee
I o
v p
un ities
sc ene
mo st
ĠG r
ĠU rl
An si
ĠH ex
TE GER
77 0
35 3
Link ed
Cache State
ESS AGE
jdGlvbihh LG
Ez sign
OFTW ARE
. ";
N eeded
d aily
m aybe
get Data
Ġo s
ĠM et
ren ding
Ġh it
ĠSt u
35 7
Ġlog ging
Ġchart s
ĠBR ACKET
3 11
H umidity
U ST
V l
y r
in ance
ĠS ave
Ġn or
ĠR ight
>> ?
rap pe
Ð° Ñİ
40 6
Ġact iv
AB ILITY
Ġwork s
æĺ ¾ç¤º
ZS x
Ui OverlayStyle
Ġpe ople
âĢĶ âĢĶ
åŀ ĭ
N A
P ut
r g
Ġ: :
Ġcode s
69 6
Filter s
description Element
çĶ Ł
ĠTime stamp
Drag End
iler plate
stit ution
Fe atures
DELE TE
2 19
W heel
j m
m achine
To BoxAdapter
38 7
Th umbnail
Cl ub
89 8
Ġph ase
ux emb
draw Path
KC J
Ġmedi um
ĠWindow s
ĠBand Data
e le
p ot
Ġs un
Ġ1 48
Re peat
pect or
Service Per
77 6
70 6
ãģ «
Ġurl Element
Ġsearch Tag
sw ap
Post Code
Ġpost s
Ġrender Object
Cr ypto
ili ate
Ġfin ish
ĠGit Hub
ĠBounc ingScrollPhysics
ĠIndic ates
ErrorsIn Code
. "
0 25
A y
s ible
st derr
le ting
ĠS ide
Ġin trod
De ep
0000 01
sh ift
64 9
query Parameters
Ġal pha
Ġsearch Content
email Address
ĠLog icalKeyboardKey
mod al
ĠY aml
TestScript Rule
? ;
H L
O ld
Ġ í
de vices
ad apter
() ['
am ing
Ġt akes
Ġco ordinates
sh own
ĠL ight
)) '):
use cases
34 2
29 7
di an
Ġover rides
Ð» Ð°Ð²
bottom Left
pos ure
FI X
inst all
Inst ances
AUkaAUkaAUkaAUkaAUkaAUkaAUkaAUkaAUkaAUkaAUkaAUkaAUkaAUkaAUkaAUka AUkaAUkaAUkaAUkaAUkaAUkaAUkaAUkaAUkaAUkaAUkaAUkaAUkaAUkaAUkaAUka
3 10
F z
s uffix
ig gers
Ġd ial
package Name
ant on
50 6
OR Y
55 6
Ġfield Name
gre es
27 6
Ġsearch Profile
Ġsearch Security
Ġsearch LastUpdated
Render Box
ĉĉĉĉ ĉĉ
Generated Unknown
ĠSliver Child
cell s
ĠConstr aint
Gesture Recognizer
BA SE
agger GeneratedUnknown
ĠSerializ er
effect ive
mind er
, '
C J
x v
Ġ Ñ
re gex
en tr
ter native
Ġ/// @
Ġch apter
Pres ent
TE ST
66 9
78 8
LL L
comple ter
Spec ial
C ape
D on
F S
F ence
V R
l ator
le y
ĠS cope
Ġw ire
ĠP R
Data Provider
ĠD at
0000 000
An onymous
Ġinitial Route
UR I
ĠAnimation Status
Byte Aligned
ĠBuilder Info
ĠTool tip
Ent ities
ĠModal Route
D aily
I pe
M z
g ression
k c
le ading
Ġ{ \
de precated
Ġp ublicKey
Ġ" ../../
co st
mo on
og ram
Event ToState
lock ed
TE C
22 6
ĠGet Page
:: @
mon itor
Ġcontact s
ĠMark er
Milliseconds SinceEpoch
UrlRequest Params
> ()));
E dgeInsets
W ITH
b al
i i
re amed
Ġ" );
Ġis Active
tes ian
IG IT
SC RI
ĠCom m
amb ient
ĠParameter s
ĠMon ey
ĠHel per
Ġfr ont
B RE
B roadcast
F w
U Int
V O
Ġ adding
on om
re quire
an onymous
over flow
Ġt iming
Ġget User
Ġde p
red uce
Ġwh ose
Ġlist s
start Date
Ġapi Key
Ġ] )),
Tool bar
ĠBo ard
QQ Q
VAL UE
åº Ķ
Ġstruct ure
C ast
F requency
M er
k K
s ized
v r
ç ¡
at i
tr op
Ġd ili
Ġa ff
over view
over nor
Ġis In
Ġ2 40
sc y
ĠN on
ix j
>( ()
log ic
79 7
pre pare
78 6
40 8
sign up
mod ular
åı ĺ
Simple TokenType
Exec ute
Extra Light
Ġpercent age
A void
C alled
D ESC
m id
u ped
ĠM apping
fl ame
Ġjson Map
29 6
comm ended
Ð» Ñİ
mod ified
Ġ201 3
Ġdef ines
Frame Callback
ret Val
Cor rect
Ġar ound
Ġappro priate
FORMAT S
B and
M at
S un
V IE
c ies
p ref
Ġ Ñĩ
se qu
Ġre load
con sole
ver tex
add Post
ĠB atch
Name space
from MillisecondsSinceEpoch
Ġse q
map Map
14 2
Ġmethod Name
Ġat tach
TH OD
45 6
aw s
à¤ ¨
Off er
ç» ĵ
QQ QQ
Ġar c
Ġpan el
) \
l u
x d
Ø ¬
æ »
è £
Ġ QU
Ġc losing
ĠS OFTWARE
Ġe t
ĠT ABLE
ĠO THER
12 1
38 0
38 6
60 7
48 9
Check s
vers ations
Ste ps
Ġexp and
Bound ary
Language s
ĠMod ule
Lock ed
MIN US
WEEK DAYS
å¦Ĥ æŀľ
oler ance
F E
F un
M ontserrat
X R
c md
h ot
er v
in i
is A
is Dark
ĠS uccess
ue l
ĠC hild
Con v
ĠM IT
ĠL INE
ind ent
View s
25 7
fi ed
Ġ'' ';
ZW xz
å® ŀ
validate Mode
ĠGener ic
Tool s
Ġstep s
referred Size
O m
P ipe
T OP
Ġ' *
ic an
Ġp ow
Ġe lem
In trinsic
ĠP rimary
user Data
Un able
are st
Test IamPermission
sp acing
34 0
Ġsub scriptions
Is Web
48 8
local ized
mock s
cus sion
UrlResponse Info
? '
B an
N ING
ç Ł¥
Ġre maining
Ġin struction
ĠM ore
ĠA g
Ġt weet
and box
Element Impl
vid ed
Alignment Int
iv ing
75 4
00000000 0
>> .
pres sed
44 7
":" ","
Ġshow Error
78 7
Ð¾ Ñĩ
Ð½ Ð¸
pop ular
Target Size
Ġfull Name
Design ation
Ġregist ry
uf act
é¡µ éĿ¢
phab et
ĠFound ation
divid ual
I K
l igh
ç ľ
ent ly
ic ted
un read
ri tes
ĠE DIT
Ġde termine
ag inated
ĠIn st
Ext end
Input Field
request s
Ġmin Length
token s
Ġpart icular
Ġlanguage s
WidgetDj Type
( \
B al
B orderRadius
F y
S QL
W V
W ay
u ar
y tes
Ġ round
Ġ quality
Ġre peat
Ġs afe
ĠC ell
ort s
Ġ1 30
ab or
Ġm akes
Ġto day
Ġt ween
ect ure
Ġjson Data
Ex pense
24 3
He art
79 6
55 4
Ġshow s
Ġcurrent Page
Ġinst anti
ĠÐ½ Ð°
hint Text
å· ²
Spe ech
D M
D er
H uyen
S al
] '
w as
st ri
ol a
de c
Ġre ported
ist ant
Ġd ie
ĠF rame
ĠM usic
ĠĠĠĠĠĠĠĠĠĠĠĠĠĠĠĠĠĠĠĠĠĠĠĠĠĠĠĠĠĠĠĠ ĠĠĠĠĠĠĠĠĠĠĠĠĠĠĠĠĠĠĠĠĠĠĠĠĠĠĠĠĠĠĠĠĠĠĠĠĠĠĠĠĠ
om an
Ġse gment
18 2
ĠCo unt
cast ed
Ver ified
Ġback end
ced ence
éĩ ı
ĠBl ue
æ³ ¨
ustr y
uxemb our
overnor ate
, )
P agination
S ame
T L
b k
ĠC our
co ordinate
St andard
ĠF eature
Ġin crement
ve locity
Ġt ick
Icon Color
Sh ipping
65 6
Ġ40 35
Ġinitial Data
Ġinitial izer
Ġsearch Id
xe a
ĠData Cell
ĠWeb Socket
ìĿ ´
M ute
W ifi
f X
o a
ĠS to
ĠT O
urn al
ce ed
ĠĠĠĠĠĠĠĠĠĠĠĠĠĠĠĠĠĠĠĠĠĠĠĠĠĠĠĠĠĠĠĠ ĠĠĠĠĠĠĠĠĠĠĠĠĠĠĠĠĠĠĠĠĠĠĠĠĠĠĠĠĠĠĠĠĠĠĠĠĠĠĠ
Text FormField
cl uster
dis miss
ãģ ĭ
Per formance
39 7
Th ere
Ġdate Element
ĠTime OfDay
åħ ¨
FI R
Ġtile s
ç© º
C ycle
Ġc lock
Ġc redential
() }');
Con sole
ser ted
Ġon WillPop
ĠN ULL
Ġid x
ĠRe gist
Add All
ĠbuildCounter GoogleCloudRetailV
Ġmodel s
theme Data
åı Ĥ
Ġinst all
rect angle
Ġlong er
land scape
DEF AULT
ieve ment
! ",
T alent
c redentials
æ ¨
ol t
ct ype
of ill
Ġpro per
15 2
__ ":
sub tract
ĠAn t
Ġimage Path
Device Info
ĠSe ction
45 8
Ref actoring
Ð°Ð º
Return s
Tri p
struct ure
) +
C lipboard
M ag
S up
X Y
p u
v in
th ree
it izer
>> ('
write AsStringSync
ĠCh aracter
Comp ensation
mark et
ãĥ Ī
buildCounter GoogleCloudApigeeV
Rel ative
Ġpop up
wrap per
ApYwApYw ApYwApYw
ĠshouldRe paint
: _
c lipboard
n uniform
r up
Ä Ł
in ja
th umbnail
Ġp ublish
Re quire
fl ush
eng lish
Ġ(_ _
Up grade
view port
Ġignore d
22 22
Filter ed
Ġ'' ',
UN KNOWN
Sl ice
Bottom Bar
Ġread y
temp ts
rece ived
Ġwrit ten
Ġexit Code
Ġbel ong
ĠConvert s
ChlBChlB ChlBChlB
\': $
AndRemove Until
N C
W ORD
j ud
l on
in line
Ġ' %
de pendency
Ġb ad
Ġ3 50
Ġ3 60
Ġal gorithm
Ġicon Theme
trans port
80 8
Dialog State
xe me
web site
firebase Auth
Non Null
éĹ ®
Drop Down
æ¡ Ĩ
maj or
E quatable
S m
t b
in jectable
add Byte
ance stor
Ġsh aredPreferences
ĠRe lease
User Model
28 4
Ġicon Color
Target Platform
LO W
Ð°Ð ¼
Fin ite
Ġterm inal
Ġcook ie
addPost FrameCallback
N EXT
P V
y our
Ġ ))),
Ġf a
Ġs ending
Ġcon flict
am mouth
res ize
ĠF lag
end ant
om bre
Ġ4 3
log s
Sub Topic
For Testing
bG w
Ġcol lect
) /
c nV
d ao
Ġ qual
ac ion
Re pl
po kemon
ted Box
Ġvalue Color
)) ));
20 3
ĠRe view
25 2
Ġal ong
Ġinitial ization
face book
Body Bytes
à¤ ¿
CL ASS
andid ates
ĠMo ve
ĠLayout Builder
atis fied
ĠConnect ivity
Ð»Ð°Ð² Ð½Ð°Ñı
P or
Type Enum
To Map
om ial
red ucer
15 3
Th read
Start Time
post er
sw id
Ġmatch TextDirection
UT F
ĠPar am
Ġad apter
star ted
Ġshadow Color
Ġcharacter istic
éĩ į
Ġseparator Builder
æı Ĳ
fol io
V ehicle
d ice
s In
in ux
get Current
ĠSt ory
Ġg rade
Style Set
Ġcreate s
IN FO
Th umb
85 9
26 7
where String
jdGlv biB
Raw Json
itTest Behavior
Complex ity
Ġdig it
CRE ATE
B ad
H ot
J y
] ]
æ ²
ê ¸
Ġf loating
Ġre cipe
Ġco ordinate
ĠO ct
Index ed
80 5
rag ments
db Date
pa inter
ĠConstr uct
Ġhand ling
RW xl
de e
ac ted
co okie
set Value
ite l
Ġ4 1
AN A
45 7
à¸ ±
ear by
ĠJson Utils
Ġprocess ing
Ġexec utable
ĠSliver ToBoxAdapter
Move Event
à¹ ī
Ġsuggest ions
celer ator
fess or
B G
B AR
P olygon
S at
i am
in ity
in voice
el apsed
': '
ub GVuZ
ĠP ER
Ġde s
ore m
ĠH EAD
op per
Un supported
ãģ į
ĠFile System
Ġiss ues
ĠcrossAxis Spacing
Calculate Result
( ?:
D r
J ava
W ave
a verage
d m
f p
l g
l ng
st ock
is k
Ġv ote
text Align
ĠP ur
Se e
Ġ` ^
Search Date
group Id
Ġany Named
Ho use
ĠY our
Ġfilter s
BytesHomogeneous Int
ĠAnimated Builder
STR ING
Watch er
ĠClient s
Cr ash
pick ed
Ġperform ance
B lob
H D
N ight
R S
d j
d ating
h w
Ġ åĪ
it ive
and o
im en
ĠE asy
Data Type
ĠD OM
mo val
Ex isting
99 3
Ġcall Method
gener ation
Ġcomm ands
az z
version s
Ð¾Ð ±
ĠSub scription
ĠPh D
æĿ ¥
jump To
ĠmainAxis Spacing
s urface
u is
in active
Ġm is
Con firmed
ay ers
Ġco s
Map s
ener ation
Ġpro blem
ĠRe port
34 7
69 0
Reference CopyWith
Exec utor
Yg Node
Ġfeed back
Air lines
éĴ ®
- ${
C aption
Q l
c v
e mp
n ested
r d
z w
Ġcon sole
qu ot
yn omial
ĠA S
Ġsub unit
fe e
Ġnum eric
EM ENT
OP EN
unit o
bG VtZW
CodeableConcept CopyWith
Ġcompare To
ĠDes ign
Sto res
ĠByte Data
ssib ly
A o
an sit
il le
Ġth read
ĠS ort
ĠC AM
Ġun specified
pb m
Button Text
55 2
AN CE
Is Yy
ces ses
Editing Value
Ġ'\ $
Def initions
step s
è§ Ĩ
ĠAct ivity
Refer ences
Lazy Singleton
ĠEng ine
Ġhapp en
> =
C entral
V U
] !.
f y
p ip
p kg
Ã ½
Ġ Ø§ÙĦ
er c
Ġre gex
Ġre cipient
ĠS ample
Re covery
Sh aredPreferences
Par sed
64 0
99 0
ĠW rite
AN Y
call Method
90 9
à¤ ®
ĠPage View
Connection State
åĬ Ł
Ġsl ide
Can onical
Js Object
ĠMark down
Ã³ n
ç»Ħ ä»¶
ARG UMENT
Ance stor
G overnorate
W rong
m al
us ing
Ġm icro
res olver
Ex pect
(_ _
Ġ6 6
18 1
sp ital
ĠSc ale
ĠÐ ³
read AsStringSync
45 9
Tab Controller
input s
Imp ly
Ġqu ote
Ġrect angle
ëĭ ¤
ĠWill Pop
C at
d to
e es
In vo
Ġt i
oc al
Ġres olution
App Theme
AR I
Ġ12 34
EE A
under line
Drag Start
aa aa
control s
Operations Response
D atas
S int
ì ł
st u
Ġc m
de s
Ġre peated
Ġp w
ĠT own
Ġst derr
ĠE ach
ĠB E
Ġg ot
user ID
Ġan imated
Ġlist Of
ãģ ¦
Instance Of
Ġpage Controller
decode BodyBytes
Ph ysical
UN G
Ð¾Ð ³
Record ing
Byte Data
Ġback up
Exec ution
Ġfoo ter
ĠInitial ize
Stopped Animation
G olden
I Lm
t f
w u
} ')
ĠText Theme
ĠB ackground
user content
Ġhe ading
Be zier
Ġscreen Height
Ġab solute
ĠLogin Screen
Gu ard
ĠQ R
Favorite s
éľĢ è¦ģ
8 28
M achine
U G
c andle
m ak
at om
an i
ul ated
In App
Ġd atas
Ġin form
Ġh y
Ġstatic Element
Ġdis miss
max imum
Ġlog o
37 6
Ġclient Id
Delegate With
Ġwork space
stack ed
ĠName Node
ĠTe mp
0018 9
Nav Bar
agger ed
navigate To
ĠAlways StoppedAnimation
Ġsoft Wrap
N G
V G
r atio
st ation
ment Type
he ading
om b
ĠN um
Time s
Ġ8 4
ĠPro d
Ġcheck List
Ġcheck Exception
action Info
os en
function Type
ĠTr ue
aly zed
Access Level
Cache d
95 7
PW E
Release FfiHandle
ĠWork out
åĬ¨ çĶ»
Ġleg acy
00000000000000000000000000000000000000000000000000000000000000000000000000000000000000000000000000000000000000000000000000000000 00000000000000000000000000000000000000000000000000000000000000000000000000000000000000000000000000000000000000000000000000000000
E at
f ork
q s
it ch
Ġf ee
ser vers
By Tag
Ġdata set
30 2
30 3
read AsString
Bu y
____ ____
ĠDown load
' |'
4 69
B OTTOM
C ss
D P
T xt
o e
Ġ ].
Ġ( [
ĠT ry
ch arge
Ex change
Me eting
Trans port
Ġte x
Ġany thing
ĠCustom ScrollView
BytesHomogeneous Double
Cancel led
Tri via
à¹ Ī
Ġsuggest ion
ĠCr ypto
çĻ» å½ķ
ĠWillPop Scope
F k
J v
M ut
V k
b X
l ab
de clarations
un tokenize
co ok
import s
add r
Key Pair
Ġpro p
24 2
66 5
ãģ ¾
49 6
next Double
Ġversion Element
regist ration
G reater
J ust
s nackbar
Ġ utils
on Click
Ġf ace
Ġth umbnail
ĠS uper
00 14
ĠT ickerProviderStateMixin
ĠP ass
ĠE valuation
Ġh ook
Ġext ent
Ġvalue Element
Box Shadow
field ID
uff ers
Ġk Default
mis sing
Bytes InlineArray
80 7
ĠGet It
private Key
Ġaut oc
ĠIs olate
Ġagain st
Ġpress ure
Ġdig its
Uplift Ele
åĨħ å®¹
TEC NO
? ",
B all
F D
G DateTime
P ublish
S hell
^ {
h ard
s Z
re load
an ime
ate way
ĠF L
Ġon Click
Ġnew s
cor ated
16 2
Ġ10 24
As sessment
view er
Ġ> ('
be an
gre gate
Account Data
Ġstatus Bar
Ð¸ Ð»
ĠPer iod
song s
eXBl PX
on boarding
ing Context
is Completed
Ġre search
ĠS pan
Ġp df
ĠT ri
St udy
up per
Ġconst ants
ĠP olicy
Ġget ProportionateScreen
Al t
ĠG L
ud o
update Time
Ġcheck s
44 4
Global s
ĠLink ed
period ic
Ġ""" <
ĠNg SimpleTokenType
H old
S imul
W all
e very
k m
ul se
Ġs ite
act iv
value Of
Ġ5 1
cond itions
var Name
Ġcan Launch
aint y
request Id
default s
book ing
SD K
cc up
ĠUpdate s
visit or
é¢ ľ
ĠGoogleCloud ContactcenterinsightsV
ShkBShkBShkBShkBShkBShkBShkBShkBShkBShkBShkBShkBShkBShkBShkBShkBShkBShkBShkBShkBShkBShkBShkBShkBShkBShkBShkBShkBShkBShkBShkBShkB ShkBShkBShkBShkBShkBShkBShkBShkBShkBShkBShkBShkBShkBShkBShkBShkBShkBShkBShkBShkBShkBShkBShkBShkBShkBShkBShkBShkBShkBShkBShkBShkB
B Q
N ON
P ersist
a que
f hir
ion Error
Ġf riend
ul ation
Re try
Re ward
ĠP s
ĠB inary
Ġex tr
name space
Ġnew State
Ġse parate
code s
code Unit
77 3
68 0
Ġ7 2
ä¸ »
27 3
IS team
Default Values
Byte Int
Drag Update
Ġmark ers
ZS B
STAT US
æĮī éĴ®
, _
D imens
h air
m ute
Ġ Queue
Ĭ ¶
Ġ' (
Ġs hell
ver ified
Con densed
ĠF a
ĠB O
oll ar
ag ue
Cont inue
80 6
ĠMy Colors
table s
äº º
Ġplatform s
Ġdistri b
ä¹ ī
================ ================
ICAgICAg ICAgICAg
Les son
æĥ ħ
Imply Leading
p p
is On
ate l
Ġp icture
St ation
ay a
Ġon Cancel
Ġtext Baseline
ne eds
75 2
uc hed
29 2
Ġapp State
write Marker
LE FT
Ġform atter
Menu Button
HT TP
ĠAdd s
Cap ability
agno sis
dC xz
æĹ¶ éĹ´
ĠFI LE
mbed ded
è· ¯
ĠRET URN
> """,
s ig
z er
Ø ®
er p
Ġb i
he st
Con flict
Co ordinate
Map Entry
25 3
Ġpar agraph
Ġtype Name
ĠPointer MoveEvent
26 2
Ġunder lying
ĠCur ve
ĠGener al
Ġman ifest
Ġgrid Delegate
Ġgr avity
Formatter s
week day
+ "
N r
O j
c trl
d istrict
i ants
i Pad
s il
Ã µ
é ģ
Ġm achine
qu ip
sh ader
ĠH Y
IC ATION
79 4
PAR AM
ecapeVariable Reserved
/ ',
5 69
9 66
E I
L X
P ASS
y MMMM
è ¨
is ions
ĠC lose
State CopyWithImpl
Ġget s
ĠD imensions
32 3
cont inue
Ġ6 9
''' ],
From Start
49 4
viron ments
room s
Blue tooth
Ġreplace ment
j k
r atic
s ch
È Ľ
re at
se at
tr avel
as ing
Ġe moji
Ġe pisode
Re cent
and a
Ġsh all
-------- ----
xff FF
Pl ug
Ġselected Index
URL Y
Util ities
bG wp
Keyword s
ä¾ ĭ
San itizer
Ġexpl ained
C losure
T A
U o
W in
Z v
e z
f Qp
v sync
set Point
Ġin s
end Date
Ġde gree
En gl
ĠU uid
Ex ercise
70 2
ĠCon sole
ok u
Over view
76 7
ĠIN TEGER
Track er
TestScript Action
Ġexpression s
did ChangeDependencies
Ġgl ad
Ry dW
Some thing
Ġnavigator Key
Cover age
( ':
B ubble
S K
S rc
d ist
d ifferent
e q
se parator
ur an
Ġ( '
art er
pe ek
Ġp otential
Ġst ats
Ġsc ene
Play ers
collection s
Access Control
ĠOb x
Ġdark Theme
ĠAP P
rott le
S R
S UCCESS
c apture
d on
g ql
Ġ util
con cept
co ordinates
Re t
Re cover
Re verse
ĠM AM
Ġg ap
Sh own
iv ot
Tap TargetSize
Sub mission
ou ch
Th in
cre w
Ġob t
ãĤ ¹
fore ground
ĠAr ch
password Controller
æľ Ł
Job sResponse
Frame s
Definition Search
à¥ Ģ
ĠConstr ainedBox
Than Or
fid ence
qf Entity
BRE AK
A ch
G ranted
a ken
d as
g ar
th ers
get Int
ation ality
iz za
Ġ/// ```
Ġchild AspectRatio
Ġon Submitted
User Profile
39 0
Class ification
di ctionary
89 6
account Id
listen ers
Stack Trace
Cap abilities
Ġwrap ped
å½ĵ åīį
Ġtyp ically
> >[
A Z
F av
J F
L md
p ublished
Ð ¶
Ġf ac
Ġf ragment
ĠS qfEntity
to Bytes
() ],
ĠO ri
App Localizations
Ġuser Data
Client s
Ġapi Version
Ġend Date
48 6
Play back
Ġfunction Type
off line
HT ML
Ġconstr ucted
track ing
frame s
Marker Tag
Security center
respon sive
æį ¢
åĬł è½½
ĠAnt Design
+ =
I ix
S ch
S fixed
d og
s f
s in
re cipient
ext end
el ine
qu id
ĠĠĠĠĠĠĠĠĠĠĠĠĠĠĠĠĠĠĠĠĠĠĠĠĠĠĠĠĠĠĠĠ ĠĠĠĠĠĠĠĠĠĠĠĠĠĠĠĠĠĠĠĠĠĠĠĠĠĠĠĠĠĠĠĠĠĠĠĠĠĠĠĠĠĠĠ
Ġde veloper
fl ip
mo j
map core
Ġcan onical
current Token
Le ave
Ġcheck For
27 2
çĽ ¸
çº ¿
ĠSliverGrid DelegateWith
1 0000
4 28
M ic
O FF
P D
Y T
æ ¸
in vite
Ġ( "
De clarations
En coded
build List
cl am
Ġen counter
ãģ ª
part y
Dis covery
") ));
cre ator
Ġform Key
ĠMedia Type
ĠUn known
Wh ile
Ġmod al
Pre set
TR I
Bottom NavigationBar
Job Request
Ġ400 8
æī Ģ
Vt bl
lp Vtbl
Rob oto
: ",
? "
c er
m or
or ation
se q
de ad
ro zen
ul ator
Ġv endor
text Direction
set Bytes
ĠD OT
Ġh aving
cont ained
cl s
Ġpo ssibly
uff icient
Ġsub scribe
Th rough
69 2
Ġlog s
Ġposition s
web kit
Ġgener al
ĠEn try
normal ize
ĠTime line
FFFF FFFF
Display Name
Ġag ent
Ġdid ChangeDependencies
Xml Element
Ġsw id
Ġbelarus M
LOC K
/ #
4 34
B illing
V T
Ù Ĥ
à ·
is Active
ĠG ithub
Ġ4 7
App end
Ġch arge
list s
Of Service
Ġ00 22
80 9
Ġlog ged
37 2
IM ARY
Ok una
aGlz LmE
Fi xture
IClDIClDIClDIClDIClDIClDIClDIClDIClDIClDIClDIClDIClDIClDIClDIClD IClDIClDIClDIClDIClDIClDIClDIClDIClDIClDIClDIClDIClDIClDIClDIClD
çİ °
5 25
G lass
a res
g ol
i K
st udy
Ġ' __
de p
Ġp ol
Ġs ources
Ġv ery
Ġ), ),
Ġ2 20
Al ready
ĠO P
Ġme tric
Ġal i
22 1
89 4
Ġoverrid den
å¯Ĩ çłģ
ĠFit tedBox
C LO
G O
V N
b ell
c amp
t icket
y ou
Ġl and
ĠD irect
ĠD IGIT
Sc heduling
Ġch ip
has Focus
Ġcomm unity
AT IC
Sl ab
ĠX dr
ĠUp load
åĮ ħ
å¸ ¸
Ij pb
Exact ly
]+$ `.
Unsigned Int
GoogleLongrunning Operation
é¢ľ èī²
clam ation
6 01
V endor
n t
at ible
en ance
le tes
Ġe ar
State Data
Ġr gb
Request Finished
ĠH as
Ad vance
Date Format
''' {
view model
light Green
65 2
ĠbuildCounter GoogleCloudDocumentaiV
Cl one
GL Map
pur pose
Term inal
ĠDesc ription
Ġcrane Fly
Tod os
/\[^/\ ]+$`.
A SE
F IN
W I
n an
p alette
u J
ì Ħ
ì ŀ
Ĥ ¬
er ator
se ason
it ored
In Order
Ġ. _
Ġco variant
act s
ĠR oom
base WidgetDjType
Ġac ross
Search Result
RE G
ĠCh rome
Ġpl us
ĠBorder Style
spec ial
tx n
Ġmark et
Demo State
sun ny
IamPolicy Request
T oo
V ICE
f uchsia
h PT
Ġ ide
in jector
ro k
ĠS f
Ġ" ^
ĠC or
ĠF EED
Ġas ynchronous
form atter
ĠMap s
ob server
Ro unded
TE M
Ġ15 9
Te ardown
90 5
Ref lective
88 8
å¤ ±
Ġsupported Locales
Ġwrap per
L S
b ur
m ale
n c
o ptim
w elcome
å ķ
at tachment
In tro
Con crete
De ploy
Ġon Generate
Ap ply
ĠL ite
At tach
OM E
... ',
Ġappl ies
cd sa
KC S
Ġcert ain
éĶ Ļ
ĠMultipart Request
codeUnit At
) !;
> ]
F our
G uid
s now
get Attribute
Ġ1 40
Ġis NotEmpty
Ġext ended
ĠI gnore
Tr affic
44 9
Ġac cording
main AxisAlignment
Ġcomp ilation
59 8
Book mark
Ġ''' );
Rece iver
âķĲâķĲâķĲâķĲ âķĲâķĲâķĲâķĲ
ĠHex Color
ĠMet adata
ufact urer
! ['
F ab
I os
] )),
c ml
r gb
Ġn av
Ġd aily
iz able
Ġ[ ...
Type Arguments
ĠE RR
Ġde scrib
ĠD EF
Ġ8 7
ãģ ¨
Ġat tachment
ĠImage Picker
local s
ĠTest AllTypes
ld yB
à¤ ²
dG F
doc region
Media Type
Ġwhere Args
car ousel
ĠNull ability
Ġsymbol s
OSPolicy Assignment
Arch ive
Battery Level
Ð°Ñİ ÑĤ
VIE W
C ARR
d Item
è į
Ġc aption
ur s
Ġn ome
ri a
": [
Ġde stroy
Ġon Page
sh ake
str ategy
Ġ| ',
Ġpo sitive
60 2
For got
TR Y
col lect
Ġ'$ _
Ne ver
Ġrefer ences
Ir regular
Ġè İ·åıĸ
Ġrepl aced
B ind
E valuation
O of
S lo
W y
l j
is False
Ġre ading
pe er
ĠF ailure
Key Value
Status Listener
ph rase
Ġicon Data
Add r
Ġlog out
xff f
Ġqu eries
Ġscroll able
Pan e
Ġident ify
LH I
pol ymer
Ġter ms
å° Ĩ
Ġcomb ine
DEF IN
tri angle
Protobuf Enum
explicit ToJson
Ð»Ñİ Ð¿
D an
F ac
g c
s at
Ġ ke
Ġb g
Ġis EqualTo
Ġbuild ing
Ch allenge
ĠL ib
}, {"
Ġ10 9
ãģ ķ
Search Uri
show Dialog
Account Id
igh b
æľ º
ĠChange Detector
ĠSpec ifies
ĠUtil ities
Ġent ire
Ð»ÑİÐ¿ Ð¾Ñĩ
S nap
i Fi
p ie
t ar
in stant
me mo
is ation
Ġth ing
get Bool
ad vance
00 22
set Data
code Lines
em y
Qu eries
Ġuser Info
79 0
work ing
Comp arator
OT ATION
uY ih
github usercontent
ĠÐ¿ ÑĢ
71 99
Rece ipt
ĠBl endMode
Ġcell s
OU CH
ĠGoogleCloud DocumentaiV
æĢ §
RWxl bWVud
O E
e lem
g h
v endor
ĠF ix
ĠP referredSize
To Avoid
ex isting
ĠI sl
ĠN av
uc ed
Ġk PrimaryColor
80 4
Group Set
cy cle
non ce
ĠDevice Orientation
ĠAnimated Container
care t
æĶ ¶
Rot ate
Ġcr ypto
Ġevalu ate
Hote ls
M EN
d ue
f ac
k ernel
y ah
} _
ç Ĭ¶
ol ving
Ġs y
Ġv isibility
Ġv elocity
In jector
ĠE vidence
ly ric
Ex ist
)) {
ĠAl low
19 1
ĠÐ ·
Home ScreenState
ĠJ o
45 4
Sign up
88 88
Part icle
Ġcor rection
temp erature
Ġlink ed
Bus y
did UpdateWidget
ease Out
Ġfin ished
ç¡ ®
D T
K W
b oo
é ļ
Ġ 77
Ġf low
res ume
ĠM X
State CopyWith
Al i
Sc alar
Ad s
response Body
Ġro les
Ġpage Builder
Delegate s
Ġorder s
HE AD
Chart Data
Ġextension s
Ġtransition s
ĠQu iz
Ġcomb ined
TT F
CENT ER
e ach
r p
s al
s Count
w y
Ġ questions
name Element
ĠG allery
Ġbe come
Ġse mantic
ust ers
50 3
55 7
Ġ00 01
85 6
Comp osition
CH ARACTER
Ġpop ular
ÐµÐ½ Ð¸
Accept able
L HE
P ins
\ ":
j v
ê ³
in ing
or Else
id a
Ġv isualDensity
Re cur
ch oice
Con f
Ġis Dark
ex panded
ĠIn herited
start er
34 3
pre t
leg al
Ġinitial State
End Time
br and
ä» £
è¯ ģ
Ġsl ug
Ġjs Proxy
war ded
ĠQU OTATION
I TI
R ichText
c GV
st and
Ġp lease
us hed
Ġto dos
em s
ra z
ĠRe cord
ne gative
Ġnot ifier
He at
19 3
On RydW
search Text
aw a
ÑĤ Ð¾
pop up
email Controller
ï¼ Ł
56 7
mod ify
sl ug
è¿ Ľ
Extra Bold
ĠExt ernal
anti Alias
Ġ:: =
Conv ener
ToAvoid Bottom
) (
4 17
= (
c up
d oub
f H
i B
æ Ħ
Ġ ----------------------------------------------------------------
in uous
Ġc x
Ġf old
Ġf allback
ĠS C
Ġs ucce
con firmed
Ġd w
ag eneration
Ġh o
From String
Ġle s
ãģ §
ãģ ĵ
Device Preview
Out er
90 8
Met ageneration
Ġcomple x
Ġver bose
Back end
IA GE
comple tion
fill Color
edit ing
Ġtable Name
Transaction s
æĹ ł
CON N
Ġdistri ct
PS J
ĠDirection ality
alle st
) ])
4 15
C alc
M F
O val
re moved
ing Box
Ġf lat
Ġs en
In set
us s
ab its
add Fix
ag ar
from Char
ĠL ook
ly tics
Ex ceptions
static Element
Sw ipe
ĠComp ileTimeErrorCode
border Color
when Complete
sur ance
Ġautomatically ImplyLeading
Ġprivate Key
reportError For
CARR IAGE
B as
L ife
M Y
S low
U z
p j
r ich
in Milliseconds
Ġ{ $
Ġb tn
List ing
ren d
ĠN E
Ġse curity
ĠThe y
Item Color
29 0
Ġapp end
On Change
Ġ00 85
And Metadata
alcul ation
åĬ ¡
ä½ ĵ
ĠLocal ization
Rest aurant
Ġmac ro
A w
H ar
M ix
Z D
b ag
p Y
Ġ entities
Ġc rop
ĠP RE
pect ive
Ġg as
With Text
type of
Response Future
Qu al
}) {
start Angle
pre tty
Material State
Th ickness
40 9
Impl icit
Trans late
48 7
sw aggerGeneratedUnknown
ĠRo ot
Pre defined
Ġab br
ĠEn vironment
98 7
language Element
where Type
ĠRes orts
ä¹ ĭ
MA X
æĶ ¾
133 7
Ġgen re
mix ins
Ġimmediate ly
SCRI PT
æ¨ ¡
C Y
M aster
P x
P ie
P OS
R ocket
U x
j ava
is i
de stiny
get ters
con f
ĠC ore
ĠF ull
Ġde tect
(" [
=" /
ĠÃ ©
Un available
foo ter
Ġlog ical
Version Request
ãĤ Į
Answ ers
YX J
Ð°Ð ´
RvdHlw ZT
cnV l
A j
f un
m any
p per
s an
æ ·
é Ĥ
Ġc v
Ġd ist
Re order
Ġ[ ]),
ch rome
(' {
ĠP ort
Ġl uxembour
Data Model
ĠI OS
ĠV isualDensity
28 0
35 2
Ġ9 6
find er
Ġ40 39
Top Left
man ual
Ġline ar
register LazySingleton
constr uct
Ġdid UpdateWidget
signIn With
å®ļ ä¹ī
PA TH
æ¶Ī æģ¯
ĠHEAD ING
Ġluxembour gC
) ]),
D S
H it
H itTest
O c
Z R
b id
s Ck
re pl
Ġc ities
Ġc andidate
Ġn a
Ġp ersist
Ġ" @
Co ol
(" .
Ch h
map per
__ ],
Ġcall er
min Width
Log ged
pri vacy
ĠCon s
45 3
Is Deleted
Cre ative
Rel ated
Ġrefer enced
Ġoccur s
Healthcare Service
anton Oof
ĠluxembourgC antonOof
B ed
S CH
S UB
U k
f ort
Ġf ire
is Connected
List Of
IN TER
([ \'
ING S
09 8
Part ial
## #
Mark s
language s
Ġweb site
KS x
Ġoff er
æĮ ĩ
ĠMenu Item
iso Code
ĠFraction al
ĠRece ive
ê¸ °
ĠOri entation
J c
U l
g ro
r ad
â İ
å ģ
ë ¡
in vocation
Ġ( ${
ĠE thereum
Ġnew ly
Ġse l
Ex tr
Ġor gan
__ ).
__ ].
28 2
ĠApp Color
AR CH
cur r
Ġborder Width
ZW N
vis ions
SD L
Return Type
åĽ ¾ç
Lock DeviceTrait
Ġsecondary Animation
Notifications Plugin
Power DeviceTrait
ĠJs Object
B FB
F V
h or
ĠC OL
imp ly
Ġd at
Ġd imensions
Re ading
ĠF avorite
ren a
json String
ss h
ex change
field Name
Call Options
Trans lated
23 1
Ġnon ce
pi geon
entic ator
ĠCH ILD
SER T
ê° Ģ
ĠAtt ach
OnRydW Us
4 77
B ridge
C EL
K L
Ø Ń
in v
st mt
en a
Ġc at
se mantics
ol lout
ul ner
Ġn et
Ġs ound
Ġv ert
ĠA fter
ĠR P
User Access
dis covery
Api Client
Hand lers
ãģ Į
let ion
Local NotificationsPlugin
Filter Condition
Line Item
Ġte chn
Ġinput Formatters
Ġref lect
initial izer
åĲ Į
Proto ChangeDetector
KGE sY
Gr avity
Ġast Factory
YXIg dCxz
adorn ments
adorn mentType
decl ared
CrossAxis Count
ĠÄ ĳ
K z
g w
à ¶
Ġf un
Ġ" [
Ġ1 25
Ġm ail
ĠF older
od ium
pl ural
Ġh uman
ĠI P
Ġme aning
Button Pressed
ĠEdgeInsets Geometry
play ing
pop pins
selected Date
EC K
table t
product Id
UL AR
ĠQuery Builder
Ġrecord s
ĠRE PL
ĠÐ½ Ðµ
Ġkeyword s
Fore cast
æĶ ¹
ToString Helper
ĠLoad s
tegr ation
èĢ ħ
+ ',
5 01
8 01
A m
B udget
k b
re maining
ut c
Ġis Expanded
Ġ3 65
Map Controller
En cryption
._ (_
File Edit
sp aced
RE SS
screen shot
Ġfind er
AD E
åĲ ĳ
Ġne g
can onical
Ġblock s
upl ic
Manage d
Bit map
Ġpublisher Element
UU ID
Ġatt ached
A H
F J
G a
P olicies
R oll
b at
b ro
b asket
n el
on ed
st d
is er
de scribe
con crete
Ġin dividual
Ġt p
und o
ĠSc an
dis c
Inter action
client Id
LL LL
Ġroot Bundle
pa que
åĩ ½
æİ §
Ġmov ies
bH Nl
ç¬ ¬
BytesPacked Int
éħ į
4 38
I VE
p id
y po
or i
de pendent
as LockDeviceTrait
as PowerDeviceTrait
get Image
Ġp or
Ġs vg
ed ited
Ġw s
Co vid
from Real
ĠR EL
http Client
Builder Delegate
25 1
Ġtype def
IC B
On ce
Ġpre tty
End Date
sw ana
Ġqu iz
Ġdemo TextField
Stop s
Ġselection Set
ĠValid ate
stit ial
çĤ¹ åĩ»
Ġradi x
Ġpract ical
ĠDiv Element
integr ation
Ġwire Name
S il
V j
Z l
n es
Ġ ign
ĠĠĠĠĠĠĠĠĠĠĠĠĠĠĠĠ ĠĠĠĠĠĠĠĠĠĠĠĠĠĠ
al ic
se eds
ac celerator
ut ors
get IZ
urn ame
ot or
ĠE V
Icon Theme
name Controller
Ġ3 20
ĠL EAD
data set
Ad aper
Ac curacy
Ġadd Test
38 3
enum Decode
config s
Read only
Char s
Ġframe work
ĠRect angle
ĠId entity
Firebase Auth
ĠDocument Snapshot
PH EN
å¸ ĥ
sn ake
Ġworking Directory
inf ra
7 64
b z
b io
p ies
} "),
} :${
ic ulty
ut down
ĠT X
String Buffer
Ġl azy
Al ways
ĠG ET
Ch an
ĠN ext
ĠN UMBER
io let
dis count
no unce
78 0
icen inja
Comp uted
Ġact ually
à¤ ķ
Ġ'\ \
Ġrender ed
Ġter min
à¹ Ģ
Analysis Context
dig its
Ġpin ned
Ġexplicit ly
invo iceninja
mess aging
æ¬ ¡
åĩ½ æķ°
" +
9 70
H O
K B
Y es
Y ellow
c x
m k
n h
t m
Ġp agination
ri val
ĠM onth
ĠP refix
ome ter
44 6
ãģ ¤
Ġspec ification
Ġinitial Date
89 5
System UI
Ġbutton Color
ĠAs pectRatio
mock tail
Ġcount s
channel s
Ġlocal s
filter ed
Pri vacy
plan e
Fixed CrossAxisCount
Ġge ometry
Ġder ived
Ġcurr Val
Ð»ÑİÐ¿Ð¾Ñĩ Ð½Ð°Ñı
C y
S chool
b ow
n ationality
st anding
se m
is Show
ĠS ync
ĠP ay
ĠP ublish
fl ux
ĠO S
ĠN arrative
Error Message
32 1
build Parameters
28 3
ĠPro xy
ĠAn im
Client Context
gre ater
49 3
LL AR
fin ished
Off line
Tool Bar
ĠNull able
inst agram
ĠÐº Ð°ÑİÑĤ
ä¼ ł
Arrow Up
cp UserAccess
Ġconfirm ation
ĠSw id
istrib ution
ĠÑ į
cpUserAccess Binding
D EC
a C
a D
m atic
» åĬł
ī ĩ
ac o
Ġp ublished
set ter
ot p
ĠText Selection
Ġde sktop
ĠFunction Type
di gest
à¤ ¸
ause s
ãĥ «
Ġad just
Grid View
Graph ics
pa used
ĠFl an
IR AG
BuiltValue ToStringHelper
Warning Code
Ãª s
Instruction s
Ġresize ToAvoidBottom
doub an
I PS
T utorial
g al
th rough
Ġs i
co ol
us ion
ĠM ar
ĠP rint
ĠP rice
ener gy
Ad Error
Ġ10 2
Ġfile System
ĠÐ µ
RE W
Ġchange Builder
document ID
sl ab
photo Url
vision al
ĠDis miss
3333 3333
Ġrot ate
254 740
Ter ms
ĠBit map
Ġexam ination
7199 254740
åĽ¾ç īĩ
IRAG ANA
) &&
> ("
B igger
N est
S afe
c ash
h dG
n v
x ec
at ives
st airs
Ġ' ),
tr unc
text Field
Ġ0 12
iz en
ĠM err
ff ee
Ġh ierarchy
ĠState ful
ĠH IRAGANA
op ping
Event Store
path s
ĠW ait
Google Rpc
Ġsub type
TI T
Library Element
Ġ{} ),
mark ers
Ġclient s
Ġhandle s
Ġcor ner
ĠQu antity
nb d
Measure ment
relation Id
dial Code
Cod er
Ġpreferred Size
ĠTyped Reducer
ĠHY PHEN
P al
U u
\ .
f g
h am
l int
id ing
Ġre l
to ur
Ġ1 70
ab in
Ġw ater
Ġm al
ĠM ov
ĠM qtt
Id le
ĠD F
Ġ5 77
18 3
pres ented
Ġcheck GoogleCloudDocumentaiV
66 2
Met re
Ġload er
Ġpl ug
Ġmod ules
ZX N
ĠOb server
ĠArt ist
ĠWH ITE
Sur vey
Ġmaint ain
ServicePer imeter
Ġdial Code
åıĤ æķ°
ĠREL ATION
7199254740 991
E ye
F loating
V oice
a is
w est
x ed
é ¦
st able
age m
Ġ" ðŁĩ
In v
ĠP arent
Ġ2 31
Co untries
ĠD ashboard
Ġh ard
ex pense
') ).
Po sitive
Time Series
Ġsh a
Response Model
ke dex
40 7
GoogleCloud Securitycenter
LL ER
game s
ship ping
Cell s
Col lect
ĠStruct ured
é¢ ĳ
Pixel s
åĮ º
spot ify
ĠAnsi Colors
GoogleCloudSecuritycenter V
C atch
E w
E mitter
] -
v t
re try
Ġc alc
ac cent
Ġm ut
ĠF ood
Ġis Show
ĠR ot
Ġme t
Sh ot
create User
ĠCon troller
>? )
RE EN
Comp ileTimeErrorCode
Ġsign al
Ġ] ).
IP v
ĠXml Element
Ġcrane Sleep
ĠExec utable
ç´ ¢
ĠPER CENT
' /
4 01
D ial
F lat
m ing
or rect
ĠS ECTION
Ġcon version
Ġ1 17
ce il
Ġw on
Ġt ail
Ġl erp
ĠD I
ĠD on
Ch oose
out s
ĠH itTestBehavior
Ġlist FromJson
Pl ane
à¸ §
Ste am
device PixelRatio
Ġindic ate
âĶ Ģ
Ġrespon sible
utr ition
) };
2 39
> '
? [
B el
J L
f emale
h ind
n ers
p redicate
u ZXcg
on to
Ġf ort
Ġre store
Ġre trie
Ġs liver
ĠE ither
Ġh older
Value Type
Not Match
ĠV AL
ĠDe v
Ġ20 24
Count s
79 2
RE QUEST
ĠCh oice
ote l
xFF FFFFFF
fin ing
change s
author ized
Http Info
Ġedit ing
avatar Url
KQp pZih
ĠDocument Reference
Fr ont
Ġdefine Reflective
ĠEntity Type
Ġoper and
f all
i Phone
l uc
} ]);
le ave
ge ther
is Null
as Map
co d
Ġo mitted
Ġm at
ĠE pub
ĠColor Scheme
'] ?.
ĠI terator
og gle
Ġan alytics
By ClassName
Path Result
Auth Provider
Range s
apt cha
Pri mitive
Converter s
ĠOr ders
lin ux
ĠTabBar View
Ġvis ited
mapMap FluttifyChannel
ĠDEF AULT
R T
a G
n Q
Ã ´
able To
ĠE mployee
Build ing
Ġbuild GoogleCloudDocumentaiV
ĠG radient
Sc aling
Response FromJson
ĠIn vocation
Ro ster
create Element
new BuiltValueToStringHelper
ĠAn alytics
68 3
Ġ(! (
Ġ30 41
ĠAd ErrorEnum
Ġselected Color
exp ires
gen re
YW x
Full screen
asc al
Ġmedia Query
producer V
GoogleCloudPrivatecatalog producerV
ĠLEAD ER
7 14
G H
G LE
Y o
e th
Ù ¾
Ġc apture
get Or
Ġn est
Ġp ull
Ġp ersistent
Ġe d
ch arging
add Error
Ġtr im
(" -
Ġpro cessed
16 1
App s
Ġimage File
78 2
40 2
59 4
Ġ\ $
report Read
report Write
ĠSliver List
ĠSp rite
AV AIL
AAAAAAAA AAAAAAAA
onom y
: ');
D ummy
N UC
R en
Z i
d S
i ated
ç ³
ç ½
Ġ" $_
Ġon Pan
fl ight
Ġr ather
ĠL ast
ĠL ength
Page View
Message Event
Ġ6 7
Ġ10 4
ĠW ord
expect StaticType
29 1
//////// ////
config ure
Ġinter net
Ġbutton Text
ĠAuth Service
ĠType Matcher
filter s
"" ";
exec ution
person al
just ify
Ġappro val
Draw ing
æĸĩ ä»¶
MethodCall Handler
ĠProjects Locations
ĠPO INT
) }');
G ym
M u
b h
Ġ" '
Ġcon n
add Option
ren cies
ĠD E
Ġse cure
Ġal locate
${ _
Ġmap EventToState
ãģ ¯
Ġassert Has
Comp iler
Ġver tex
sl ash
Delete Request
"}, "
Ġrender er
ĠIN DEX
Ġmark ed
Ġfull y
Meta Data
Full Screen
ĠItem Type
Navigator State
ament o
bul b
ĠAP Is
Signed In
Bi ome
Na N
Dri ves
R adial
V e
d raft
k IsWeb
r ub
is Playing
Ġs im
ren ame
ĠB anner
Key Type
Ġg ithub
ĠL IM
Ġ4 853
iv ia
ĠEx pansion
we i
Service Method
Ġshow ModalBottomSheet
AL E
first Match
Ġj ava
GoogleCloud Talent
ĠImage Source
Ġlast Date
Storage Service
äº ¤
ĠEdit or
MMM d
çĽ ®
ĠWeather Icons
ĠCar ousel
è°ĥ çĶ¨
eff icient
ĠInternet Address
FIR ST
ĠSliverGridDelegateWith FixedCrossAxisCount
GoogleCloudTalent V
? (
B log
O s
T icker
W F
c H
c j
d X
g uid
s im
u an
w il
Ġ 74
Ġc ss
Ġc ipher
de partment
Ġ[ ])
ĠM utable
ĠP II
Ġint Type
Ġ5 78
Tr aining
type Name
20 22
Ġpar sing
Number Of
66 0
auth enticate
OR TED
Ġ00 24
do es
98 4
å® Į
pos able
Spec ific
æĪ ĸ
Ġ... [
ĠCupertino PageRoute
Activity Type
Interface Type
Fore ground
clus ion
Ġavatar Url
íķ ĺ
Lex icon
Rout ing
ç¨ ĭ
DEFIN ED
. *
5 16
M en
M utable
R P
T ake
V B
W as
Z ERO
g ap
p w
ê ²
Ŀ å§ĭ
or ama
ol on
In EventStore
Ġd ic
ab ytes
Ġm en
Ġm irror
(' ',
Ġde clarations
Ġun less
Ġnot Found
Ġtype Parameters
ĠW atch
88 6
Web hook
ven ance
Sl iders
TestScript Param
è® ¡
Ġar range
æŀ Ħ
Ġmov es
wiki pedia
Ansi Color
æ² ¡
B FF
G Input
J ump
Q z
Q Lm
T AG
b ing
ç ¾
an u
Ġv isual
end if
De p
Ġl ng
Ġde livery
Al c
om i
image File
ĠDe corated
bl ank
Le ast
Route Information
vo tes
read AsBytes
time zone
Dis count
88 9
Ġus ually
Login State
ĉĉĉĉ ĉĉĉ
TestScript Metadata
ĠComp ilationUnit
Arrow Down
æĪĲ åĬŁ
Ġexperimental Element
ĠFractional Offset
ĠStructured Serializer
6 15
G auge
R ANGE
V isual
b t
f ab
g lob
w ill
Ġ ÑĥÐ
ar able
Ġf ade
ri se
add Method
Ġr ank
Ġh ar
li x
Ġbuild List
Ġme an
ĠH KT
Ġdata List
image Path
__ ]}
17 1
not ated
Ġat tempt
sign Up
Ġpre cision
37 1
amer as
09 6
annot ating
AT IN
Contact Detail
lined Button
å¤ ©
CON ST
CL UD
Ġ000 9
ALL Y
4444 5
BytesMixed x
jud ication
, !
C andle
P P
S O
S ocial
r er
w rit
ing TextInputFormatter
me an
de st
as accelerator
Ġre cur
ĠS hell
Ġ" ;
Ġ* =
work er
LE F
mark down
Format Exception
Mark ers
EC TED
Ġopen ed
EX P
Cn Q
Do ctor
KaWY od
Ġwait ing
ategor ia
Sa asaccelerator
Providers V
ĠHash Map
Management ProvidersV
getElement ById
Saasaccelerator ManagementProvidersV
, {
/ ";
0 86
E i
E thereum
F bGVtZW
P et
c T
k k
l ar
n ickname
è ±
é Ľ
re vision
re achable
get Elements
Ġp Value
Ġp ast
Re load
Ġis D
ĠB ank
Ġpro pagated
Bar code
Ġ6 8
state ment
min Height
not Found
Future Or
Dis posed
parent Data
Cl aim
49 2
ĠK UU
ĠK HM
Ġtheme Mode
Mo jo
çĶ ±
åħ ¶
ĠDO LLAR
ĠkB mapMapFluttifyChannel
Ġhold s
ĠPb List
ĠDiagnost ic
ĠCAM NUC
AVAIL ABLE
ĠKUU H
ĠKHM ER
m ontserrat
r tc
t utorial
on o
in ventory
me ster
Ġb as
Ġp ack
Ġs alt
Key Name
sh uffle
vid es
app Name
({ "
ĠState s
Ġen crypted
Ext ended
start Pos
ĠApp end
60 3
Ġ00 25
be at
xff ffffff
ä¸ ī
48 2
Ġauth enticated
Ġ40 26
Web GL
ãĤ Ĭ
Ġcl aim
06 2
Ġpass Union
Ġread Only
ĠLogin State
ĠSer vices
âĸ ¼
Geo Fence
curren ces
ĠFind er
lyrics Id
Ġ## #
UserEvent sResponse
5 18
6 12
B ur
D og
N AM
R ay
_ (
b illing
r t
r ar
ig uous
Ġs ut
Ġin line
ĠM ay
Ġl on
ĠO ptim
Ch aracters
Ġme ant
Ġdata Source
(_ $_
ĠV ehicle
ph ase
Ġadd resses
44 3
Comm its
trans actions
Ġac cepted
ĠCh ip
58 4
ĠScreen Adaper
lec ion
Argument List
Ġmon ey
Mac OS
So uth
ĠRest aurant
amaz on
ĠRELATION SH
s coped
x o
Ú ¯
Ġc redit
ĠM ac
Ġde ep
ĠB ig
Data List
Ġr adio
Ġh ot
(" ",
Ġg ive
ĠI List
Ġpro cedure
Ġ5 79
wh o
Ġch oose
min i
77 2
write AsString
ĠUser Profile
88 7
method Name
à¤ ª
ĠAuth State
Ġq params
dXJu IE
Ðº Ð°
è¾ ¹
KaWY o
ĠPri vate
micro soft
ĠCollection Reference
ELE MENT
Ġassignment s
RequestFinished Info
* (
C S
G est
P KCS
Y j
d rate
f ingerprint
p ipe
Ã ¨
Ġp t
Ġp lot
Ġs nackBar
Ġs imilar
ist an
text Controller
am an
ĠM ed
ĠP L
ve c
ĠB us
Ġint ent
ĠR untime
pro jection
Ġal ternate
uc ation
ĠPro perties
Ġass ume
Ġshow ing
Ġ00 30
Ġuse Context
Base Url
ĠK O
59 5
ĠAd min
76 3
spec ific
custom erId
invoke API
è¯ ķ
ä½ ł
PL AY
à¥ ĩ
free ze
Ġ-- >
bul let
mptom s
ëĭ Ī
night ly
Ġfi xture
çĬ¶ æĢģ
" $
, );
0 64
A z
D L
H ints
K il
S olution
p ix
Ġ iv
Ġc he
es C
Ġst udy
ot ta
ĠP an
Pro cedure
ine a
ĠL ive
ĠL TE
Ġshow Toast
ĠCon firm
Ġcode c
Ġ00 23
90 6
Ġtrans port
37 3
ãĤ ¤
cover age
do ctor
ĠCreate d
Ġscreen shot
Pop ular
Work ing
Ġtrack ing
Ori ent
implicitRules Element
æĭ ©
ĠAst Factory
Alc atel
2 10
A QU
G cs
T ur
g iven
Ø ©
Ġ ends
it a
ig hest
Ġb ill
im iter
ĠE l
Ġget ting
name Translations
ak ers
Ġ5 80
cor ner
Comm unication
Stream Provider
90 4
æľ ª
success ful
äº ĭ
DI TION
interface Type
Ġunknown Value
Go al
Ġcrane Eat
éĢī æĭ©
çī Ī
ĠPb FieldType
æĽ´ æĸ°
plug ins
CATE L
ĠCour se
RWxlbWVud Dp
Ġfort nightly
D ice
T icket
V ID
Y z
] !
b irth
f x
m at
é ª
ì ĭ
Ľ å»º
re cent
st ores
Ġ} */
00 24
Ġv en
Ġnull ability
ĠL iteral
app bar
ĠWidget Builder
ĠIn k
ĠIn sert
ink it
14 1
Or g
55 55
AL CATEL
max Length
Struct AlignmentInt
find RenderObject
Ġconfig ure
âĢ Ŀ
Drag ging
Load Success
FI ER
Global Key
Col lector
FO UND
ĠTH AI
mic olon
agon al
GgHJGgHJGgHJGgHJGgHJGgHJGgHJGgHJGgHJGgHJGgHJGgHJGgHJGgHJGgHJGgHJGgHJGgHJGgHJGgHJGgHJGgHJGgHJGgHJGgHJGgHJGgHJGgHJGgHJGgHJGgHJGgHJ GgHJGgHJGgHJGgHJGgHJGgHJGgHJGgHJGgHJGgHJGgHJGgHJGgHJGgHJGgHJGgHJGgHJGgHJGgHJGgHJGgHJGgHJGgHJGgHJGgHJGgHJGgHJGgHJGgHJGgHJGgHJGgHJ
manage ment
erv ation
ĠWorkout ActivityType
8 66
B w
E p
E v
G Y
] !,
a udit
b ut
ĉ Ġ
al locate
ur ity
get Default
ed By
Ġchild Count
ĠA LEF
Ġde velopment
ail er
ref lect
ĠH andler
ĠH EB
Item Builder
64 3
scri ber
dis connect
ĠAn sw
OR K
work space
main der
Ref lector
ĠK AI
lip se
Ġz ip
Ġ'${ _
è¯ ¯
Fill IconData
ĠIN VALID
å¤ Ħ
Ġdoc s
Ġcre ator
wi per
Pages Num
ĠIndex ed
oYSxi LG
ĠExtension Registry
ĠEva FillIconData
Ġfour th
Predefined State
ĠHEB REW
7 18
F d
M ODE
R C
Y n
b ooth
c gl
f loating
Ñ Ħ
â Ĥ
// ----------------------------------------------------------------
is a
he at
Res cue
po ser
24 1
Ġit alic
38 2
>? >
ma z
check er
Is Ik
Ġper formed
56 3
lex er
card Color
xy z
CON STRUCTOR
Ck K
visible ForTesting
éĢļ çŁ¥
5 000000000
O per
k w
at ural
al ready
me al
is ing
() })
set Signed
Ġt ax
Ġde tected
ĠSt at
av en
Field Submitted
Ġlist a
Change Notifier
index Where
aint enance
39 3
screen Height
comp ose
Comp o
Ġrun ner
jo hn
Bl ank
Detail State
bm i
cr ud
Outline IconData
WN D
Tri angle
Country Flags
spe aker
Ġedge s
Sto ck
Accessor Element
Ġsm allest
Ġbot swana
Ven ue
lik es
ĠEva OutlineIconData
easeIn Out
ìĹ Ĳ
kc ak
setSigned Int
% .
A h
F ast
M Q
S UP
} ));
æ °
ge olocator
Ġc ubit
Ġ// ----------------------------------------------------------------
to Radi
text EditingController
ĠF reezed
ot icon
ĠM ouse
De ferred
Ġg uid
Tr ailing
ER Y
op he
75 3
74 2
Sign ing
Ġfill Geometry
Store Base
Part y
EM BER
Ġpackage Name
ĠStack Fit
register ed
96 7
Nested Irregular
Ġq r
Ġbound ary
scaffold BackgroundColor
Ġgu ar
Organ izations
ç¬ ¦
ĠdbDate Updated
ĠdbDate Created
ĠBO OL
4 27
H ave
T i
b C
f ocused
r ac
re es
te ctor
de termin
Ġre commended
ĠS izes
un is
Ġ// ////////////////////////////////////////////////////////////////
Ġo tp
Ġm s
Ġco in
ĠR ating
Ġg ranted
Error Type
Ġch anging
Change Builder
From Map
28 1
49 7
89 3
havi our
ise ase
Light Color
gu ard
Car ousel
Ġel apsed
ĠAC CENT
Ġtap ped
Ġscaffold Key
OPER ATOR
Ġbus iness
Dat um
Ġbelong s
__]} ]);
D U
M B
Z U
g rocery
get Size
get Range
Ġp p
ex am
ĠR ound
arg Fields
Ġtest Stack
Ġse ems
error Reporter
&& !
Ad ditional
Ġle ave
bo ilerplate
Ġwhen ever
Ġmin or
54 6
Ġpl ain
sk i
Ġplay ers
åĲ Ī
Ġdevice Id
dev tools
Mon day
Ġfull screen
Ln h
Corner F
SER VER
Ġresolve Test
direct ive
pear ance
ç±» åŀĭ
ĠRefresh Indicator
herit ance
Cod ing
Ven ues
mak u
0 35
G U
L IGHT
R m
S id
W A
g map
i vers
i versal
r and
s qu
Ġc ycle
Ġc losure
se ct
de coded
ul k
ap es
Ġs u
ĠC lear
am i
ext ent
Ġw ind
ĠO N
Size Text
ud ule
Ġan imal
Ġdata Table
iv a
Date Range
15 1
lat o
Ġmap ped
ĠÐ Ł
lib raries
Dis cover
Stream ing
main level
Callback s
47 3
Ġlocal ization
ĠOut line
å® ½
Ġfl ush
Ġman ually
RI TE
ĠField Node
æł ¼
âĸ ²
ograph y
ĠSplash Screen
bri ef
rol led
Ġautoc orrect
ITI AL
) })
/ ';
4 26
B on
C a
F light
H lw
K i
Q m
f use
l ife
m imeType
s qrt
} ","
Ġ ancestor
Ġ( -
ĠS ince
to Named
con sumer
ĠC SS
set Preferred
Re ached
Re cipes
ch ip
ĠF ire
ĠF ixed
ren ch
rom ax
Pro mpt
item Builder
Un ary
Ġle x
55 3
rid ay
69 3
xff A
Struct With
90 7
36 2
09 4
Ð» Ð¸
cast le
Off stage
HE IGHT
cip her
éĢ ł
Register ed
ĠMod ular
Firebase User
Head line
åĽŀ è°ĥ
Documents Directory
anc ial
Ġconsider ed
tit an
) ":
7 20
C UR
G cpUserAccessBinding
M ESSAGE
N s
P oly
Y GNode
Z ip
d v
d uplicate
j u
n ational
in ical
te e
ĠS ur
ĠS coped
get Map
ĠT OUCH
Con version
": ["
Se q
use case
ug ar
ĠSc hema
Ġ00 7
74 3
Ġtrans actions
ãĤ ī
Table s
Ġcl s
send Port
Ġhandle d
AG ES
QU I
QU AR
Ġman ual
Ġret Value
Ġ). .
}/ ${
9999 9999
Brightness DeviceTrait
aser ate
Ġnavigate To
Ġpigeon Map
BatteryLevel DeviceTrait
D EN
O Auth
S u
f av
} ''',
§ Ģ
è ¶
te en
ig en
Ġcon cept
Ġst din
Ġin herited
Ġin coming
Ġt s
De ps
ĠE dge
Ap pointment
cor rection
ĠIn formation
ne ar
Font Weight
Ġimp licit
ĠMessage Type
Ġob server
exp iry
... ');
Ġpri or
Song s
Ġpe er
ĠAC UTE
éĩ Į
ĠIs ar
Ġcopyright Element
Pull Request
ApQyApQyApQyApQy ApQyApQyApQyApQy
ĠEvaluation Complexity
ulner ability
ĠFreezed Generator
' ll
/ "),
4 18
C anceled
D ist
[ \
d ri
h ow
p cmV
r tl
s ports
} $
ì ķ
le xeme
se ek
Ġb its
() ]
ĠP rom
Ġde st
Pro jection
To Absent
ĠG u
ange l
Sc enario
app State
data Type
ĠW ORD
Ġ40 30
Mo unt
IT S
Named Database
Player State
Ð¾Ð ¶
IM E
Ġdi gest
ĠTable Field
Ind ices
Ð¾Ð» ÑĮ
ĠSerializ ers
Ġhero Tag
ĠGen re
> ).
D de
F old
I ce
O h
P k
V S
w r
in box
te acher
Ġre presented
ĠT oggle
ment o
Ġd imension
Ġ1 92
List Data
Re maining
ĠF uchsia
qu ation
Ġis InstanceOf
Ġ2 000
Ġ2 61
li er
vent ion
ĠI ss
Controller Base
user Info
User Name
14 28
Index es
Ġuser ID
page size
Ġadd s
ãģ Ĥ
Material Localizations
Dis k
Ġtry ing
num bers
à¸ ¡
illi second
client s
Ġfirst Date
Ġpl aces
draw Line
Ġconstr uct
å¤ ´
ÐµÐ ´
æĺ İ
Even Bigger
ĠRead Req
Ġhand lers
Ġsup plied
SV G
Ġoccur red
Vertex Attrib
ENTI FIER
encry pt
éĶĻ è¯¯
NestedIrregular EvenBigger
' d
) }',
0 55
6 34
8 24
C z
C ED
D amage
G Update
m x
{ }
Ì ģ
æ Ł¥
Ġ il
or rent
ac er
Ġp acket
Ġa mb
Ġr t
Color Scheme
Sh ip
Field Name
Builder Func
ĠRe place
Ġthrow ing
Log Config
style d
Ð¾ Ñģ
Stream Subscription
comp ress
à¸ ¢
ik an
Ġsign Up
man ifest
46 7
OP Y
Ġlanguage Code
SH A
Ġap pe
Camera Update
CON DITION
ĠField s
ME THOD
After Callback
Ġsection s
pick Image
Den om
ãģĻ ãĤĭ
Aff inity
ĠERR OR
TIT LE
ĠRELATIONSH IPS
M VC
Q h
R TC
k in
s orted
s nackBar
u o
ì Ĭ
en coding
is c
as BrightnessDeviceTrait
as BatteryLevelDeviceTrait
ad og
Ġ// _
Ġs copes
Ġ" \$
ĠT otal
Type def
Ġon FieldSubmitted
fl y
und ing
Text Column
Par sing
ĠIn teger
Ro les
Test Widget
sp inkit
dis cover
44 2
Ġcode Element
Dis h
88 4
Detail Screen
br ick
06 3
ĠFlutter Error
Ð¾Ð º
Ġcallback s
Process Manager
ĠStr oke
complete Error
expression s
Secret Key
çĽ ´
KaWY oc
spe ech
ĠWH ERE
Ãµ es
( ?
2 20
2 77
> ')),
A ck
N Y
X y
h it
l ands
Ġ čĊ
tr ailing
In side
Ġst ub
ull i
Ġm aster
Con trib
pro kit
ust ed
url s
Input s
RE F
ho od
48 3
annot ate
Login Page
Apigee Api
off er
Hash Code
example s
Ġconstructor s
ABLE D
ĠCupertino Button
Ġtw BorderColor
ĠHow ever
ĠAnsw er
0 31
6 19
A mb
M V
N w
O WN
X F
_ ;
c lo
s hell
ë ¥
ł éĻ¤
th reshold
te t
int ent
Ġget Application
ĠD ot
Ġg rey
ph ysical
serv atory
request ed
Ġ11 00
Dis able
Scroll Offset
Start Behavior
36 3
Format s
Command s
Ġlocal es
Hash Map
Job s
Ġprocess Manager
Ġapplication s
ĠAxis Direction
ĠExt ended
COM Object
PRO C
GoogleRpc Status
0 75
C tx
P g
P TION
P AY
T im
d ater
h uman
k r
l an
in Seconds
al d
Ġ{ {
is First
ro ut
Ġn orm
Ġl i
Ġl imited
Error State
inter ceptors
Ġch oices
Status Enum
Ġ20 4
Count down
OD Y
max ScrollExtent
Stream s
Ġ40 4
ĠAlignment Directional
xFF E
ĠEvent s
Jo hn
Word Type
ĠFl ash
>() (
Non Nullable
lec tr
nb sp
Ġhigh er
KQ pyZXR
Ð¡ ÑĢÐµÐ´Ð½ÑıÑı
":[ {"
B in
H yp
H ardware
M igration
P otential
V h
p referred
æ Ĵ
up grade
ĠF amily
Ġin serted
ord inal
ĠB ad
Ġ3 75
Ġen ough
AR NING
main Color
ĠUser s
Comp ose
prec ation
ĠTrans lations
Void Callback
ĠPage Route
Question naire
DI R
è® °
debug FillProperties
Cn JldHVybiB
Ġflex ible
Camera Position
ĠWeb View
ua wei
Ġscaffold BackgroundColor
trod uction
Den ied
Hist ogram
Ŀå§ĭ åĮĸ
0 48
B V
B s
F b
I gnore
M K
P rediction
S aint
Z H
r ist
er g
Ġc ql
de gree
ro us
Ġb old
Ġp redicate
In Library
ch aracters
Ġin vite
Type Formal
User Project
Client Method
Th ird
80 2
80 3
iable Generic
Ġnum Of
Comp ile
Default values
åĪ Ļ
hy dro
ten ant
room Id
ĠCircle Border
Ġproto Name
NU LL
ĠConstruct s
ĠonGenerate Route
visional UserProject
F s
S ys
d z
x String
} `
è Ĭ
Ĺ ı
un ion
Ġs lot
ĠC alculator
() `
In finity
od ing
op aque
ON T
ID s
Mode s
39 2
Ġ15 8
Ġ7 6
Comp osite
ãĤ ¯
Ab solute
Ġpost er
æľ į
track s
CON T
Ðº Ð¸
900 7199254740991
Op code
Ġrest aurant
æī ĭ
sample s
stit ute
Ġschedule d
Swid Instant
rim son
0 28
D ots
G RO
O wn
x Axis
Ġf ingerprint
ĠS SH
Ġ1 90
set Sp
Ġst ores
Re action
String To
ĠP olyline
ĠD rop
mo s
En ergy
Time OfDay
Un initialized
ank s
sp rite
Ġapp s
Call Super
part icipant
not Null
Function Expression
Ġ00 28
40 3
dic om
Ġdate s
89 7
ins k
Ġplay ing
Rate Type
Binding s
ĠZ one
ĠDefault TextStyle
ÐµÐ ¹
graph ics
Ä± n
lec ular
Pub spec
ĠPermission Status
strument ation
Ġ216 69
Roster Position
Orient ations
AQU OS
0 32
5 45
7 26
A cl
F a
M ine
P aper
Y Time
c rossAxisAlignment
l Z
t iming
v s
x b
or er
Ġs uite
con flict
ĠD ASH
av y
Ġun set
Ġbe acon
By Value
file Id
Ġ| =
Ġsub Title
Bloc Provider
Inter est
ino is
Double Tap
green Accent
ĠsetUp All
ifact s
Fix es
ĠÐ¾ ÑĤ
SY NO
æŃ £
ĠDioError Type
çľ ĭ
Gest ures
6 17
; ');
> ())
E K
] },
f requency
k ol
o ct
r sa
s uite
se gment
tr ash
Ġre start
Ġre moving
ac cepted
ap py
ĠP res
Ġon Success
(" _
sc heduler
ĠO UT
Ġarg Results
Ġ8 8
uc es
Ac cepted
pres enter
pri m
Ġimage Provider
Ġassert No
LE V
ĠSh adow
Table t
Ġ201 2
Ġdebug FillProperties
Ġanimation Duration
hy b
Drag gable
Ġchannel s
ship s
Load More
Ġlet ters
record FB
Popup Menu
dig it
coll apsed
authors FB
quad ratic
ĠVerification Meta
ĠSliverChild BuilderDelegate
eXBlPX sK
5 13
6 14
6 22
H u
Q W
k ub
p reference
t icker
Ġ 78
on Background
th read
Ġs af
Ġ1 160
Re views
qu ick
De leg
ĠB ubble
Ġex pense
Ġbuild Step
ard en
str icted
Style Get
inter est
Item Widget
Ġresult ing
Ar m
ĠPo s
34 56
35 1
65 3
Out side
Ġmin i
à¤ Ĺ
76 2
Match ing
KX tp
ĠFirebase User
Operation Request
ĠData Type
chart State
Ġchar s
CON F
process or
tile s
Song book
Mov es
Ġphoto Url
ĠStop watch
aci ente
ĠPur chase
ë¡ ľ
. ')
6 16
a Int
b gColor
d h
y t
Ġ ack
as semb
get Type
Ġs paces
Ġcon sumer
Ġt v
Ġde fining
ĠB ind
Field Handle
Message Codec
User Role
Object Key
Ġval or
light Face
39 1
Ġstr ategy
AC ING
xff E
My Class
Ġcomp uted
Ġpart icle
thin Face
Ñģ ÑĢÐµÐ´Ð½ÑıÑı
encode Component
country Code
ĠInt Ptr
ĠPage Transition
Fl avor
pub Key
Ġfl ash
Ġsystem s
Submit ting
ĠBar code
ĠBy tes
=[ ],
ç§ »
è´ ¥
Ġexpl ain
Ġcal loc
jdGlvbihhLG Ipe
^{ __
4 75
4 68
8 68
B gColor
M nemonic
R z
re views
ĠS uggest
Ġp ump
ab it
el f
ri o
Key Event
ĠU sing
An alyze
Un read
Image Data
Ġ20 60
min or
34 1
Api Response
Ġ00 29
AU TH
26 3
Start Date
Ġdate Format
google SignIn
Ġcomm a
Mod ification
sent iment
å¼ Ĥ
æł ·
Break point
Ġinterface Type
must CallSuper
ĠBlue tooth
å¤± è´¥
CLUD ING
) ");
6 37
? >[
? >>
H on
M Time
e poch
l b
s ms
w ie
Ð Ĳ
st ories
Ġc ircular
Ġc uba
Ġre corded
Ġ" ),
Ġ" }",
ver b
Ġw ent
and atory
po i
ĠL aunch
ib sons
ĠN ormal
Field Element
Tr a
ĠH y
ĠH WND
Ġtext EditingController
Not Allowed
Event Handler
light Circle
body Bytes
Base Model
ĠJ UNG
comp o
Animation Duration
ãĤ ¢
Package Resource
thin Circle
primary Key
86 7
sl ice
Connection s
draw ing
Book ings
Ġtemp erature
pr inter
PL US
ĠSub ject
bit Card
SER VICE
ĠFI LLER
Ġreg ions
ĠSec ret
BytesNestedInt x
ĠonPage Changed
ibsons Form
ĠJUNG SEONG
' });
9 25
C ampaign
M AL
T Protocol
i ro
z sign
Ĳ ľ
or ical
Ġc ut
Ġf raction
Ġre vision
ĠS ocial
Ġp ipeline
to Utc
Ġd ifference
am at
ĠP references
ĠP ending
Ġt t
Co ok
from Height
Ġjson String
ber ry
ĠDe partment
Test AllTypes
Ġ20 22
"] [
AL S
([ ]);
Ġob servable
Profile Id
Part icipants
vis ual
Ġpass Int
Category Id
Ø§ Ùħ
Pop pins
Ġ80 596
éĢ ģ
output s
Ġbu y
Ġwindow s
Car tesian
ĠWork er
include IfNull
front end
Ð°ÑĤ ÑĮ
4 25
M R
X V
h bW
Ġ ViewModel
() },
Ġo u
Ġm uch
ĠM AX
ĠP DF
Ġ2 10
ĠB UT
Ġ< :
ĠD ark
map ped
Of Exact
78 1
trans lations
Ġfield ID
ov a
Ġload s
ĠAd apt
Exp ired
Ġmod ifiers
Server Error
Read GroupSet
TER S
ĠVal ues
ĠCH O
cp u
thes ized
Ġregist ration
Ġtx n
Ġinstruction s
4 65
5 64
6 36
S ale
f m
g d
g id
z i
Ġ archive
in tro
st rength
ĠS wiper
ĠC lock
ĠT weet
Ġ1 24
el ly
ĠF actory
Ġin jector
De ad
ĠText Baseline
Ġco pies
om inator
ĠI m
gle w
ĠU SE
Ġ5 75
ĠEx planationOfBenefit
ach ing
Ġadd r
Lo an
Search Bar
AC H
Dis missed
Ġform Data
Line Icons
Ġtrans formation
09 7
à¤ ¬
Sl ug
Ġpass Uint
mall Sub
IL k
Ġwork er
Work space
stat istics
exec utable
Song Lyric
Ġsong book
Ġgo ing
initialize App
Ġcondition al
Cert ainty
Ġiterable Of
Assert ionError
regist ry
ĠPr act
ĠAut omatic
uKGEsY il
Ġproper ly
Por trait
ĠFa Icon
ĠVAL UE
B S
C lo
D Y
M ake
X L
r b
r as
s leep
Ġe cdsa
if th
St udio
ch opper
ĠR ule
._ ({
An alyzer
Ġcreate Time
Message Type
App LifecycleState
ĠW ave
000 8
response s
ĠAn notation
ĠCon versation
Ġ9 83
Ġtime line
ray er
ĠJ ONG
Body State
Ð» Ñı
Platform Density
Level s
theme Mode
Bottom Nav
Ġdisplay s
Hash es
Ġbar code
YX Rl
ĠWeb GL
Pr act
White space
Ġenter ed
Ġconnect ivity
Ġcomb ination
å¹ ¶
Ġrelev ance
Engl ish
ĠbelarusM insk
ĠAttach ment
âĸ¼ âĸ¼
toRadi xString
ĠJONG SEONG
5 15
7 32
7 68
9 24
L inux
Ä į
Ġc b
Ġf requency
ĠC ast
set Attribute
ve h
Ex plicit
Qu ick
Ġarg Parser
Of Month
Route Path
light Square
Group Id
27 1
Ġdo ing
09 5
uni versal
Ġinter est
ĠAs sets
ĠGlobal ObjectKey
Ġstream s
98 3
Ġproperty Name
äº Į
CL AM
PL IED
ĠLe g
Ġsup posed
press ure
Ġhover Color
Wait ing
çķ Į
æĻ ¯
Ġ"../../ ../
Mic romax
æ²¡ æľī
ĠCHO SEONG
% ;
) });
6 33
C losing
N i
T ro
f riends
m ul
v Table
Ġ escape
en velope
is Visible
as Uint
ĠS QL
Ġp alette
Ġs imul
Re commend
add Flag
ord an
ss l
ĠG TM
Ap k
ĠN ow
Ġan alyzer
cor al
Ġtext Controller
App Widget
Image Path
Ġcheck box
Loading State
thin Square
Ġinter faces
bn b
stream s
Http Headers
Job sRequest
Ġrender ing
Ġthrows ArgumentError
Sort By
ĠValid ator
Ġaccept s
ìĿ ĺ
ĠAt tribute
sur vey
confirm ation
Ġtrigger ed
ListModel Domain
0 36
4 64
6 18
D OM
M IT
T el
T ail
c rane
l ime
on Item
me eting
get Name
ĠC atalog
if def
Ġas pect
ĠP reference
ĠP olygon
Ġl ife
ire cted
Pro posal
Build ers
ex act
ĠRe trie
Ġ10 6
Material Select
xff B
xff ff
Ġ12 1
Ġview s
next Page
AS K
Ġ'/ ',
à¤ µ
ãĥ ĥ
Ġimport ant
Ø§ ÛĮ
Properties Builder
ĠLo aded
fr ugal
audio Player
Board ing
Ġequal ity
æİ ¨
ef yr
å± ŀ
ä¿ Ŀ
lm KH
fid l
Fil ename
ĠcompareTo Source
è± ¡
unis ia
9 85
R A
V ulnerability
b j
d ns
h aving
p ure
s ys
s ensor
x A
{ \
é Ł
Ġ arch
get Device
Ġb roadcast
ĠC lipboard
Ġm ar
end template
um inance
Ġis Last
Ġget ters
Data Table
Ġ? ',
Ġse gments
Button Color
Ġ8 2
Ġcurrent State
LE W
//////// //
place ment
ĠGet x
") [
Local DataSource
ĠMediaQuery Data
ven ience
Wh at
åı ª
Ġph ysical
/* <
Spec ification
Tree Node
255 19
Git Hub
Ġcert ificate
Ġwho le
sen sitive
stri pe
æĦ ı
0 44
4 16
C b
h ack
Ñ ĸ
an alyze
de scriptor
() }");
ĠT icket
set Height
List Bloc
ri ed
ĠM Sc
ĠP atient
Ġ2 34
(" {"
ĠN et
An ti
ĠRe moves
wh at
33 1
Log icalKeyboardKey
Client Id
Ġ9 3
ating System
check Item
ES H
Document ation
ll ab
ĠLog ging
Valid ators
Ġ] ';
ãĥ ī
US H
ĠValue Listenable
IM AGE
Ġproduct Id
Import s
ĠPl ugin
KGE s
Mon o
Ġnote Number
ä¹ Ī
ĠST ATE
åĵ ģ
éª Į
4 29
4 85
9 28
C ent
F o
G b
G lyph
M P
M is
p olyline
w g
on Mouse
re pos
ac a
es p
Ġth ous
ig ibility
Ġs ampl
In to
Ġd u
Widget OfExact
pt ime
De stinations
Ġde pending
Ġex pose
ĠD omain
order Id
ĠG ender
Ap I
ĠL ATIN
ĠI AM
py m
ĠH ere
ĠIn crement
Ar r
lay ers
Ġ6 15
Ġ6 28
ST A
Ġdefault sTo
Des ire
gr ad
à¸ ķ
Ġpres enter
ĠHttp Request
buildCounter List
draw Rect
UL TI
ĠCOM MA
Float Struct
à¥ ĭ
Ġparsed Json
Ġissue d
Cmlm KG
Ġmon itor
ĠDef ine
ĠSec urity
RES UL
adaptive PlatformDensity
Dan maku
ypo graphy
ĠgetApplication DocumentsDirectory
WidgetOfExact Type
! ';
) `
4 12
D ue
H or
I TED
R PC
S ending
T AB
r in
u ate
v ile
st icker
ol o
get Time
un lock
ĠC ross
Ġd ashboard
List FromJson
Ġget And
Ġres pect
ĠG AG
ard s
back drop
Me ter
Ġimp orted
ĠCon dition
write Node
Ġac cent
OT P
ĠTime out
Ġsp rite
Ġoutput s
Press ure
etter Player
ĠField Value
Ġbook ing
Ġ]) ));
ĠFade In
ĠBr n
Ġexact ly
Lik ed
é«ĺ åº¦
rous sel
! '),
4 99
B UT
F U
] ');
i ator
l r
s liver
Ð Ľ
Ġ uint
in vert
en tes
th rift
tr affic
ue EI
art ik
con nector
ĠC rop
Ġd uplicate
ĠF r
Ġt d
pl ant
Data store
ĠD stu
Ġh ad
ĠList s
sc aling
ĠG iven
ud ies
ock ed
-------- --
ml ink
we e
ĠW ATCH
enc r
dis h
Ġcheck GoogleCloudRetailV
Ġro Event
Sub scribe
78 3
ãģ ĳ
68 2
Ġassert ErrorsInCode
Ġover view
56 29
Dete cted
Ver ifier
Ge olocation
Nested Enum
)} ':'
dark Theme
]= (
pr act
catch es
launch URL
PRE FIX
åıĸ æ¶Ī
Dom Name
eXBl b
ĠSk ip
oper and
Ġca used
appro val
KGUEKGUEKGUEKGUEKGUEKGUEKGUEKGUEKGUEKGUEKGUEKGUEKGUEKGUEKGUEKGUEKGUEKGUEKGUEKGUEKGUEKGUEKGUEKGUEKGUEKGUEKGUEKGUEKGUEKGUEKGUEKGUE KGUEKGUEKGUEKGUEKGUEKGUEKGUEKGUEKGUEKGUEKGUEKGUEKGUEKGUEKGUEKGUEKGUEKGUEKGUEKGUEKGUEKGUEKGUEKGUEKGUEKGUEKGUEKGUEKGUEKGUEKGUEKGUE
TestIamPermission sResponse
?' ${
è§Ĩ é¢ĳ
VertexAttrib L
vTable Get
0 65
< =
G ig
S now
V A
d n
h ave
w rong
x j
| \
Ġ æĺ¯åĲ¦
ĠS pin
Ġb attery
Ġs imply
Ġa ir
State Changed
Ġon Send
Ġco ord
Ġr c
'); }
ib ling
ĠN S
Response ToJson
par agraph
77 1
ĠMain Page
Ġstart Pos
ĠK e
à¸ ĩ
Label Style
56 1
?, ?,
05 7
ĠData Column
ä» ¬
Ġvertical Direction
throw OnChange
Ġbegin ning
3333 33
mploy ees
Launch er
reply Map
ĠTH IS
hem as
Split ter
Rank ing
à¥Ģ ",
ĠPOINT ING
" ');
' m
0 26
B T
C li
N earby
R M
V V
b ra
m ultipart
s u
s Cn
Ġ Ùħ
on etic
st ill
Ġm atched
ĠB Sc
Ġco urses
Value Changed
Ġse en
IN SERT
Ad just
Me al
Ġor g
Ġ8 9
Or iginal
ĠPro vides
let ch
point ments
Scroll ing
med ical
jo urnal
ET ER
Ġlast Review
Act ivate
åı £
TR AN
ĠY outube
ĠHome State
ĠOut linedButton
äº «
ĠComp ile
ĠCupertino Colors
Ġtransition Duration
micro seconds
YXIg dD
enclosing Class
Ġiso Code
MIS SING
ĠAUT O
ĠAUT OM
Ow og
ĠFore ign
PASS WORD
ĠEvidence Variable
âĸ² âĸ²
" !==
0 21
6 72
> `
I List
M n
M ay
P ipeline
i ka
m as
n ick
s Cl
v b
è Ī
re cogn
te ams
id le
Ġ} ());
ur ther
Ġre commend
ĠC oll
Ġe val
St mt
ĠF ailed
ir on
Ġde scriptor
oo st
Ġon line
Ġon Listen
Se verity
ĠEx ercise
ne utral
Ġuser Repository
dynamic Parameter
ĠMaterial Color
ĠApp le
RE E
Ġ7 1
Inter actor
Inter polation
Ġvalid ated
Comp are
Ġpart y
Web site
Repository Impl
06 1
Order Id
exp iration
Ø§ Ø¯
device Id
Ġlisten ing
Simple Identifier
Html Element
ĠQ r
Non ce
ĠBl ack
å± ı
Ġindic ating
)}, ');}
éĢļ è¿ĩ
Internet Connection
Bezier To
Ġguar ante
dynamicParameter Parser
- \
4 32
8 16
A rena
Q d
c C
e cted
j pmdW
k n
o Json
s Bloc
in el
ing Config
Ġf av
Ġf etched
ro cket
pe l
Ġ" __
In Bytes
Ġd istinct
Ġ[ ](
(' '),
ĠM IN
Ġto gether
ĠText EditingValue
Ġis Set
ĠD om
(" ");
Ġbuild s
ĠG LEW
ĠL ayer
An notate
Item State
ĠEx pense
Not ice
Ro ad
Ġ10 3
Ġlist ed
ph ysics
ĠPro fessor
ãģ £
part icle
Ġ00 21
status Element
event Name
Ġtop ics
Desc ri
ĠK t
Bl endMode
Mark down
Sk K
Ġstack trace
æķ Ī
Ġrange s
Example State
ERR ORS
Ðº Ñģ
Photo s
Ã§ Ãµes
Upper Bound
ÙĪ Ø±
ART IC
å¯ ¼
BR ACKET
Gr ant
Ġshadow s
Schedule d
Food Item
ĠTop ic
ĠFhir DateTime
Ġden ied
LOG IN
CAN CEL
Personal Account
ç³ »
setPreferred Orientations
6 32
9 17
A Q
B ullet
h E
i ap
k es
n N
y castle
ë Ĭ
Ġ ht
Ġ' {"
Ġth reshold
ĠS m
text ScaleFactor
ce an
set Position
Ġm usic
ri es
ĠA mount
ĠP attern
Ġint ended
ĠSt im
En velope
ĠState ment
ĠEdgeInsets Directional
Ġtitle Style
Me mo
Object Type
Ġbody Text
AC TION
Scroll bar
ĠbuildCounter GoogleCloudVideointelligenceV
local es
09 3
Ġmod ification
Access ibility
ĠEn coding
Back Button
Fill er
ĠComp ute
ĠAN GLE
Ġframe s
Ġwant KeepAlive
Ġcountry Code
single Where
Country Code
ĠSl idable
Ġclip per
sm ooth
lightBlue Accent
æ¯ Ķ
ĠExp and
Ġrelev ant
Docs Editable
ĠCre w
F t
j wt
t ions
t ween
è ģ
er ing
er ation
is Success
Ġs izes
Ġs nackbar
if Metageneration
ed Identifier
Ġd st
Ġa ffect
ĠF FF
Ġt ip
Ġget Value
Ġco untries
(" {
sc r
Se m
ĠN ested
user Project
With HttpInfo
Ġname spaces
ip ple
Ġ6 1
null ability
Ġmap FromJson
Ġsub mission
mis c
write AsBytes
max Results
sign in
Pl ain
ĠKey board
à¸ ¥
Ġtheme s
Ġselected Date
Ġinter action
initial Value
fin ix
firebase User
ĠJson Decoder
Ã¡ ng
ĠFl uent
VER IFY
ĠÑģ Ð»
PRE CONDITION
Evidence Certainty
ĠAuto SizeText
isolate Id
ĠAct ive
Ter min
å¾ Ĺ
Ġpair s
ograph ic
Ġdispatch er
Ġlocalizations Delegates
reflective Test
scy xy
veh icle
C lean
E very
I TION
M ult
W est
w heel
y ZW
} ).
re commend
te in
ĠS OL
ĠS upport
Ġp reference
Ġon Resume
li ked
wait For
arg er
Page Controller
em oticon
Ġtitle Element
Ġ6 18
ĠAl so
66 3
di Icons
Ġpre cedence
ĠComple tion
08 7
Ġserializ ation
Ġsp ot
è¯ ¥
ĠForm Field
cc c
ÐµÐ ³
ĠCupertino Icons
Ġrecord ing
Ġmonth s
Rest riction
Face book
è§ £
Ry aW
Edge s
Mac ro
æĭ ī
agent a
ÑĨ Ð¸
Worker Pool
ä½į ç½®
å¥ ½
Asc ending
Associ ation
Compan ion
ç½ ĳ
Ġappe ars
! "),
2 69
H is
M EMBER
N avigate
V is
d an
n Please
il ies
is Enabled
Ġ( `
Ġb illing
if ly
lo o
St icker
ew ay
Ġin correct
Ġon Pointer
ex ercise
Ġg lob
ĠL ike
') }
ĠI mmutable
Ġsh ipping
type Parameter
build Item
log gedIn
part ure
And Count
Ġgroup Name
amp ion
ish list
90 2
Dete ct
Double Value
58 7
Login PageState
Ġwrite ln
err Str
ĠForm Builder
match er
43 70
Ġfollow s
ram mar
Jo ystick
ĠNo tes
ĠSystem UiOverlayStyle
pag ination
pers ist
ategor ie
phab etic
Att endance
Activ ated
bas ename
ĠOct icons
ATIC ALLY
ĠbelarusMinsk Region
ĠAUTOM ATICALLY
ifly tek
6 55
C redit
P lot
R ing
S N
T ABLE
a T
c amel
g Y
an za
il led
is Deleted
is Windows
ic er
Ġs ig
Ġs yn
** :
List Builder
ey J
ĠF ree
um ul
Ġt enant
ĠB rowser
Ġon Press
Ġtr ip
fl are
ex posure
Ch ats
Qu ad
Ġtext Field
ert z
Info s
ĠRe set
Ġch osen
Query Result
uc ers
current Position
return ing
ĠTh en
Th en
Ob servation
vis ited
ats app
CH ECK
Initial ization
Widgets FlutterBinding
Asset Id
QL k
column Name
Ġsystem NavigationBar
Ġar r
UI State
Ġedit able
Release Mode
Ġsong s
PRE F
jdGlvbihh KXt
Er r
assign ed
suggest ion
Audit Config
Broadcast Stream
Ach ievement
cGV vZ
é¦ ĸ
quadratic BezierTo
CLAM ATION
H ierarchy
a Ã§Ã£o
e qu
re a
st rip
Ġc alculator
id Token
get Json
get TopLeft
un selected
Ġn n
Ġp olyline
Ġe le
Ġe as
St reamed
Ġ1 29
Re moval
ĠL int
Controller s
Ġsh ip
IN K
From Ffi
ĠPro cedure
Be acon
valid ators
time Stamp
Ġtime ago
zz zz
ĠX ML
Policy Request
KX JldHVybi
shared Preferences
Ġscroll ing
ĠFor um
Ġdemo Menu
Ġsl ash
Col our
Ġrest riction
strHomeaddress City
strHomeaddress PostCode
å± Ģ
æłĩ é¢ĺ
Ġip sum
ffffff f
ĠstrHomeaddress Live
Ġpuzzle Data
Audit LogConfig
bad Request
å¿ ħ
Tv Show
strHomeaddressLive Year
sequ ent
4 19
5 27
8 32
8 45
? ';
? "),
F latButton
F riends
M ust
P atterns
T d
b irthday
e commerce
h ib
k Y
l uZ
l imited
r v
Ġ' ^
is Locked
ent al
mp has
Ġb n
Ġe tag
Ġm imeType
(' @
Ġis First
Ġ2 13
To Ffi
sh immer
pro vide
Sh ield
ĠRe active
ĠTextStyle s
scri bers
map box
ick y
Event Data
ĠPo kemon
Ġerror Widget
__ _
TE X
On Tap
Ð½ Ñĥ
decode String
ĠUn ion
ĠTest s
Ġrun s
service Name
uni pro
ãĥ ª
draw Circle
Main Page
VER SION
section s
å° ±
Remote Storage
Pay ments
Recogn ized
linked in
@@ @@
è£ ħ
ÈĽ i
ĠEV ENT
QUI RED
ĠRetrie ves
9 75
D Lnh
I OD
P ublisher
R Y
R ail
U SED
a id
h z
m ut
p fSwK
s atisfied
ì Ľ
Ġc trl
an script
Ġf hir
Ġf bb
Ġf utures
is NaN
get Text
ĠC O
ĠC URLY
int Type
Ġ/// [
ĠF rom
im ize
Ġtr i
ĠD istrict
mo or
av ings
Ġun ion
Code AndCount
Qu otes
Ser if
Ġtype Parameter
EN TRY
At tempt
dis k
Ġdis posed
ãģ Ľ
Position al
max Finite
call s
last Index
Document Reference
ll a
Reg ions
46 2
Listen ing
ital ize
å¤ ĸ
UM E
global Position
ĠSign ature
paint ing
sList Response
pol ka
Fetch ing
record s
Face AuthState
Mirror Impl
ĠSp ot
Ġprod uction
big pe
anding Charge
Ġplaylist FB
ĠEX CLAMATION
ĠMin i
Rec order
DO WN
CrossAxis Extent
Ġfast a
ligh ted
Ġign oring
) ";
0 42
4 78
8 29
B ag
H KT
P ink
Q Y
S oft
W rit
m ium
m ultiline
s late
s imul
Â °
å ĥ
Ġ è®¾ç½®
on User
er ated
te ch
Ġs igma
od ina
ĠP UR
ĠE ns
from Hex
---- --
Ġse ll
pb ar
ĠRe al
}) ),
widget WithText
ĠW elcome
== ');
ID US
ãģ ¡
xff D
ĠSe quence
Ut ility
ä¸ İ
mb ast
Double x
LG E
86 3
Back drop
Ġqu ick
Ġmark Needs
é¡ ¹
Puzzle Data
mn emonic
cut s
EEEE d
çŃ ī
Appro ved
Vo jv
kol ah
0 66
4 24
6 13
7 17
9 89
J ack
K o
K ernel
O H
S it
d ar
d imensions
} },
al o
ar ios
ge l
Ġf o
as a
Ġe ff
Ġcon sent
** /
co g
co inter
In finix
ter ms
ew ell
ĠA L
add Child
ĠP ick
ĠP FN
ex tr
arg Results
ĠI F
ill inois
Ġch allenge
Screen shot
ph p
Google Type
Ġimp l
Details Page
Ġgroup By
45 2
mod ifier
Def ined
ĠFirebase Messaging
Pa id
video s
Transition s
Ġprocess or
Ġfollow ed
OfB irth
ĠDevice Info
//////////////////////////////// ////////////////
çº §
Ġreg ard
Prod ucer
Ġ$$ ;
Diagnostic PropertiesBuilder
æ· »åĬł
/ >
0 22
4 74
5 24
? )
B ro
F j
G iven
K F
W RITE
c ription
i per
é ķ
or ant
al eway
an de
is MacOS
as pectRatio
ĠS I
un expected
ad b
Ġn Ã£o
Ġb irth
ist le
lo ose
import Uri
Re minder
add resses
ĠP ol
De ck
De gree
Ġon Select
Ġex ported
fl ake
Ch oo
code Units
enter Text
Ġwidth Factor
cl auses
Ġ8 1
Form als
auth Service
KG Ip
Ġ12 7
85 2
Pl ate
Link Id
ĠappBar Theme
air a
apt ic
TextStyle s
IM PLE
full screen
TestScript Setup
è® ¾
Ġì Ŀ
Fetch er
Ġbook s
Ġbook mark
ĠImp lement
desired Builder
ĠWrap Alignment
reported Builder
sql ite
TestReport Action
moj is
æľį åĬ¡
ĠSOL IDUS
Vojv odina
4 79
5 17
7 75
9 46
A go
D OC
D uplicate
H ow
L TE
N UMBER
R H
w k
~ ~
è Ĺı
Ġc aptured
de al
get Node
Ġp s
Ġe mployee
Ġw ifi
ren ders
Ġis Visible
Res ponsive
Ġon Primary
Ġvar ious
Ġnew File
Name spaced
To Global
Ġres ume
ĠO perator
ĠG R
row se
With Google
)) ))
Ġ6 34
Route Settings
Ġstate ments
no v
TI F
xff e
screen Size
point ycastle
ĠUser Info
Ġtrans lations
xe b
sert ation
Custom Painter
Track s
ĠArg uments
ram id
Ġcancel OnError
ĠTable Row
Remote DataSource
initialize Builder
Ġprod uce
term inal
Aut omatic
roboto Slab
ufficient Permissions
ĠFix Kind
0 24
0 34
5 11
7 25
B est
C G
C alculation
P K
P ast
S park
x p
Ġ ame
tr ain
Ġf all
un subscribe
Ġcon trast
ver e
Ġd ense
ĠF rappe
Ġget Image
Ġon Pause
Ġh w
pro vince
ĠL INT
Se en
64 1
Ġsub class
pri tes
Position ed
Comp liance
method Call
Ġup dating
Helper s
Ġexp iration
'}, "
Dark Theme
ĠPl an
Us uario
pin ned
ĠSimple LineIcons
aa a
Ġpub Key
Ġsecondary Color
Ġfailed Value
ĠÐ² Ñģ
favorite s
ĠâĢ ĵ
ĠToast Gravity
Ġ401 4
Ġbr and
Ġanim ations
ĠPlace holder
suggest ions
ĠFace book
Classification Metrics
ëĭĪ ëĭ¤
æĴ Ń
G ENERATED
G tasks
O lc
_ )
b ble
d imension
§ è¡Į
Ð ĵ
æ ´
se p
Ġre gExp
ĠS y
ĠS entry
Ġb lob
Ġb ubble
Ġp onto
Ġv ol
St reet
Ġo cc
qu a
qu otes
ĠA ctor
Ġt utorial
ĠE mitter
Ġon Receive
ag le
Map MouseEvent
ĠG lass
str and
)) !
ĠH ead
for got
ĠApp Localization
Method Channel
ĠCon tract
position s
Ġspec ifies
down sized
à¸ Ħ
ĠTest Oneof
200 2
open api
Exp iry
tag Name
Target s
hy drate
Ġexp ires
Ġwhere String
ĠCom mit
Ġexample s
ĠJson Path
fit Width
ĠWh ite
á» į
áº ¡
sn ippet
ĠEquatable Mixin
ĠTerm inal
fail ures
029 4370
bri an
Ear mark
Ġserbia Vojvodina
970 5629
trunc ate
âĶĢ âĶĢ
ë¥ ¼
ĠAutomatic KeepAlive
0294370 651
9705629 349
( ",
> ()),
I ter
K HE
L W
Q w
S ensor
V irtual
c am
e o
f W
p ik
x u
Å ¡
ĠĠĠĠĠĠĠĠ ĠĠĊ
on Message
er ia
xt ures
as pect
Ġ_ .
age s
es is
ĠC alculate
ass oci
ĠF loating
ri e
Ġas c
Ġt ar
De leting
ĠD an
Pro blems
Ġbuild GoogleCloudRetailV
row th
64 2
Ġtext Size
ra f
Model CopyWith
ER CH
(() {
state ments
Ġsc anner
IC K
Group Member
main DataHeader
post a
Label Color
MM MEd
Parameters For
Ġver b
Ġlocal ized
Asset Path
process ing
ĠSimple Dialog
Jo ined
FA IL
evalu ator
ĠMo jo
ĠOB JECT
character istic
éĻ Ĳ
ÐµÐ» ÑĮ
mag n
Comb ination
Ġsaf ely
- $
3 77
8 15
9 69
A IN
M uY
N ESS
O ct
Q k
R ad
R ain
V w
h ue
m ia
s ale
v v
y o
Ġ Ø¨
in struction
at tle
st ub
get Location
ment ion
Ġst rip
Re positories
ĠM sg
Icon Size
Ġ* (
ĠD IS
from Data
Map Created
'] !,
ĠSt ar
pro cessed
user Agent
Message Channel
ĠEx port
cl inical
ĠV olume
list FromJson
ĠSc ience
Ġk Color
ãģ Ĭ
Per Page
SE S
Ġend Angle
à¸ Ľ
ene f
xe e
UN IT
Av ailability
member ship
spec ify
ĠTrans lation
Ġprevious ly
Ġoff sets
Ġperson al
Ġskip Offstage
sK ICB
Ġpurpose Element
Coll ision
SemiBold Italic
ExpansionProfile Designation
ĠInline Object
Land scape
Actual ite
Sup ply
CLO SE
lecular Sequence
! ();
! ";
) &&(
0 47
4 66
6 76
8 33
E P
E t
E WE
F ocused
M ass
S ig
S cores
T Type
V uZ
p ared
r roussel
s us
Ð Ł
ç ¦
Ġ immutable
Ġ answers
as hed
ĠC reditCard
Ġv e
Ġ1 0000
ab o
Re pos
(' );
ĠM aster
State Builder
Ġr pc
To List
ĠR ql
Text Selection
build Body
ob e
Ġ6 10
var iants
lat in
Ġsub stitution
Ġcurrent Time
Ġend ing
gr an
Ġte ll
ron ym
ãĤ ¸
home kit
Ġemail Controller
ĠAuth orization
05 3
Initial ize
Book s
icip ation
Ġlocale Name
NO TE
Ġì ŀ
ĠCON TR
Ġconnection s
Ġreport s
Pr incipal
Medium Italic
Feature d
=[ ];
ĠBook ing
navigator Key
rec order
ĠUN KNOWN
Ġum a
MIS SION
åĥ ı
C K
E ST
I it
J U
M pe
P ublished
S qu
i j
n z
s alt
Ġf ew
Ġs ix
Ġs olution
Ġv i
Type Parameters
im its
ĠB u
Ġex cluded
Ġh or
item Count
(_ )
cl aim
Ġ6 25
Ġ8 6
Ġdis sertation
not ice
ubl ication
Check ing
Video s
04 3
media Query
scroll able
Qp pZih
... ",
ĠBase Widget
Br and
æł ı
Sample s
aGlz Lm
ker son
Artifact s
Monitor ing
LHM sc
Ġrecogn izer
ĠNum eric
awa ited
wil kerson
llab us
Ġthous ands
brian wilkerson
rroussel Git
0 88
7 01
9 27
B ut
G N
G p
G PS
K UC
M ile
V ol
a S
f raction
g m
h at
ĠS ummary
pe x
ab a
String Element
ĠF ollow
Ġin ventory
ĠA ir
ĠP ower
Ġ2 14
ir us
Ġde al
ĠB ound
orm orant
pl orer
ĠD istance
Pro gression
sh rine
ĠL OG
Ġse ason
fo ot
Time Zone
ĠH and
Item Response
View Created
Ġtext Capitalization
ĠDe letes
ID ENTIFIER
Ġtime zone
AC EMENT
Ġurl s
Start s
Ġparent Data
Pre v
åĪ Ľå»º
author ised
Ġbl ank
å¤ ĩ
Ġtable s
ĠArg ument
ĠÐ¿ ÑĢÐ¸
template s
upload s
Bu f
ĠDis patch
Ġauto validateMode
Ġbloc Test
developer s
Debug Mode
Ġdisabled Color
æĸ¹ å¼ı
follow ing
safe Block
Ġprom ote
hem atic
ĠBack drop
ĠExec ution
ĠSec ure
Leaf State
ĠManage d
ThanOr Equals
QUAR TERS
ĠGetx Controller
6 38
E mit
F rozen
J avascript
N or
R x
S ales
T en
U SE
k ar
n ual
t uple
Ġ ####
on Refresh
Ġc lipboard
an j
Ġre cursive
ul er
int Value
ĠT od
Ġd d
Ġo auth
ĠF IT
qu eries
Ġex change
Data Sink
Ġtr unc
Ġtr avel
(" <
ĠSt ats
Text Size
ak y
Box Decoration
ĠH orizontal
build ing
build GoogleCloudApigeeV
Ġcheck ing
Method Name
OR TW
ĠSe lected
os cope
ĠTest ing
Settings State
Unit Id
Ġtarget s
ĠĠĠĠĠĠĠĠĠĠĠĠ Ċ
ĠX PathResult
Light Italic
Async Action
arge ted
ãĢ Ĳ
ãĢ ĳ
QU ERY
TestScript Teardown
ĠComp any
refresh Controller
loaded Fields
Ġnormal ized
Ġprod ucer
Ġfocus Color
æĸĩ åŃĹ
EEK DAYS
ĠFade Transition
Prom otion
Ġlock ed
RX Z
Compan ies
encr ypted
ERCH ANT
ORTW EEKDAYS
3 99
7 33
C gp
N ARROW
Y Y
Z z
h PW
n ia
v oc
å ¡
ar ched
tr ay
Ġre act
Ġp ie
Ġs leep
co upon
qu ota
ĠA Map
Ġto Parse
Ġt icket
Ġon Close
ĠD ATA
Ġh ouse
Ġtest Without
Ġme ss
User Details
75 1
IC AL
Ġk Versions
Parameter Element
Ġstr ong
ĠUser Repository
IS H
ï¼ ģ
Mod ify
Ġconfig ured
Ġdisplay Element
Ġexp iry
af ari
ĠRequest s
TER N
block s
ÐµÐ º
PO SE
Ġfetch ing
Ġauto Play
Audio Player
Analysis Error
Ñİ ÐºÑģ
bound ary
ĠPri mitive
keyword s
ĠPopup MenuButton
TIME FORMATS
Leg acy
alle l
Unique Id
cli ente
STANDALON ESH
ĠPluto Column
ĠYaml Map
ĠPR IMARY
Ġinform ations
itored Resource
äºĭ ä»¶
4 39
7 69
8 55
8 48
G ate
L oo
P ag
X ML
g SC
t rending
à §
st din
ĠS core
Ġd ual
ab b
iz ard
res hed
-- )
ĠText Capitalization
ĠE N
pl Field
ine se
pro visionalUserProject
By Key
EN ARROW
Ġpo kemon
start ing
ĠPro gram
38 1
ĠÐ »
Client Mixin
Ġevent Name
check out
ĠJ ust
Inter op
26 1
Ġauth enticate
Check Box
à¸ ª
xe f
Format ted
project or
Mod ifiers
sk y
EM E
86 2
Notifier Provider
ĠEn ter
Next Page
temp Dir
ih h
ĠID s
ten dee
ĠProduct s
DTO CopyWith
Rest aurants
Ġyear s
Ġnormal ize
ĠLocale Keys
Ġphoto s
ĠPackage Info
sTo Select
å± ķ
ORD ER
Ġindicator Color
ĠMulti Provider
ZZ ZZ
ADD RESS
STANDALON ENARROW
POINT ING
localized Values
ammouth Type
Ġti po
ĠDecorated Box
ptime Check
0 46
I LE
L orem
M OD
M ED
N ONE
P N
R f
S im
b ewell
d ump
l am
l ich
v olution
er ry
in c
de tect
ĠS ER
to s
Ġ" .",
ĠT rip
he lix
In app
Ġ1 18
List OperationsResponse
Ġt aken
Ġr g
om a
Ġ6 16
IN ITIAL
Form Key
ĠApp Routes
55 1
ĠDate Picker
Collection Format
ĠKey Pair
88 2
local ToGlobal
convert ParametersFor
59 2
Ġpl aced
button Color
Inline Object
Ġexpected Output
ĠComp iler
graph ic
ĠSliver AppBar
åĽ ½
iss uer
._() `.
amb das
Ġred uce
UP DATE
ÐµÐ½ ÑĤ
ĠfloatingActionButton Location
æĶ ¯
Program AccountData
Internet Address
OUR CE
tek artik
Shopping List
ĠtestWithout Context
convertParametersFor CollectionFormat
0 54
6 64
7 34
L ayers
T U
V ED
p encil
Ġ ol
Ġ íķ
le af
ol ite
Ġf light
ac ons
Ġth ings
ig r
Ġn ickname
Ġb io
Ġs ocial
con cat
el i
ĠP A
Ġ2 329
act ors
ud oku
Field Value
By Default
Ġdata Type
Set Id
Ġ6 20
File Uri
Ġupdate Mask
Function Declaration
be arer
Inter active
md b
Editing Complete
dG hyb
Ġver ified
Ð¾Ð ¿
Ġorder Id
ĠForm Data
ĠJson Converters
UM N
Ġdi ctionary
border Width
exec utor
Todo List
sample dAt
hand lers
ĠÐ¾ Ð±
Iss ues
Ġdrag gable
job s
Ġfirebase User
Ġclick ed
]+$ ".
Coord s
æŀĦ éĢł
Ġame t
, \
5 10
5 28
9 42
A O
B ODY
F etched
] ];
r ick
ĠS up
Ġb ank
Ġp iece
Ġs chool
ĠC ubit
Ġreturn ing
Ġa o
ab lish
Ġw ave
Ġt unisia
ĠB adge
per m
Ġres olver
Ġjson Loader
Ġme m
Ġ/ >
update Data
sub mission
response Type
66 1
Ġat trib
Dialog Action
Ġauth Service
Channel sResponse
ĠMessage s
Ġcomp arison
local ize
home page
Column Index
Di gest
send Message
debug Label
star s
Ġlevel s
ĠLocal izations
Gr and
PRE SS
áº ¹
schedule d
ĠSong book
Ġcr ash
Ġmer ged
greg ation
ĠJava Script
ISteam RemoteStorage
Ġcorrection Message
Metre Per
" ^
0 45
0 72
4 33
8 78
9 14
; ,
B N
F u
M ad
Q c
S yn
V sZW
X FF
] ?.
` )
c losure
g ins
t ight
in ted
ar ily
is Dirty
Ġb all
Ġp od
Ġs atis
Ġ" "),
Ġ1 19
Ġ0 7
ĠF in
State Change
Ġtr ade
ite s
pon ential
tp Curve
ĠI I
user Repository
ne o
RE C
Bloc State
Class Member
Play ed
ĠUn modifiable
54 3
31 30
Ø§ Ø
è¯ ¦
Pur ge
Team Drive
012 3456
oYS k
Ġwarning s
sel ler
ĠSymbol Part
ĠkDefault Padding
ĠPRE LOAD
ĠLIM ITED
ĠVALUE S
å±ŀ æĢ§
9 44
B enchmark
K s
S ports
b its
b angumi
g old
s am
t im
v ol
Ġ Ø
Ġ âĶ
ĠS quare
ĠC OPY
() }',
Ġd an
Ġo w
Re paint
Ġin herit
ĠP ress
Ġ2 30
ĠE quivalent
ĠB uffer
fl uro
av g
Ġme chan
ĠN D
pb ack
Ġheight Factor
Ġ) ).
icon Color
icon Theme
ob scureText
ob serve
log ical
Ġal ternative
base line
Ġk A
On boarding
Function Body
RE T
GoogleCloud SaasacceleratorManagementProvidersV
dic olite
search List
à¸ ļ
88 3
Block Type
à¤ ¤
Ġconfig s
Ġ] ))
ãĥ ©
CH ANGE
Ġplay back
Pa used
Ver b
mon o
ĠCont ains
Ġhel lo
ĠTe chn
Col ored
Cart Item
Ġrefresh Token
Ġtab Controller
Debug ger
ĠGe olocator
ĠNumber Format
NE W
Article s
LA ok
Ġdecl are
ç§ °
Ġfix es
WV sc
ĠresizeToAvoidBottom Inset
' })
0 74
6 75
C mV
F avourite
I x
S AM
S FR
V ert
b ridge
f u
s dp
y c
Ġ 79
on Data
in Days
al ice
al ty
Ġs s
con n
con trast
if ics
Ġcon trib
(' $_
ĠP ersistent
ĠText Painter
Co variant
Ġtr a
per formance
(" '
En crypted
ome tric
inter actor
ther mo
icon Data
api Version
Ġclass Element
Object Pool
we chat
At Index
light bulb
Ġ9 4
ä¸ ¤
comp an
Ġform al
Local Storage
54 2
Ð¸ Ðµ
ik K
Ġbase line
bi tr
Ġsign up
LG IsYy
Ġpackage Info
Ġvisit Children
Native ObjectPool
render Object
å¤ į
Track Color
ÐµÐ ²
Ġident ifiers
ĠRoute Settings
Ġvideo s
cell ular
Ġjs Element
food s
vi ation
sink s
Ġevery thing
å· ¦
reg ions
Ð³ Ð»Ð°Ð²Ð½Ð°Ñı
Ġstat istics
KSk K
Uplift Gas
Aff iliate
ZWxz ZSB
ĠFrame work
Ġdistrib ution
discovery apis
å¤Ħ çĲĨ
ĠIss ue
0 68
0 58
5 21
7 66
B LE
D Lk
H IR
H uman
R g
S paces
U X
V J
[ (
c X
c ampaign
f ers
m int
q p
t g
t ie
u KCl
Â ł
Ġ tem
on ce
re play
re active
Ġc amp
me m
is or
Ġs il
List Delegate
end Action
ĠP ad
Ġis Changed
Ġint l
To Unit
Ġ! (
Page Index
Ġpro jection
inter op
inter active
Box Constraints
Ġid le
log ged
FF ER
dynamic Type
bo otstrap
Ġro unded
Search Query
Ġstart Index
fi xture
Ġcomp osite
à¸ Ķ
Default Cover
method Channel
Ġup loaded
Tab State
br ace
Ġpassword Controller
åĪ łéĻ¤
Ag ain
96 2
Star s
Locale Keys
Ġì ł
Ġcancel led
Med ical
ĠGenerated TextColumn
Shared Calendar
article s
multi ply
BM P
ucce ed
portrait Up
.... ....
Ġradi ans
Ġemits InOrder
Dri ving
ApYwApYwApYwApYw ApYwApYwApYwApYw
ĠgetProportionateScreen Width
èį Ĳ
MEN TED
ĠdefineReflective Tests
ĠisD ense
ĠAutomaticKeepAlive ClientMixin
5 77
5 79
5 60
8 12
9 77
D ie
H a
H OME
K nown
L et
O O
R F
S imilar
i us
à µ
il io
is Expanded
Ġre ject
Ġre name
ĠS mall
co pper
In form
De posit
Ġ== =
loc ated
Ch oices
Se ek
Se mbast
ĠI O
code c
Result Pointer
ĠH ons
var iance
bool Value
start Action
SE TT
Ð¾ ÑģÑĤ
Child Component
double City
Trans parent
search Id
comp View
Over Time
Ġpart icipant
Block ed
UN DEFINED
Product sResponse
ĠDart ChangeBuilder
target s
uY W
Off sets
Light Theme
SH OW
SH OWN
ĠisF avorite
Ġtool s
ĠProto PredefinedState
Sort ing
ìĿ Ħ
Ġ", ",
å¹ ³
å¹ ´
æĸĩ æľ¬
Conversation Event
Ġleg end
ĠSH ALL
Ġrelation ship
dmFyIHQ scyxy
uT m
FileSystem Entity
âĢĶâĢĶ âĢĶâĢĶ
ChlBChlBChlBChlB ChlBChlBChlBChlB
éħį ç½®
) -
5 37
9 16
> >[];
B J
E LL
F allback
I c
I u
K R
L on
L ecture
M r
M as
S TE
S ell
T j
U y
d istinct
ç Ħ
re m
re start
al og
Ġ{ })
es pan
ĠS pe
ĠS upported
get Token
Ġs us
() ');
am ar
(' </
qu is
ĠM E
ĠA fr
ĠP OS
ĠP ARTIC
Ġ2 68
Ġon Create
ag a
ĠD AM
und ay
Ġun awaited
Ġ- (
Ex clamation
Ġ5 74
line Width
An imate
port unity
View Port
path Segments
Ġresponse s
write Field
max Lines
find Node
ĠKey s
à¸ «
ãĤ ¿
ãĤ ı
my app
replace ment
Ġ201 1
Back ward
ĠEvent Type
Room s
ĠQ After
Cr ud
UrlRequest Callback
Ġdiv isions
ĠCamera Position
PublicKey Pins
AvataaarType Hair
BytesPacked Mixed
uKGEsY ixj
dbDate Updated
dbDate Created
Attach ments
ĠExecutable Element
éŁ ³
ëĬ Ķ
ERCHANT ABILITY
0 23
4 36
6 10
9 68
C andidate
X S
i ri
k M
s and
x a
} [
Ð Ĵ
æ ĵ
æ ļ
on Primary
in cluded
in herited
ur t
con c
ĠC ategories
Ġcon f
** *
Ġm utable
Ġde signed
ĠR anger
ind ices
ĠU SER
data List
port folio
Font Style
init Reflector
Api Key
yp ter
be havior
Point Range
push AndRemoveUntil
ins ide
air line
Tab Index
IT ER
46 3
Ġwrite Byte
Ġline Width
Ġmo unt
96 3
ĠIN TO
Alert s
åľ Ĩ
ĠClip Oval
ung ie
uk t
IE g
ane ous
æī §è¡Į
ä¸Ń çļĦ
è§ Ĵ
jdGlvbihh KXtyZXR
PAR EN
EV ENT
èµ ·
ĠStudent s
Ġdetermin es
Circular ProgressIndicator
UST OM
Ġdep ends
åķ Ĩ
HEAD ER
Ġsel ler
ĠPUR POSE
Ðĵ Ð»Ð°Ð²Ð½Ð°Ñı
ĠPARTIC ULAR
: -
> ");
M G
M or
M otion
N orth
P B
T ON
d ots
e u
Ð Ķ
è ¢
se x
ĠM ERCHANTABILITY
Ġon Data
Ġvalue Des
Ġg ray
ĠI T
error Text
Ġid Token
Node Type
Ġ8 3
Cont inuation
lear n
Ġrequest Id
68 1
Ġat om
Ġform ated
Ġ'/ '
home Page
Ġcl ause
06 7
Ø§ Øª
animation Duration
les son
ç» Ł
ĠQuery Snapshot
pol ator
Gu ar
Ġemit ter
Ġdesc ending
Ġ401 7
Ġcap acity
Kc z
bnVsb Cl
ieve ments
ĠTree Node
ĠAv ailable
istr ative
aming System
C ubic
E q
G G
J WT
M N
P UB
S ms
S afety
X Q
f resh
g uZ
n able
é ĸ
Ġ çļĦ
Į æĻ¯
ĠĠĠ Ċ
il ing
ĠS al
ĠS meup
get Id
Ġb ro
Ġp ad
Ġcon firmed
Ġd olor
Re trie
end ants
ĠP ut
ĠP oll
ĠE ffect
Ġget StaticType
ĠB L
To Double
Ch anger
Ġtest Using
Ġ5 90
cl a
index ed
Or d
ĠApp LifecycleState
top Level
work s
work out
Library Builder
ys ql
ĠSe ason
Ġlabel Color
Ð½ Ð¾Ð¹
serial ized
local Position
EM AIL
Use case
Ġpost code
95 2
è¯ Ŀ
Native Viewport
Asset Image
root Element
ĠProto Block
Ġdid Change
getString Ex
æī ĵ
signIn WithEmailAndPassword
Anim ator
Ġlook s
PER IOD
Bid ding
/[^/ ]+$".
å¯¹ è±¡
Ident ifiers
Ġsn ippet
ByteAligned x
è·¯ çĶ±
Sch udule
authorised Request
ĠtestUsing Context
! --
) !
, )),
8 50
8 34
A pt
D u
D ict
D lg
J an
P OL
R UN
S pacer
h ol
j un
k d
l ifecycle
s x
v y
ç Ī
Ġf ar
Ġ} \
ic ao
as se
Ġb ullet
Ġp kg
ĠT d
Ġst ock
Ġm ute
Con ditions
ĠM utation
De aths
Ġis Enabled
Ġ2 35
Ġpro blems
Ġ5 85
ft ts
Item Id
Ġ6 29
pan orama
Change Detection
Image Stream
Int StructAlignmentInt
font Style
Ġk ernel
Instance Id
Component Type
ĠSh ort
58 2
UT C
Operation Metadata
ĠData Source
Nested IntStructAlignmentInt
Cupertino Icons
Gesture Detector
ĠBuiltValue Generator
LI BR
timestamp tz
Ġsw ap
áº £
ĠLibrary Element
Ġwhite space
ĠContent Type
LmI o
Ġsecret Key
ĠAss ign
oYSxi KXt
ĠOp Codes
ĠEng lish
æµ ĭ
Ġcalcul ated
æ» ĳ
ĠConnectivity Result
ocal Point
ĠassertNo ErrorsInCode
ĠKe ep
Ġtri angle
' };
6 24
7 15
8 18
9 65
Y UV
] /
s copes
w er
x w
z c
Ĥ ¨
id l
il it
de t
un s
Ġb ug
ap k
Ġe ye
St rength
Ġa x
ew s
ch en
add Command
oc y
Ġis Default
Ġ2 62
ime o
ime ters
ind er
Sh im
line cap
load String
ĠRe fer
Ġ6 24
ach es
enc ent
Tap Down
Ġx s
Ġapp Name
ĠÐ Ĵ
Ġ9 2
Comp ute
grey a
pc ion
08 3
HT Lexicon
åĲ ¯
Ġne arest
|| "
Place ment
peri ments
Ne o
ÛĮ ÙĨ
bit map
Ġdid n
Ġsymbol First
å½ ±
Ġcons ist
9999 99
Ġgo es
cap s
Arch os
ĠBasic MessageChannel
Ġdecimal Mark
Ġiso Numeric
Ġtoast Length
ĠPO ST
ç® Ĺ
AUkaAUkaAUkaAUkaAUkaAUkaAUkaAUkaAUkaAUkaAUkaAUkaAUkaAUkaAUkaAUkaAUkaAUkaAUkaAUkaAUkaAUkaAUkaAUkaAUkaAUkaAUkaAUkaAUkaAUkaAUkaAUka AUkaAUkaAUkaAUkaAUkaAUkaAUkaAUkaAUkaAUkaAUkaAUkaAUkaAUkaAUkaAUkaAUkaAUkaAUkaAUkaAUkaAUkaAUkaAUkaAUkaAUkaAUkaAUkaAUkaAUkaAUkaAUka
Ġsubunit ToUnit
WI SE
ĠIsl ands
fromChar Codes
ĠREPL ACEMENT
uplic ated
ĠFFF C
//////////////////////////////////////////////// //////////
ĠonReceive Progress
Ġthousands Separator
4 35
6 35
C amp
J n
P s
S us
T CL
i y
j ar
m v
q flite
x q
´ ë
Æ °
à «
ì §Ģ
in ate
al ia
Ġc andle
Ġ{ _
as ci
Ġs helf
Ġe qu
() ';
co urses
St ake
Ġ1 75
set SystemUI
add To
Ġl ifecycle
ĠB ro
Ġex ceptions
Build Trigger
Ġfont Color
ak ao
Builder State
count down
Get All
find All
service Account
Ġpl ant
Ġcl azz
Open ing
KX y
Ġroute Information
YX Nl
QU AL
Import Message
Ġoff line
æĿ ¡
ĠAuto validateMode
xc f
sy mptom
direct ives
ĠSw ipe
Patch es
TEXT URE
ĠOp Code
GraphQL Type
æĪĳ ä»¬
Incident Role
xxxx xxxx
Ġdescrib es
Tra versal
Anti Alias
ĠCOPY RIGHT
) !,
0 33
0 78
4 55
5 89
8 77
9 76
G I
M g
N OR
O ccup
Q ty
W C
b idden
c rossAxis
i LCJ
j h
s port
} </
æ Ĳľ
Ġ --------------------------------
ĠS park
get Child
Ġs ym
Ġv ehicle
Ġcon crete
Re store
Re join
ĠM O
ult ure
ĠP a
Ġis On
im bab
Res olve
ess ions
Ġon Confirm
Pro vided
from RawJson
Map Lite
'] ).
pro pagated
Ġun defined
ĠI mm
Ex clude
Ġsuper class
Ġwh y
wh istle
page Index
sp read
sp awn
be er
Ġser ve
Te acher
Inter mediate
comp ressed
49 1
Ð» Ð¾
xFF B
sw ipe
Render ingContext
ĠEn dian
Ã© s
player State
rece ipt
Single Child
åĨ Į
dom ains
Ã¼ r
cg i
Ġsequence Element
Ġsmall er
Ġmeasure ment
åĿ Ģ
byValue Key
^^^^^^^^ ^^^^^^^^
ĠLI ABILITY
Scheduling Supported
6 11
8 85
9 22
A bi
D Q
G round
G AE
T ts
a HJv
f allback
g ift
h oriz
j urisdiction
l ates
m apping
p iece
w ell
y Axis
z r
at an
Ġc li
an imal
ol utions
Ġf ab
ro ve
ĠS lot
art ment
Ġp b
Ġv oice
Ġcon tr
St ories
set Id
Ġ/// }
Ġm nemonic
add Source
and sell
im o
Co pyright
Key frame
ag s
ĠD ash
Ġnew Name
flutter buy
Ap pearance
ib o
Ġset Property
Time Stamp
type ParameterType
Item Type
ĠW ater
Ac c
enc ia
ĠCo in
ily ZXR
Ġstate Code
ĠCon verter
def initions
Ġj ump
Class Declaration
([ _
Inter preter
Ġtrans parent
aW d
ZX h
Ġbase Uri
åı ³
Ġunder line
è¯ į
Ã© e
Step per
ĠpassStruct Struct
ĠStr ophe
Errors Config
desc endant
Ġbit map
Normal ized
Ġpurpose s
Ġbyte Data
Ġprom ise
OPER TY
ĠIM PLIED
ABK Al
åŁ º
Ġalternate Symbols
SwidInstant iableGeneric
RESUL T
Ġhw nd
flutterbuy andsell
) >>
/ ');
0 27
4 23
7 28
8 25
C LE
E lem
F emale
G lob
L AR
M U
X N
Z n
\ ",
s ales
s afety
er a
in jection
is Dart
Ġ_ ,
ig i
Ġ" *
ĠC oding
ist a
Ġe p
Ġe ver
Ġe cgl
dart lang
String Literal
(' )');
State ful
Ġl if
Ġget Current
To Add
ĠG aps
') )),
type System
Ġ6 33
ĠDe termine
EN C
Ġen cryption
view GL
ĠW iFi
Ġdis k
Base ListModelDomain
mer chant
open ed
initial State
Sw ap
Container State
Notification Details
ĠPdf Grid
Sp inner
ä» İ
Ġrender Box
Spec ifics
ĠDefault TabController
STR ACT
ÑģÑĤ Ð²
Tri ps
resolve Uri
Admin Overrides
Ġroom Id
cg SC
Consumer Overrides
Hook s
å¼Ģ å§ĭ
middle ware
Py ramid
Ql Client
Ġdatas ource
Slow In
ĠaddTest File
Least UpperBound
DEN IED
Ġflexible Space
RXZ lbnQ
5 66
B io
H g
M ission
N P
R MX
S oftware
T Field
T enant
V W
g res
s Cm
x ftts
à Ń
æ £
æ ®
on ia
ar ound
tr os
Ġm ale
ĠF unc
ĠM ask
ĠĠĠĠĠĠĠĠĠĠĠĠĠĠĠĠĠĠĠĠĠĠĠĠĠĠĠĠĠĠĠĠ ĠĠĠĠĠĠĠĠĠĠĠĠĠĠĠĠĠĠĠĠĠĠĠĠĠĠĠĠĠĠĠĠĠĠĠĠĠĠĠĠĠĠĠĠĠ
fl avor
Ġh ist
from JSON
ber t
form ated
Builder Factory
red ict
ĠIn dicator
Info Response
Ġ6 68
ĠDe pendency
lock s
Int l
ader board
pre vent
OR w
part ial
read Field
Ġj ordan
comp ass
Ġ{" __
Ġtrans lated
Ġob served
ĠUn signed
vis or
Ġinter act
ĠBuild s
exp ire
IM PORT
Nested FieldError
Ġ... ?
refresh Token
å¼ ¹
pushNamed AndRemoveUntil
ĠChat Action
ĠBuiltValue NestedFieldError
termin es
attr s
ĠHel lo
éĥ ½
Radi ans
bab ly
ĠÐ± Ñĭ
Hote l
trop hy
Persist ence
boo qs
Bas is
ĠReceive Port
YXIgdCxz LHI
rac otta
Ġfullscreen Dialog
brief case
His ense
/ -
3 78
9 15
B a
C AM
D ifference
E mbed
F rag
J j
P aginated
R oc
X Swi
b enchmark
n ice
s Model
s igma
Å Ĥ
Ġ Â
Ġc ascade
se udo
Ġ' '));
Ġs olid
Ġs mart
Ġd isease
Ġ1 95
Ġst ars
ĠF lip
ĠM at
ve al
Ġt icker
Ġt uple
Ġde grees
Ġr oll
context manager
ĠG a
ĠG ood
Se p
Se lecion
adi um
ast ic
Error Text
ant ic
inter net
ĠRe trieve
App Zih
url Element
Ġ6 01
Ġ6 12
ĠFunction s
Service Request
Ġquery Snapshot
cur s
Parameter Types
AC HE
ens ive
show Error
Dis connect
Property Definition
selected Category
sw iper
Ð¸ Ð²
ĠAppBar Theme
OB JECT
jdGlv bigpe
Ġcontinue d
ĠProto col
Ġoc currence
hc H
crease d
ĠFeed back
IST ER
Protobuf Empty
FUN CTION
ç»ĵ æŀľ
0000000000000000000000000000000000000000000000000000000000000000000000000000000000000000000000000000000000000000000000000000000000000000000000000000000000000000000000000000000000000000000000000000000000000000000000000000000000000000000000000000000000000000 0000000000000000000000000000000000000000000000000000000000000000000000000000000000000000000000000000000000000000000000000000000000000000000000000000000000000000000000000000000000000000000000000000000000000000000000000000000000000000000000000000000000000000
GDateTime Builder
cod able
Biome trics
å®Į æĪĲ
ĠBus iness
AppWidget Keys
ĠgetAnd Advance
ĠFIT NESS
) }';
5 20
5 35
E g
F one
G old
I Q
L anding
P wd
W ORK
a H
i VB
r ant
s meup
Ð Ŀ
at ype
an ia
Ġf urther
is Static
as p
Ġn h
Ġ" \\
Ġe mbedded
ĠT R
ĠT yp
ter racotta
od G
Ġto Text
ag uar
Ġnew List
Ġ3 34
sh rinkWrap
Text Button
By Index
ĠEx pected
Ġrequired Parameter
Ġ10 7
ang o
Ġle ad
sub Part
Ġx y
44 1
KG go
SE QU
AN SU
ens ors
ho spital
Ġcomp uter
54 1
59 7
Rule set
Ġsign Out
Center Api
ater n
Access ors
ĠPar ses
Min imum
çĶ µ
Handle s
åĲ ¬
den ied
PT A
Ġident ified
Br ush
xx x
ĠRes olve
ĠSub scribe
Ġoff stage
Photo Url
aWY o
ĠTable t
release FfiHandle
åĨ Ļ
Condition al
6666 6666
ĠBasic TextField
Ġinactive Color
cert ificate
Secure Storage
ĠShape Border
######## ########
AAA ANSU
ambient Temperature
å®ŀ çİ°
DevicePreview ToolBar
hE Ug
imbab we
iVB ORw
KGgo AAAANSU
KGgoAAAANSU hEUg
5 14
5 33
5 50
9 01
9 54
H P
K m
P ING
R sp
S pl
T c
V otes
W W
Z en
j ac
r ss
tr ivia
ĠS elf
ap top
Ġs qrt
ed Service
ce le
Re moving
(' )
ĠA udit
Ġl arger
Ġde ployment
oo ter
Ġon Init
Ġr and
Map ped
ĠSt reet
Sh aring
ĠWidget Ref
par ation
ne om
Ġal ter
bl ing
19 44
Fam ilies
Material Button
Auth Service
Out SlowIn
leg acy
Channel Specifics
ĠTest AnalysisContext
Ġtheme Color
()) ).
AB C
igh ted
web Socket
Ġconvert Source
Ġab s
ĠMe asure
Ġ\ [
auto complete
Main PageState
ln rpc
Ġ"${ _
ane se
Override Request
Anim ations
ĠCl ick
Ġgu ide
Tex coord
abe ac
Booking OfService
RES OL
Ġcook ies
Qr Code
Sn ippet
which Oneof
Require ment
Ð¾Ð³ Ð¾
camp us
ĠCons ider
infra structure
ĠPageRoute Builder
! ).
( ","
, [
5 48
8 64
9 86
? |
C ALL
K V
Q x
V s
V ARI
Z A
Z w
k ReleaseMode
l ic
m ass
n u
q i
re order
re ward
se verity
is Before
Ġ( (_
ĠS urface
un geon
ad ast
ĠT Y
Ġto RawJson
ve x
im ag
Ġget IsDeleted
ess oa
Ġvar Name
ĠD Bus
om ation
Se at
._ ());
user id
ĠU TF
ĠH ar
ep ub
Image Info
Ġsc heduler
__ _$
ĉĉ Ċ
circ led
Ġapp Id
Ð° Ñı
wit ched
Ġstart er
leg end
36 1
ient o
à¤ ¦
Ð¸ Ð¼
Login Screen
UT TER
ĠFirebase Storage
ä» ĸ
Http Body
Current SnackBar
Ġdevice Info
ĠClip Path
dialog s
Ġcol our
Ġæ ł
aut ofocus
ĠMark et
Ij p
æŃ ¥
dot env
ĠSD L
Micro seconds
abe led
Ġdead line
Ġpigeon hole
Greater Than
raz il
æ¨¡ å¼ı
Extr actor
maz ing
Denom ination
ĠonSend Progress
polka wallet
setSystemUI OverlayStyle
0 37
5 72
7 27
9 37
9 73
A head
B v
M IC
S ing
Z ml
h UT
j avascript
s Screen
} '],
re trieve
st ained
th at
Ġ' </
Ġf ifth
ul s
get File
get Property
get Center
Ġp ic
ap ers
Ġe valuation
() }\
ĠT B
ch oose
Ġin finite
State lessWidget
act al
Ġr ng
ĠR out
ib its
ib rate
Ġset ters
qual ified
inter ceptor
Box es
ĠRe cent
init ByValue
Ġen crypt
Ġk NativeObjectPool
Bytes Request
69 1
Is Il
Content State
comp act
ĠSet up
group Name
ci h
ĠAd ditional
ik u
Ġprimary TextStyle
active Color
exp lore
scroll bar
Game State
Chat Message
Network Manager
Work out
Section s
Month ly
stop watch
ĠScroll bar
ĠCON N
7777 77
FA u
Ġproto s
Ġgo al
ĠFloatingActionButton Location
Ġ255 4
mV ud
ĠBar Chart
Inst alled
ASS IGN
fold ers
Missing Stub
ĠCl uster
feature d
è¯· è¾ĵåħ¥
ĠDirection s
Coll apsed
ucce eded
contain ers
è¿Ļ ä¸ª
READ Y
Ġfavorite s
ĠSocket Exception
CurrentUser Is
datas ource
ĠVertical Direction
divider Color
encry ption
strHomeaddressLive Month
ĠUs age
uss ian
Ġsmallest Denomination
Cook ies
Cartesian Chart
0123456 789
whistle Stop
ĠconvertSource ToMap
+ (
6 27
8 38
9 12
9 64
9 72
? \
C reditCard
J q
M ate
N unito
P ATCH
Z r
] ';
p ipeline
v n
Ġ çĶ¨æĪ·
į ä½ľ
on Init
er man
re usable
al go
Ġ( ((
Ġs low
ĠT er
ĠT icker
Re start
able Error
Res ident
Ġr hs
ĠList ener
Ġ3 32
'] }
ĠR T
Ġcontext s
Ġme mo
Ġse c
Ġ5 88
Ġsh ader
Ġ6 32
list a
we j
ĠCon densed
Ġupdate Time
Ġcurrent Position
Ġrequest Uri
Ġassert ion
read Byte
Ġcontroller s
let s
ry pt
Ġpage Index
Ġout come
serial ization
source File
Render ing
initial Page
target Temperature
target Humidity
08 2
Hash Set
ĠLo an
Cor rection
Application s
avatar s
stroke Cap
Ġtree Sanitizer
å½ ¢
âĸ ĳ
PR OD
umbn ails
ĠLinear ProgressIndicator
Ġsample s
ĠSpec ial
Sen ha
fast OutSlowIn
à¤¾ ",
Ãª n
åıĳ éĢģ
ste am
fan Mode
bubble s
ambient Humidity
Way point
setPoint High
setPoint Low
Ali ases
Ġhar ness
æİ¨ èįĲ
ĠDan iel
! ));
9 79
: /
: <
B GR
H INT
K M
K t
Q S
T ube
Z GV
d img
e ither
g ie
n f
w arn
al phabetic
it ical
is Closed
de posit
Ġre m
Ġre currence
ĠS UB
Ġb irthday
Ġs ay
Ġ1 89
iz ar
Ġm ass
qu iver
ĠM ultiple
end o
add BuilderFactory
ĠP agination
Ġt ur
Ġ2 25
ĠE pisode
sc alar
Axis Renderer
Time Picker
Ġsuper type
ĠEx change
val or
ĠRe po
Ġy es
ĠDe stination
Ġprint s
Ġor ig
roll ment
>> ((
For um
xff C
ens agem
Ġup grade
mod ification
fore ign
Notification Config
ãĥ ¡
Read Only
send ing
... ");
07 1
è¿ ŀ
Enter prise
pet it
Gen res
ĠÐ² Ñĭ
æĿ Ł
ĠbuilderFunc T
Ġpositional Args
NestedIrregularEvenBigger x
ĠEns ure
KGgoAAAANSUhEUg AA
" });
0 38
0 59
5 30
5 34
5 000
A ri
M ultipart
M ULTI
N F
R od
R ollout
Y um
d st
g k
l li
o ak
s ay
s ors
y b
æ Ł
é ĵ
Ġc u
il on
Ġp ushed
ĠC over
() ];
co v
co mpl
In surance
Ġd s
Re active
Con trast
ĠF ast
ĠF old
ĠA M
Pro vide
sc z
ome tries
ant a
ĠH ost
Item List
ĠIn s
we ak
var s
Api Service
bo ot
79 1
Ġhas Fields
Ġhe art
Trans lator
à¸ µ
web socket
Bottom Navigation
run e
08 4
ä» ĺ
94 3
è¯ Ń
gen res
block quote
57 1
API Resource
ĠId Uid
ĠHe aders
Ġiss uer
PR OPERTY
Ġsort By
Scan Result
Ġnetwork Info
ĠGenerated Message
Common Props
Redirect ing
éĶ ®
ĠAst Node
Appro val
wan android
Care t
TestIamPermission sRequest
Ġobt ained
Hlw ZW
Ġlex er
aHJv dy
. '''
5 88
6 39
7 16
= \"
B z
B LOCK
E asy
H S
P ing
Y s
j an
p d
s uch
u pe
or al
is Error
is Nullable
ĠS TR
get Key
get Field
un in
un packed
Ġb s
Ġp olygon
Ġchild ParentData
ĠF il
end Angle
ĠA D
add StatusListener
ĠP ull
Ġl ayers
Res pon
Ġde ferred
Ġon Horizontal
Ġon Secondary
ss o
To Dart
from Function
Value dItem
inter ps
Button Type
Button Label
ĠH D
ĠH OLD
Set IamPolicyRequest
From Database
sub scribed
ĠÐ Ĳ
write String
Ġtime In
event Type
Ġpre defined
search Tag
search Content
search Profile
search Security
search LastUpdated
90 3
à¸ ´
Line Color
Ph il
Post fix
Render ed
ĠDart Fix
Ġdebug ging
radi ans
video Controller
Permission Status
åħ Ī
ĠEvent StreamProvider
Refresh Indicator
dd dd
ĠField Rename
Ġtransform er
PX RoaXM
Ġtile Color
Ġskip ped
áº Ń
ä¿ ®
bre v
Ġsample dAt
notify Listeners
Should Notify
ĠST A
ki Ezsign
Chapter Id
Fade State
attach ments
IST S
EQ VR
Ġpatch es
ĠCancel Token
åľ° åĿĢ
yGNode StyleSet
boolean Value
ĠSlide Transition
ç¼ ĸ
ĠComm unity
Toolbar Height
ĠSto res
Forgot Password
ulli Id
Streamed Response
' $
4 72
5 99
? >>();
I y
N N
O a
Q X
T yp
W z
b S
g am
à ¯
é £
Ġ sed
on Start
on Surface
Ġc lo
th ickness
Ġ' ~
ol ates
ol ves
Ġf loor
00 400
Ġe mbed
ment um
St retch
Re act
ri an
ĠM ixin
ĠP B
ĠP ers
Ġis Password
Ġget Property
Ġtr iggers
ine ma
pro j
Ġtest Case
With Error
)) )),
app Id
fa ir
type Id
Request Url
&& "
Not Available
Ġy ellow
Ġ6 14
Event Args
IN DEX
Ġtype Id
sub Title
Or Success
Per form
Ġobject Type
Is Null
selected Item
AM P
ason ic
enum Values
br ity
Ġph rase
stream Controller
98 2
ition er
Ġmo or
Ġprovid ing
Ġiter ations
ĠGener ates
Ġclose st
ĠAc cept
ĠOr ganization
KH Qp
Ġcollection s
Upload DataSink
ĠVideo PlayerController
Op Codes
Ġgo To
pag ation
æĮ ģ
ĠMan ager
clip Behavior
Ø³ Øª
high charts
Diagnostics Node
Resolution Callback
Under Test
æĪĳ çļĦ
Ġlik ely
ìļ Ķ
Ban at
PARAM ETER
ĠSqfEntity Field
ĠDirect ive
Ġ////////////////////////////////////////////////////////////////// ////////////
éķ ¿
CmV sc
6 23
7 10
7 24
8 35
L DE
M l
R sa
T G
T m
U K
W X
[ -
n in
r il
s Authors
æ º
ë ³
re ed
Ġf lip
de pend
Ġb az
Ġp asses
00 74
he mer
Ġd na
Ġw ar
Ġm ult
up s
Ġin ject
Ġin fer
Ġt en
ĠE moji
ase d
Ġon EditingComplete
Ġco me
To urnament
av ors
ĠL Ã¡ng
Ġun icode
ĠU INT
type Provider
pb enum
ix a
ĠH ot
Ġ6 11
Ad aptive
From Swid
bl end
Ġsc alar
bo y
ĠAn ime
auth State
Ġ9 1
by Widget
Ġdo ctype
ãĤ Ĥ
()) ));
selected Color
do jo
47 1
ĠEn able
Ġparse Node
IF I
Ġqu ant
IL n
temp ted
cancel led
ĠOn boarding
Pan asonic
Work flow
Ã¡ n
ĠButton Theme
Ġcom bo
Ġaxis Renderer
Ġrest oration
Ġpa ren
ĠSerializ able
bot tle
lyrics Tags
lyrics Authors
texture Id
Leg al
Detection Request
ĠSo uth
USD T
Cool pad
Ġneg atable
ĠMov ies
å®½ åº¦
ĠValueListenable Builder
vTableGet Nullable
é¦ĸ é¡µ
Inapp products
ĠkA map
è¢ «
0 76
2 99
6 99
7 38
8 14
B uffers
E y
E val
J lc
N ome
O dd
Z DateTime
e mployee
k Default
p at
p olygon
r m
st orm
is After
ic ht
ro uting
ĠS E
ap pointment
Ġs ms
00 68
Ġe u
dart doc
el p
Ġt c
Ġ2 24
Ġ2 70
Ġon Delete
Ġ3 44
Map View
Ch anging
ĠL ong
Ġpro mpt
Ġan alyzed
ĠIn stant
>[ ]);
ra ff
Model CopyWithImpl
Ġ6 13
Ad ress
response Data
has Fields
Ġk Text
store d
ma W
IG H
Ġcomp osition
One Task
igh bor
Ġdocument Snapshot
Ġcl amp
az e
ĠDart Entry
Ġsign ing
ĠFlutter Project
Named Parameter
Ġparse Color
98 1
off ice
register Singleton
Ð¾Ð ·
Ġcustom erId
chat Id
Ġexp ired
player Id
dy wa
ĠpassStruct NestedIrregularEvenBiggerx
Ġscale Factor
ĠHT Error
Meta Version
ĠApi Service
Activity Indicator
Pe ak
did Change
ĠProfile Page
ti po
dispatch er
ìĿ ¼
ĠProperty Definition
å¹ ķ
Consumer Quota
pers istent
å¾ Ħ
har py
FFFFFF F
åİ »
ìł ķ
ĠgetProportionateScreen Height
Ġrgb Number
ĠOutline Button
ĠIncrement al
ĠLÃ¡ng wej
, $
7 29
7 44
7 65
9 78
A f
D N
D istribution
E u
G ot
H at
L AB
T Data
X mark
Y x
Z p
_ ${
m ay
m otion
s Path
t ains
z o
Ġ lect
on Value
at tempt
id ad
Ġf d
is Open
de g
Ġre venue
ac s
get Translated
Ġp atterns
ĠC ap
Ġ1 45
set MethodCallHandler
Ġst ories
Type Alias
ĠB lob
Data CopyWith
Pro venance
value Element
Ġ3 39
ĠG F
Se ats
eng ht
user Service
data sets
ann ers
ĠIn jector
Font Family
Event CopyWithImpl
Ġnot Implemented
Ġitem Extent
File Body
Google ProtobufEmpty
not In
TI V
80 55
ps ilon
Title Style
Scroll Notification
Ġdate time
local ity
jo ined
ĠLog Level
Profile State
ĠRo le
az izz
look s
man ufacturer
ict ures
SC REEN
Ag ree
FFFF F
Tree Sanitizer
Ã¡ l
Ġcomment AndMetadata
Ġ-- -
ĠDatabase Helper
property Name
ĠFake Command
èĥ ĮæĻ¯
Prod uction
æ¯ ı
Ġhapp ens
BytesNestedFloat x
ĠorderBy List
æīĢ æľī
æĮĩ å®ļ
efficient s
Ġsampl er
atern ion
( ';
2 70
5 38
5 85
D im
F loatingActionButton
G IN
H m
L N
O y
R om
T ar
Z a
b el
d im
f v
g z
g olden
h m
} (
re v
or o
un ar
Ġb ir
Ġv p
Ġ1 31
set Mock
el ines
Re p
(' {{
qu er
Ġin set
add Uint
ĠP H
oc currence
Ġl ambda
ĠE st
], ["
Ġex ercise
class Element
ĠR PC
sit ivity
ary ing
Ġse ek
Ġsh rink
Request FromJson
em its
image Cache
Message List
ĠEx tract
20 10
par abeac
Event Status
Ad vert
current Step
Ġadd ition
Ġsub sequent
child File
Comm a
Client Event
Th at
Details State
Border Side
Ġper f
cre ts
comp uted
pop Until
ãĤ ģ
Password Changed
ĠCustom AppBar
Ab M
'). .
go al
ĠHttp Headers
comple x
YS x
scroll Direction
Ġmark erId
Output s
report s
çĶ¨ äºİ
dir name
Ġì Ĺ
ĠAnimated Switcher
("/ "),
cn t
Ġdraw n
session Id
Ġtemplate s
Locations Response
Stat uses
symbol s
Ø¨ Ø±
Pub Key
Charge Item
ĠCurrent ly
123456 789
ĠstatusBar Color
due Date
Deleg ation
vile ge
ĠSpin Kit
ĠBu cket
KGgoAAAANSUhEUgAA AbM
5 39
7 12
9 55
B AN
B AD
K ar
P co
P RI
R tp
f w
g ym
s Id
s olver
w al
à ±
Ī ĺ
al and
tr ouble
is Base
de ck
de ploy
es o
get Download
Ġp ivot
to urnament
Ġs al
con sent
ĠC ert
ĠC lean
ort ion
imp licit
Ġ1 22
Ġ1 49
ext ends
ch ess
], "
sc hemas
str ands
date Element
Par k
build ers
ĠEx am
App Version
Un lock
Event Properties
Ġtype Element
Ġcont inuation
Image Source
title Controller
Ġ20 6
Or Node
font Color
raw Query
time Zone
Auth Token
40 1010
Ġover all
End Point
ÑĤ ÑĮ
AS US
tt ie
man ent
Ġcategory Id
cr ash
aj a
Ġtable t
åº ı
Ġlight Theme
hour glass
ĠAC TION
Effect s
BU G
(', ');
Ġmov ing
Leg end
Ġmiddle ware
ĠFade Animation
QR Code
è´ ¦
Subtype Match
Activ ities
Ġcards Demo
ĠScript OpCodes
Ġlik es
Less Than
KXtp Zih
" \
" ){
/ :
7 19
8 17
9 39
9 48
: **
A le
I W
P ip
R G
S ynthetic
U m
W ARNING
c D
m u
n ombre
Ð ¨
ç ģ
ì ĺ
er ical
re cover
or test
Ġre ached
ut Style
Ġb al
Ġb ridge
Ġs an
urn ey
import ant
ab ly
Ġo paque
ass istant
ĠA rea
Icon Brightness
To ur
Ġ3 85
Ġvalue Listenable
Ġg allery
ĠL es
Ġun related
type Of
Response ItemModel
ĠRe ader
User Credential
update MetaVersion
Ġ6 30
for um
Ġmap Controller
Action Sheet
All Contacts
Method Element
then Throw
Ġapp Theme
For File
ãģ Ŀ
Ġform s
Ġ{} ));
Comp arison
89 2
AB STRACT
html Colors
js og
AT ER
System UiOverlayStyle
man ently
Order ings
istri buted
channel Name
Ġqu arter
photo URL
div ide
Bool Result
Send Port
Ġobj List
primaryColor Dark
Ġdi agnost
}/ {
åº ķ
cs v
ĠHe ight
çĽ ĳ
(! _
Optional Group
ĠPri me
Ġatt endance
åŃĹ ç¬¦
lap top
Turn s
Episode s
åİ Ł
Der ived
fillColor Primary
anu ary
Sit uation
Ġasc ending
Banat District
3 69
5 23
6 73
9 36
B en
C ipher
H TO
M AN
Q e
R a
T icks
b lood
c ub
d ry
e quality
h M
y G
} ]
ĠĠ čĊ
al phabet
ar o
ct l
me z
is NotNull
ĠS ie
ĠS imul
Ġb log
00 700
ĠT x
Ġd ur
Ġa way
Re build
Ġ2 32
Ġget File
Ġget Constructor
[' ${
sh ooter
With Value
Time FromStart
Tr ash
Model FromJson
Info List
ĠRe gular
ĠRe currence
par a
ĠV A
Ġtype Provider
EN ABLED
ify ing
Ġsc enario
Ġadd To
Route Name
Str ip
ST OP
Per f
Out come
Ġser v
Ġj wt
Te le
ĠGet All
Ġpage Name
Sign Out
Ð½ Ðµ
à¸ Ĺ
Line Sync
so uth
bi ke
Server Failure
ĠPar ams
member Name
ĠFirebase Database
ĠSP ACING
Port al
Ġwhere Arguments
Sk ill
Ġback drop
Ġinclude IfNull
Ġaccess or
ĠNot ice
ĠBuilt Map
ĠpassStruct InlineArray
Ġrece ives
Primary Key
Full Name
super type
ĠRes erved
dialog flow
ĠId ent
Com ic
ĠNotification s
éĹ Ń
Ġpa used
disabled Color
KQ py
Ġpending Id
flat ten
stick ers
ĠMatch er
Ġdrop Down
Comb inator
Ð½Ñĭ Ð¹
datas ources
Foreign Enum
enumDecode Nullable
éªĮ è¯ģ
æĵ įä½ľ
/ ?
7 11
8 79
8 73
? */
C ities
C ms
F ar
F ine
F LO
I ENT
L IM
L UB
N ET
R B
S AN
b en
c andidate
r n
t ic
v table
w oman
y Ã¡
z x
is String
is Const
is Last
is Done
Ġ} ))
as an
Ġre cover
Ġre versed
ĠS ingleton
Ġp k
set UnsignedInt
Re covered
ĠP M
oc ations
ĠB inding
Ġon Event
pl ic
sc he
av ailability
Text s
ĠU l
Ex perience
Time Event
ud a
Sh irt
Button Style
Qu Y
ĠIn d
iv el
api Client
ĠDe claration
}) ");
Ġclass Builder
Me g
ang ent
IC T
uit s
ST ACK
cre ative
Direction s
Ġfind Element
ĠTest Source
>{ },
AS C
à¤ ¹
Bl end
Detail PageState
br ush
Custom Attribute
Ġservice Name
è¯ ´
Ġimplement ations
Ġmeet ing
pol ynomial
åº ĵ
Pe ers
free desktop
Lib re
Exit Code
cat en
bnVsb C
è· Ŀ
Ġdetermin ed
ĠPe er
ligh ter
BottomNavigationBar Item
ĠStroke Cap
assemb le
GAE gASg
adast ro
0 85
6 26
I AL
J m
P ulse
R w
V ec
W ire
X Lm
c S
y ZXR
Ġ Ñĥ
Ġ ÑģÑĤ
an ji
il o
is y
de tector
ĠS UCCESS
Ġn nbd
pe ts
Ġe poch
Ġ1 79
Ġw ish
ĠM A
ĠM ESSAGE
end docregion
Ġas k
fl uent
ĠList en
To Remove
Ġ3 70
ĠG NU
Ġg ro
Se g
ĠN one
Ġ5 000
enter prise
Tr unc
Item Count
Set PointRange
wh atsapp
Index er
Status Bar
current Value
current ly
Ġsub set
79 66
Lo s
Ġdis connect
ãģ ¿
request Uri
Ġlog gedIn
check in
Is Valid
Settings Travel
xFF D
Ġup on
Progress Bar
mod ifiers
Product List
58 1
off icial
Ġdef initions
Project Id
Ver se
video Id
Sk y
ĠArg on
DI O
Dark Color
PW I
Ġthere fore
ĠQuery Params
mZ v
Security Marks
Ġhost name
KQp z
wall paper
Ġsql Type
Ġreceive Port
Ġevalu ated
Ġopt s
Att ack
Paren thesis
ByteInt Int
Recover ableError
readAsBytes Sync
ĠScoped Model
ÐĽ ÑİÐºÑģ
è¯¦ æĥħ
æĲľ ç´¢
hemer al
5 49
J ul
O VER
R j
S X
S pread
b p
c aptured
f avourite
g cs
h ist
m c
s Ci
· æĸ°
â Ĩ
Ġ ----------------
in herit
Ġc id
se en
tr uck
Ġs aving
ĠT ouch
ch ats
ĠB illing
all ax
Ġg h
Ġfor Each
str a
date s
App User
Test Class
Status Code
ĠSc heduler
dis missed
Google SignIn
Route Element
child Directory
ãģ Ī
Be low
Ġat tempts
Ġ*/ ;
read Only
Device Use
def ining
Ġ15 00
by Icon
show s
Is ar
Version sResponse
lev ision
09 1
Mo st
76 1
LG Ip
Expression Visitor
Email Address
Widgets Localizations
Max Width
ffff f
Ġchannel Id
Ġlat Lng
ĠComp arable
è¿ ĺ
Ġstop watch
Ø± ÙĪ
system Temp
pa id
ric ing
Ġvalidate Status
Fn v
vm Service
PRE S
PRE CED
sheet s
LF N
real time
Ġcap abilities
ĠSend Port
Accessor Test
Ym Vy
Dio Error
ĠHtml Element
Ident ical
met ic
ĠBool Result
ĠAv atar
ìļ ©
Ġserbia Central
ĠRegist ration
Crash lytics
Simul ation
GRO UP
ĠserbiaCentral BanatDistrict
4 11
4 50
: ///
H V
P ager
R lc
c ht
d na
e gg
f ar
f lo
h dr
i ge
m IG
p oly
w ik
z ones
Ġ ic
ĵ ľ
on LongPress
er al
re currence
at sign
is LoggedIn
ur b
Ġre jected
ac le
Ġp oly
con fidence
Ġd r
Ġst d
Ġm m
ĠF S
ve aled
Ġ2 80
ĠB ranch
Ġtr ait
Ġr x
Pro vision
0000 7
'] ))
Ch ampion
Ġan alyze
ix x
ĠV ER
ĠV endor
Un checked
Event CurrentUserIs
ĠDe termines
Le arn
response String
pen ded
Ġcurrent Location
Collection s
Ġstr and
ĠCh ain
tal k
48 1
last Message
Ġcomp act
next Token
ĠOffset Widget
Menu Section
dG h
Tab Item
Ġinter preter
prec ed
Ġpass ing
Contact Permissions
Report Spec
ĠEn crypt
col ours
category Id
ĠWe ek
buildCounter GoogleCloudRetailV
total Price
ĠError Code
ç» ľ
access ibility
ĠRoute Information
KH Q
Ġì ķ
åį ¡
loaded fields
IP Packet
Ġdark Mode
Ġsort ing
ä¹ Ł
åĨ į
ĠPop ular
æĿ ĥ
ĠContact s
quiv al
Ġmov ed
ĠOB X
Ġbarrier Color
ÑĪ Ð»ÑİÐ¿Ð¾ÑĩÐ½Ð°Ñı
Ġjob s
Ġdelay ed
Oi J
Mi wt
Sa mpl
Ġalbum s
ĠInvoice Line
å¤§ å°ı
Ð¸ÑĤ ÑĮ
ĠPRO VID
OSPolicyResource PackageResource
ĠAg ent
ĠEasy Loading
Ray on
ĠPan el
ìĭ ľ
ĠretValue Ptr
PAY MENT
lastIndex Of
ĠPFN GL
gran ted
Roc m
aHJvdy BI
. )
5 19
B k
B IAEo
C ord
G h
J ar
O ps
Q E
U j
b etween
f est
h otel
j z
n O
n ally
s ince
t mdb
} `.
en vironments
al one
tr ate
it ter
ut ility
00 54
Ġo mit
Ġm atter
Ġin te
Ġis Connected
Ġ2 12
Type Of
Ġget ById
ir m
Ġde t
Ġon Item
Ġco upon
Key Set
loc ates
ĠD imens
To Text
ty p
ĠI yÃ¡
load Data
Item Component
ann o
Message Updated
Ġtext Painter
Info Entity
IN ST
Date time
ĠMaterial TapTargetSize
Search State
Get Field
Ġ40 37
lev ance
Ġcomp iled
Ġ'/ ':
Bl ade
Exp lore
ZX Nz
Ġinter ceptors
Column Width
ĠGlobal MaterialLocalizations
Sp r
Ġscreen s
Mock Controller
Ġcategory List
Ġtotal Count
YX Rpb
Cn M
scale Factor
pa ul
Ġag ree
ĠFl ame
UB LE
Pass Struct
include s
Rv Y
Esc ape
real me
ĠPerson al
Verification Data
Sx w
Ġsur vey
ĠPe ople
Persistent Header
Intrinsic Height
popular ity
\": \"
ĠOptim us
Ġche vron
Ġanimal s
è¶ ħ
Bookings Count
petit parser
PRECED ENCE
% ',
3 79
4 20
5 32
6 20
6 74
7 99
8 26
9 13
9 88
9 58
D raft
G ar
H N
L DI
M anga
R le
R um
S prites
U mV
d F
f utures
i á»
n om
p Code
p aging
p wd
s oc
u u
¦ ¬
ç ĥ
on Done
en cointer
Ġ' {{
ol ation
Ġre ally
get Uint
Ġb in
ĠC R
lo ttie
ĠT ar
Ġw all
ass ist
ĠF HIR
ot ions
Ġnull ToAbsent
Ġget Color
fl ask
To Bool
order ing
Ġvalue Boolean
ĠG Input
Ġg lyph
und ry
Sc heduler
ud ience
Ġy ang
Ġ6 19
list ed
Me et
As n
min Level
Action Type
Log ical
light B
read LineSync
Device Orientation
ps um
fi xtures
Ġpart ition
jo y
ĠTr igger
thin B
project Name
Video Annotation
normal ized
ĠToken Class
ĠTrans late
Ġcor relationId
Ġsend Message
Ġthrows Exception
ĠButton Bar
Ġweb hook
ĠSign ing
ĠDis cover
Activity Decorator
Ġcol lected
inner Html
Ġoption ally
ĠâĢ ¢
supported Locales
ĠInitial izes
æĸ¹ åĲĳ
ĠUt f
MC x
ĠQuestion naire
Fail ures
ĠDrag gable
BytesHomogeneousFloat x
WH ITE
els Like
æµ ģ
Ġmer chant
Land mark
âĸĪâĸĪ âķ
jdGlvbihhLG IsYy
Unsupported Error
Ġmis match
ISteam Input
GLMap State
æİ§ åĪ¶
Ġretrie ved
Communication Request
Ġven ue
ĠSpot ify
Ġocc ured
thermo meter
cla imer
hUT Ux
ĠIyÃ¡ pi
) '):
0 39
3 000
6 30
L IC
N ER
N amingSystem
P SI
R ated
T w
V K
W IDTH
Y outube
f ence
h one
m ime
m utation
n is
s C
s aW
u ZW
} {
Ð ļ
in ators
se vere
an um
as String
ĠC ss
In dia
Ġd l
set Map
set Uniform
Ġin tegr
od a
ĠP air
ve mber
Ġde pendent
ĠB alance
all ergy
Ġon Load
Ġco pied
mo to
from Uri
Ġ3 000
Ġ3 68
ĠWidget Tester
An other
ĠH old
image URL
icon Size
Ġtitle s
Ġch rome
Test bed
Ġ20 8
Method Codec
auth enticator
Sub scribed
ST AR
":" ",
Ġapp Info
Ġsource Id
parent Id
token Matches
Over lap
ĠUn ited
ear th
ĠSh immer
Password Reset
Ġdocument Id
version Element
handle Error
Ġtarget Type
åĪ «
åĪ Ŀå§ĭåĮĸ
08 1
channel Id
Ġav ailability
æĸ Ń
Ġne cess
QL l
Ġsk y
ric ao
record ing
Ġtemplate Url
release s
ĠDatabase Service
Stat istic
Ġop code
Ġfirebase Auth
Requested Event
Ġmanage d
Ġtw ice
getState InLibrary
ï¼ī ",
resolution Sink
ĠÑĩ ÑĤÐ¾
ceed ing
aaaa aaaa
ĠCrypto Key
ICAgICAgICAgICAg ICAgICAgICAgICAg
ĠMaps EventListener
5 76
9 33
: ");
: "),
D X
D ollar
R aisedButton
T pmdW
V n
V x
a OB
f ib
j Y
m ill
s entry
s andbox
t in
w alk
y an
º âİ
½ âİ
ë Ĥ
Ġ ans
Ġ english
is Favorite
is Mobile
de m
de tach
ĠS un
Ġp m
Ġp y
ist ical
Ġe in
In box
us d
List Widget
el li
ch air
json Res
Ġde stinations
Ġde hydrate
Ġ. ._
unt u
Ġ3 64
Ġ3 49
Ġg rocery
Ġ5 99
User Events
ĠV isual
wh ile
list Of
Ġle arn
00000000 000000
ĠAn chor
Ġdis h
posit ive
Ġupdate ShouldNotify
Search ing
Man ual
Ðµ Ñģ
Is In
09 2
DateTime Element
Link IdElement
static Type
apt or
Order ed
05 2
Di agnosis
ĠFirebase Analytics
Array Type
OL UME
YS xi
Http Response
cr m
Ġiter ation
å® ĥ
tool bar
Ġfl avor
ĠWeb hook
Ġæ ī
Router Delegate
Ġdraw ing
resolve With
Ġperson s
Ġ(){ },
Gen Image
ĠreturnStruct Argument
ĠÐº ÑĢ
olog ical
orange Accent
Ġind ices
ĠAnalysis Options
Ġsup ply
Ġoverlay Color
ĠCl amp
ĠProperty AccessorElement
ç§ į
ĠRange Error
PU gu
Ð½Ñĭ Ðµ
Ġdirective Records
ĠOverlay Entry
urs day
ĠassertHas Fix
Parsing Merge
Namespaced AccessorTest
ĠFrappe Doc
ĠCONTR ACT
trouble shooter
ĠPROVID ED
" })
5 78
5 74
8 69
8 37
C SC
K N
L int
T argeted
b olic
b udget
d w
d pr
g ra
j w
r h
s yn
y MMMd
z itive
Â ·
ì ľ
on Cancel
on Load
at ur
ion e
il k
de aths
Ġre connect
Ġs ingleton
Ġ" ../
Ġv el
In f
Ġd p
Ġd ots
Ġ0 2
ĠF org
qu i
ot ing
ĠĠĠĠĠĠĠĠĠĠĠĠĠĠĠĠĠĠĠĠĠĠĠĠĠĠĠĠĠĠĠĠ ĠĠ
add Offset
Ġis Checked
Ġ2 45
Size Multiplier
') ],
We ak
load More
ĠH E
iv ation
ĠRe search
ock s
Ġ6 17
ĠAl locates
Ġerror Border
ĠW HE
Method Declaration
Ġresponse String
event Id
GoogleCloud Policy
Desc ript
My Location
Ġinitial ly
IS ING
ĠTest Report
Ph D
lex icon
AM L
Ð¸ Ð·
Pre cedence
delete Sync
Ġinst alled
Custom erId
Video Capture
Bo ot
Ġ\ \
af yah
Properties Entry
Ġlibrary Source
Transition Route
Ð°Ð ¿
Ġcard Color
ĠSer ies
ä½ ķ
Ġpri vacy
Ġtemp orary
Ġflutter LocalNotificationsPlugin
ĠDevice Preview
pZ i
Upload DataProvider
ExplanationOfBenefit Detail
ĠWork space
Ġcover ed
ĠÐ¾ Ð´
ĠOver ride
ITE M
BU FFER
Ġ'ðŁ į
gate way
WebView Controller
ĠSelect ableText
Redirect s
Follow ing
Organ izer
ĠOff stage
Ġattr s
Ġexpanded Height
åĳ Ĭ
Ġappear ance
ĠOTHER WISE
ĠAllow s
ê³ ł
createUser WithEmailAndPassword
èĬ Ĥ
IEg uYih
ĠTY PE
HTO pCode
troubleshooter V
ĠWHE THER
GoogleCloudPolicy troubleshooterV
afyah ub
' ve
. '));
4 000
5 26
7 13
8 74
9 35
= ',
C ascade
H ER
Q H
R oman
c ri
d g
e lectric
g uild
k ite
r al
w c
Ä Ĳ
â ½
Ġ ilist
in to
re covery
ar gest
Ġc atalog
te tur
is Not
ur u
Ġre covery
Ġn ight
to Local
to Hex
Ġs ensor
con versations
ĠC at
Ġe ase
Ġst mt
Re cipient
et ization
im iento
Ġget Type
Ġde scribed
Color Filter
Ġbuild ers
ĠR ate
Ġg uild
Ġpro vince
Ġpro cesses
Ġpro bably
Ġ_$ _$
Model Request
Ar range
Ġ6 35
list Item
Node State
Theme Color
"] },{"
ph on
Method Invocation
not Keyword
string ify
Ġsource IdElement
Te ch
Dis cussion
Sign er
lev en
ll ar
Web view
Ġfunction ality
Menu State
à¤ ľ
my afyahub
Ġinter polation
cloud y
send Request
Ġcolumn sToSelect
select Columns
tab Index
ĠIN CLUDING
cc cc
dark Mode
ordin ator
ĠArg Parser
mode s
Ð°Ð» ÑĮ
yy y
Ðº Ð°Ð·
Contract Agent
Contract ValuedItem
Ġart work
Ġobjects Data
Constant Value
ĠVideo Player
Album s
Recogn ition
æŃ ¢
Sql Syntax
ĠEX PRESS
preload Fields
increment Counter
cons ume
Ol si
ĠSliverChild ListDelegate
ĠTemp erature
Wall paper
foreground Color
ighb ors
ĠLook up
BytesPackedInt x
nounce ment
ĠExpansion Tile
writ ten
Oper and
Ġack nowledge
ĠTod os
TERN AL
ĠtoText Internal
ºâİ ºâİ
½âİ ½âİ
Ġdehydrate Directives
0 49
0 73
7 36
9 34
? '),
A mer
D J
P t
b ic
h Z
m g
m ongo
n mobile
p acket
r oller
s Api
y Md
å ł
Ġ ach
al Address
al ternate
it ution
me et
ic ante
Ġre action
ad just
Ġp en
Ġp al
ap ur
to Equal
set Uint
List Screen
Ġo thers
Ġthe ory
ĠF inal
end ors
um a
od i
Widget Property
