{"<|endoftext|>":0,"<pad>":1,"!":2,"\"":3,"#":4,"$":5,"%":6,"&":7,"'":8,"(":9,")":10,"*":11,"+":12,",":13,"-":14,".":15,"/":16,"0":17,"1":18,"2":19,"3":20,"4":21,"5":22,"6":23,"7":24,"8":25,"9":26,":":27,";":28,"<":29,"=":30,">":31,"?":32,"@":33,"A":34,"B":35,"C":36,"D":37,"E":38,"F":39,"G":40,"H":41,"I":42,"J":43,"K":44,"L":45,"M":46,"N":47,"O":48,"P":49,"Q":50,"R":51,"S":52,"T":53,"U":54,"V":55,"W":56,"X":57,"Y":58,"Z":59,"[":60,"\\":61,"]":62,"^":63,"_":64,"`":65,"a":66,"b":67,"c":68,"d":69,"e":70,"f":71,"g":72,"h":73,"i":74,"j":75,"k":76,"l":77,"m":78,"n":79,"o":80,"p":81,"q":82,"r":83,"s":84,"t":85,"u":86,"v":87,"w":88,"x":89,"y":90,"z":91,"{":92,"|":93,"}":94,"~":95,"¡":96,"¢":97,"£":98,"¤":99,"¥":100,"¦":101,"§":102,"¨":103,"©":104,"ª":105,"«":106,"¬":107,"®":108,"¯":109,"°":110,"±":111,"²":112,"³":113,"´":114,"µ":115,"¶":116,"·":117,"¸":118,"¹":119,"º":120,"»":121,"¼":122,"½":123,"¾":124,"¿":125,"À":126,"Á":127,"Â":128,"Ã":129,"Ä":130,"Å":131,"Æ":132,"Ç":133,"È":134,"É":135,"Ê":136,"Ë":137,"Ì":138,"Í":139,"Î":140,"Ï":141,"Ð":142,"Ñ":143,"Ò":144,"Ó":145,"Ô":146,"Õ":147,"Ö":148,"×":149,"Ø":150,"Ù":151,"Ú":152,"Û":153,"Ü":154,"Ý":155,"Þ":156,"ß":157,"à":158,"á":159,"â":160,"ã":161,"ä":162,"å":163,"æ":164,"ç":165,"è":166,"é":167,"ê":168,"ë":169,"ì":170,"í":171,"î":172,"ï":173,"ð":174,"ñ":175,"ò":176,"ó":177,"ô":178,"õ":179,"ö":180,"÷":181,"ø":182,"ù":183,"ú":184,"û":185,"ü":186,"ý":187,"þ":188,"ÿ":189,"Ā":190,"ā":191,"Ă":192,"ă":193,"Ą":194,"ą":195,"Ć":196,"ć":197,"Ĉ":198,"ĉ":199,"Ċ":200,"ċ":201,"Č":202,"č":203,"Ď":204,"ď":205,"Đ":206,"đ":207,"Ē":208,"ē":209,"Ĕ":210,"ĕ":211,"Ė":212,"ė":213,"Ę":214,"ę":215,"Ě":216,"ě":217,"Ĝ":218,"ĝ":219,"Ğ":220,"ğ":221,"Ġ":222,"ġ":223,"Ģ":224,"ģ":225,"Ĥ":226,"ĥ":227,"Ħ":228,"ħ":229,"Ĩ":230,"ĩ":231,"Ī":232,"ī":233,"Ĭ":234,"ĭ":235,"Į":236,"į":237,"İ":238,"ı":239,"Ĳ":240,"ĳ":241,"Ĵ":242,"ĵ":243,"Ķ":244,"ķ":245,"ĸ":246,"Ĺ":247,"ĺ":248,"Ļ":249,"ļ":250,"Ľ":251,"ľ":252,"Ŀ":253,"ŀ":254,"Ł":255,"ł":256,"Ń":257,"ĠĠ":258,"ĠĠĠĠ":259,"ĠĠĠĠĠĠĠĠ":260,"on":261,"ĠĠĠ":262,"er":263,"in":264,"re":265,"at":266,"st":267,"or":268,"en":269,"ĠĠĠĠĠĠĠĠĠĠĠĠĠĠĠĠ":270,"ĠĠĠĠĠ":271,"al":272,"ar":273,"le":274,");":275,"ge":276,"Ġc":277,"Ġ=":278,"th":279,"//":280,"ĠĠĠĠĠĠĠ":281,"se":282,"te":283,"id":284,"Ġ'":285,"ion":286,"Ġ{":287,"tr":288,"ing":289,"an":290,"it":291,"ol":292,"),":293,"il":294,"Ġf":295,"ct":296,"me":297,"is":298,"de":299,"Ġ}":300,"ent":301,"ate":302,"xt":303,"ic":304,"ro":305,"ur":306,"as":307,"Ġ_":308,"age":309,"Ġre":310,"mp":311,"ac":312,"es":313,"Ġth":314,"ul":315,"ĠĠĠĠĠĠĠĠĠ":316,"Ġ(":317,"ig":318,"ĠS":319,"ut":320,"get":321,"ild":322,"ue":323,"un":324,"ad":325,"Ġn":326,"art":327,"pe":328,"Ġ//":329,"Ġb":330,"Ġp":331,"tring":332,"ap":333,"to":334,"Ġs":335,"Ġ\"":336,"con":337,"ĠC":338,"ist":339,"00":340,"ĠĠĠĠĠĠĠĠĠĠĠ":341,"Ġv":342,"Ġe":343,"if":344,"lo":345,"ation":346,"int":347,"Ġcon":348,"ack":349,"ort":350,"ame":351,"()":352,"ĠT":353,"**":354,"';":355,"',":356,"urn":357,"ment":358,"he":359,"turn":360,"co":361,"In":362,"olor":363,"St":364,"text":365,"dart":366,"imp":367,"ver":368,"Ġreturn":369,"ed":370,"Ġd":371,"Ġ),":372,"ĠĠĠĠĠĠĠĠĠĠĠĠĠ":373,"Ġ1":374,"Ġa":375,"inal":376,"ter":377,"ht":378,"Ġ0":379,"import":380,"son":381,"us":382,"ce":383,"Ġfinal":384,"set":385,"ab":386,"am":387,"List":388,"Ġ=>":389,"Ġo":390,"ont":391,"Ġst":392,"ext":393,"ode":394,"Ġw":395,"();":396,"alue":397,"iz":398,"Ġ///":399,"hild":400,"el":401,"ype":402,"ull":403,"Ġ@":404,"Re":405,"uild":406,"Ġthe":407,"String":408,"idget":409,"ĠĠĠĠĠĠĠĠĠĠĠĠĠĠĠ":410,"\",":411,"Ġm":412,"ass":413,"Ġ[":414,"ction":415,"ey":416,"ackage":417,"Ġif":418,"et":419,"ata":420,"ew":421,"ch":422,"':":423,"Con":424,"ight":425,"('":426,"res":427,"Ġchild":428,"up":429,"ĠF":430,"qu":431,"ot":432,"package":433,"ide":434,"Ġthis":435,"Ġin":436,"ĠString":437,"ri":438,"yn":439,"Ġconst":440,"ĠM":441,"ain":442,"ĠĠĠĠĠĠĠĠĠĠĠĠĠĠĠĠĠĠĠĠĠĠĠĠĠĠĠĠĠĠĠĠ":443,"end":444,"um":445,"ub":446,"ult":447,"ial":448,"ĠA":449,"add":450,"over":451,"od":452,"\":":453,"ign":454,"Ġas":455,"Ġnull":456,"State":457,"ĠP":458,"lass":459,"Ġto":460,"ff":461,"ve":462,"čĊ":463,"Ġt":464,"--":465,"****":466,"Widget":467,"ren":468,"pt":469,"test":470,"ow":471,"De":472,"oc":473,"ride":474,"ay":475,"able":476,"ĠText":477,"override":478,"Ġis":479,"ĠĠĠĠĠĠĠĠĠĠĠĠĠĠĠĠĠ":480,"Ġl":481,"Ġ2":482,"Type":483,"and":484,"im":485,"ire":486,"ĠE":487,"ure":488,"ile":489,"ect":490,"rom":491,"Ġget":492,"ase":493,"Co":494,"ord":495,"json":496,"Ġ$":497,"Res":498,"Icon":499,"ize":500,"],":501,"yle":502,"ir":503,"Ġ);":504,"Ġde":505,"ĠB":506,"ĠĠĠĠĠĠĠĠĠĠĠĠĠĠĠĠĠĠĠ":507,"all":508,"oll":509,"ser":510,"ith":511,"ess":512,"oo":513,"lement":514,"oid":515,"ity":516,"Ġ:":517,"Ġon":518,"Ġex":519,"ror":520,"Ġ==":521,"ss":522,"ath":523,"orm":524,"ption":525,"Ġ.":526,"class":527,"Ġco":528,"ject":529,"name":530,"pl":531,"atic":532,"Data":533,"Json":534,"Key":535,"Ġ<":536,"po":537,"ag":538,"Ġ*":539,"ĠColor":540,"Al":541,"ait":542,"ice":543,"ime":544,").":545,"Id":546,"loc":547,"Ġtr":548,"Ġvar":549,"Ġ?":550,"fl":551,"pect":552,"key":553,"));":554,"ite":555,"ĠĠĠĠĠĠĠĠĠĠĠĠĠĠĠĠĠĠĠĠĠ":556,"per":557,"///":558,"act":559,"ync":560,"que":561,"ail":562,"iel":563,"Ġr":564,"sion":565,"ield":566,"ool":567,"ĠD":568,"Ġnew":569,"Pro":570,"Build":571,"ine":572,"utter":573,"Ġh":574,"Color":575,"Ġint":576,"li":577,"ĠList":578,"Ġstatic":579,"value":580,"Name":581,"wait":582,"Ġ});":583,"ory":584,"pon":585,"To":586,"oller":587,"''":588,"troller":589,"erial":590,"our":591,"ted":592,"(\"":593,"Ġext":594,"sc":595,"quest":596,"['":597,"Ġ!":598,"0000":599,"ĠĠĠĠĠĠĠĠĠĠĠĠĠĠĠĠĠĠĠĠĠĠĠ":600,"context":601,"Ġres":602,"ponse":603,"mo":604,"ox":605,"Ġof":606,"Ġ()":607,"reate":608,"unt":609,"Ġbuild":610,"Ġawait":611,"from":612,"amic":613,"ynamic":614,"10":615,"Ġ3":616,"idth":617,"ance":618,"flutter":619,"');":620,"iew":621,"ex":622,"ends":623,"order":624,"Ġvalue":625,"dex":626,"Map":627,"sed":628,"Ġ!=":629,"itle":630,"']":631,"ĠO":632,"odel":633,"Ġcolor":634,"ĠSt":635,"sh":636,"ĠR":637,"ator":638,"ĠG":639,"bject":640,"av":641,"ignment":642,"sit":643,"tp":644,"Ġextends":645,"ard":646,"core":647,"rent":648,"Ġg":649,"om":650,"und":651,"unction":652,"ary":653,"Ġcontext":654,"********":655,"aterial":656,"En":657,"uture":658,"Ġasync":659,"ery":660,"alse":661,"arg":662,"Ġfont":663,"height":664,"Ch":665,"ive":666,"vent":667,"Ġvoid":668,"Ġfor":669,"xis":670,"ĠĠĠĠĠĠĠĠĠĠĠĠĠĠĠĠĠĠĠĠĠĠĠĠĠ":671,"Ap":672,"ty":673,"ers":674,"ome":675,"str":676,"ired":677,"utt":678,"date":679,"pro":680,"ange":681,"ĠL":682,"Size":683,"Ġexpect":684,"ute":685,"----":686,"Style":687,"')":688,"ore":689,"ĠColors":690,"Ġtest":691,"Ġun":692,"Ġjson":693,"ind":694,"adding":695,"Value":696,"Ġtrue":697,"this":698,"ib":699,"vice":700,"Se":701,"Ġset":702,"ĠI":703,"(),":704,"Sc":705,"quired":706,"Axis":707,"Ġ+":708,"Page":709,"eng":710,"rror":711,"ber":712,"sets":713,"Ġfalse":714,"Icons":715,"uper":716,"utton":717,"est":718,"Ġ],":719,"uct":720,"Text":721,"adi":722,"Ġ},":723,"row":724,"ast":725,"Ġme":726,"Context":727,"ource":728,"out":729,"og":730,"ck":731,"put":732,"Controller":733,"Ġbe":734,"Ġ-":735,"mple":736,"Po":737,"ĠN":738,"old":739,"'),":740,"ace":741,"Error":742,"Element":743,"._":744,"user":745,"vid":746,"Ġse":747,"gle":748,"fo":749,"ĠU":750,"ies":751,"ainer":752,"=\"":753,"ĠĠĠĠĠĠĠĠĠĠĠĠĠĠĠĠĠĠĠĠĠĠĠĠĠĠĠ":754,"oub":755,"form":756,"ly":757,"ouble":758,"With":759,"Ex":760,"ken":761,"ded":762,"Ġkey":763,"qual":764,"atch":765,"ength":766,"..":767,"ans":768,"uth":769,"Time":770,"((":771,"We":772,"of":773,"py":774,"))":775,"Ġbool":776,"ant":777,"Code":778,"ener":779,"ffset":780,"Ġpro":781,"sition":782,"http":783,"app":784,"ud":785,"inter":786,"ĠFuture":787,"];":788,"reen":789,"Ġname":790,"ĠThe":791,"com":792,"atus":793,"ak":794,"ontainer":795,"essage":796,"32":797,"Alignment":798,"io":799,"thod":800,"Ġchildren":801,"ill":802,"Sh":803,"01":804,"ument":805,"Ġ4":806,"Ġdynamic":807,"ĠWidget":808,"Ġ5":809,"heck":810,"Ġsh":811,"Field":812,"fa":813,"code":814,"enter":815,"line":816,"adius":817,"ther":818,"Tr":819,"ĠÃ":820,"ref":821,"dge":822,"An":823,"Builder":824,"ress":825,"AxisAlignment":826,"lse":827,"ash":828,"ated":829,"data":830,"({":831,"type":832,"ip":833,"stance":834,"ĠState":835,"Ġ_$":836,"Ġand":837,"Ġan":838,"pb":839,"cor":840,"Ġstyle":841,"error":842,"Request":843,"red":844,"ĠĠĠĠĠĠĠĠĠĠĠĠĠĠĠĠĠĠĠĠĠĠĠĠĠĠĠĠĠ":845,"ix":846,"load":847,"urrent":848,"12":849,"Par":850,"Ġsuper":851,"em":852,"tem":853,"ax":854,"cess":855,"Ġunit":856,"ody":857,"ifi":858,"Insets":859,"item":860,"Response":861,"By":862,"Button":863,"vider":864,"&&":865,"ĠContainer":866,"arch":867,"dgeInsets":868,"Ġcreate":869,"ĠIcon":870,"Box":871,"Ġelse":872,"fault":873,"ĠEdgeInsets":874,"Result":875,"ust":876,"ĠH":877,"port":878,"Ġheight":879,"BuildContext":880,"ssage":881,"umber":882,"ft":883,"Item":884,"Ġdata":885,"(_":886,"own":887,"View":888,"64":889,"image":890,"build":891,"Bar":892,"ia":893,"Ġresult":894,"Qu":895,"coration":896,"ann":897,"ĠIn":898,"Ġarg":899,"iv":900,"Ġunittest":901,"one":902,"[\"":903,"Ġid":904,"cted":905,"Message":906,"11":907,"ree":908,"oogle":909,"fig":910,"24":911,">[":912,"ĠEx":913,"Ġcore":914,"20":915,"cont":916,"rint":917,"ication":918,"Ġtext":919,"Ġwith":920,"Radius":921,">(":922,"Ġwh":923,"ert":924,"ĠĠĠĠĠĠĠĠĠĠĠĠĠĠĠĠĠĠĠĠĠĠĠĠĠĠĠĠĠĠĠ":925,"Set":926,"Ġ`":927,"Ġ)":928,"try":929,"roup":930,"icon":931,"val":932,"Ġ&&":933,"Ġwidth":934,"Ġwidget":935,"ra":936,"api":937,"16":938,"Model":939,"Info":940,"ĠRe":941,"mage":942,"par":943,"ĠMap":944,"olum":945,"Not":946,"olumn":947,"length":948,"ĠTextStyle":949,"void":950,"ne":951,"scri":952,"ob":953,"ER":954,"use":955,"ized":956,"ink":957,"uration":958,"lection":959,"},":960,"quals":961,"Ġ..":962,"().":963,"log":964,"App":965,"Font":966,"file":967,"tes":968,"url":969,"Ġ/":970,"query":971,"Ġi":972,"Ser":973,"Ġcase":974,"Ar":975,"Ġdouble":976,"User":977,"lient":978,"op":979,"cl":980,"Ġtitle":981,"ĠV":982,"map":983,"pyWith":984,"irc":985,"ock":986,"25":987,"Ġy":988,"Weight":989,"].":990,"Ġpadding":991,"\",\"":992,"ream":993,"lay":994,"\");":995,"update":996,"://":997,"ptions":998,"ick":999,"mpty":1000,"Un":1001,"-.":1002,"\";":1003,"75":1004,"Ġ6":1005,"ular":1006,"pan":1007,"wh":1008,"color":1009,"Ġrequired":1010,"mm":1011,"Event":1012,"path":1013,"99":1014,"ĠFunction":1015,"ug":1016,"IN":1017,"ension":1018,"****************":1019,"Ġal":1020,"Ġ(_":1021,"heme":1022,"avig":1023,"ting":1024,"Ġpar":1025,"ence":1026,"Ġnot":1027,"ĠDe":1028,"low":1029,"Ġtype":1030,"tom":1031,"ameter":1032,"Ad":1033,"Ġch":1034,"18":1035,"Date":1036,"fromJson":1037,"back":1038,"Up":1039,"Ġthat":1040,"ark":1041,"})":1042,"widget":1043,"Ġ|":1044,"////":1045,"Ġcont":1046,"abel":1047,"Ġ??":1048,"count":1049,"Ġprint":1050,"Ro":1051,"14":1052,"word":1053,"cond":1054,"Ġ10":1055,"He":1056,"orderRadius":1057,"ĠĠĠĠĠĠĠĠĠĠĠĠĠĠĠĠĠĠĠĠĠĠĠĠĠĠĠĠĠĠĠĠĠ":1058,"round":1059,"Ġclass":1060,"--------":1061,"ical":1062,"Ġpath":1063,"());":1064,"Query":1065,"(()":1066,"ook":1067,"Ġthrow":1068,"list":1069,"30":1070,"Me":1071,"ang":1072,"../":1073,"irst":1074,"are":1075,"Ġor":1076,"ml":1077,"Ġmain":1078,"ptr":1079,"const":1080,"ample":1081,"lect":1082,"Object":1083,"ON":1084,"material":1085,"rc":1086,"we":1087,"der":1088,"rary":1089,"dit":1090,"ĠPo":1091,"lock":1092,"ork":1093,"actory":1094,"Number":1095,"15":1096,"Test":1097,"ations":1098,"ĠAp":1099,"model":1100,"ep":1101,"ottom":1102,"Ġlist":1103,"Node":1104,"Index":1105,"init":1106,"Theme":1107,"'''":1108,"rite":1109,"Pres":1110,"Offset":1111,"Loc":1112,"ams":1113,"Change":1114,"Image":1115,"state":1116,"var":1117,"Token":1118,"Ġitem":1119,"index":1120,"From":1121,"Ġ8":1122,")),":1123,"Ġuser":1124,"EN":1125,"bool":1126,"Int":1127,"pec":1128,"ke":1129,"ocument":1130,"scription":1131,"fer":1132,"ule":1133,"33":1134,"Path":1135,"As":1136,"null":1137,"Ġen":1138,"ale":1139,"ollection":1140,"result":1141,"At":1142,"src":1143,"ĠAl":1144,"Ġfile":1145,"Ġle":1146,"bl":1147,"izedBox":1148,"00000000":1149,"Ġpo":1150,"ground":1151,"ĠÃĹ":1152,"\"),":1153,"ross":1154,"ank":1155,"arent":1156,"Ġby":1157,"rl":1158,"Ġerror":1159,"ify":1160,"ains":1161,"FF":1162,"base":1163,"title":1164,"Ġcan":1165,"imation":1166,"ifier":1167,"Pressed":1168,"ader":1169,"ails":1170,"ĠĠĠĠĠĠ":1171,"play":1172,"roll":1173,"uc":1174,"Ext":1175,"view":1176,"Ġsc":1177,"ĠSizedBox":1178,">>":1179,"dynamic":1180,"field":1181,"lat":1182,"ateg":1183,"Empty":1184,"Status":1185,"vert":1186,"toString":1187,"__":1188,"Url":1189,"Tag":1190,"Ġ20":1191,"start":1192,"Ġit":1193,"ĠĠĠĠĠĠĠĠĠĠĠĠĠĠĠĠĠĠĠĠĠĠĠĠĠĠĠĠĠĠĠĠĠĠĠ":1194,"ĠW":1195,"ĉĉ":1196,"Ac":1197,"ong":1198,"${":1199,"\"]":1200,"ĠObject":1201,"page":1202,"rice":1203,"https":1204,"equals":1205,"zed":1206,"mpon":1207,"white":1208,"mponent":1209,"ics":1210,"File":1211,"ĠMaterial":1212,"sub":1213,"loud":1214,"ustom":1215,"message":1216,"ere":1217,"pres":1218,"mpl":1219,"ound":1220,"lected":1221,"IC":1222,"current":1223,"required":1224,"ade":1225,"reezed":1226,"Count":1227,"width":1228,"19":1229,"ask":1230,"right":1231,"circ":1232,"50":1233,"ues":1234,"Form":1235,"13":1236,"for":1237,"vg":1238,"Config":1239,"gist":1240,"unter":1241,"Ġmap":1242,"?.":1243,"uff":1244,"Le":1245,"Service":1246,"17":1247,"ĠFont":1248,"sp":1249,"move":1250,"ach":1251,"Provider":1252,"ception":1253,"ersion":1254,"ĠfontSize":1255,"foo":1256,"Screen":1257,"Det":1258,"Ġcall":1259,"<$":1260,"rap":1261,"ph":1262,"ww":1263,"Of":1264,"Or":1265,"ilter":1266,"Ġval":1267,"ĠSc":1268,"enc":1269,"tings":1270,"min":1271,"ĠColumn":1272,"28":1273,"center":1274,"Ġfrom":1275,"annel":1276,"dis":1277,"Ġadd":1278,"==":1279,"Ġ16":1280,"expect":1281,"Ġ||":1282,"Ġinit":1283,"create":1284,"ĠApp":1285,"mary":1286,"Google":1287,"Tap":1288,"ĠPro":1289,"ĠCo":1290,"Ġx":1291,"ĠonPressed":1292,"ĠBox":1293,"Action":1294,"TE":1295,"77":1296,"Ġcheck":1297,"ave":1298,"assword":1299,"''',":1300,"ily":1301,"Route":1302,"Ġbody":1303,"All":1304,"34":1305,"Cont":1306,"uld":1307,"uit":1308,"Ġass":1309,"nap":1310,"ID":1311,"ignore":1312,"Ġother":1313,"top":1314,"ĠÃ·":1315,"aff":1316,"size":1317,"Ġfreezed":1318,"000":1319,"ibrary":1320,"font":1321,"aint":1322,"Ġsize":1323,"AR":1324,"!.":1325,"kB":1326,"response":1327,"irect":1328,"Ġimp":1329,"Ġsub":1330,"Ġindex":1331,"Ġbuilder":1332,"Ġfactory":1333,"rossAxisAlignment":1334,"Ġ})":1335,"Api":1336,"CopyWith":1337,"Fam":1338,"Decoration":1339,"ading":1340,"Arg":1341,"serv":1342,"ache":1343,"bo":1344,"arget":1345,"ification":1346,"Ġ@$":1347,"66":1348,"shot":1349,"Ġquery":1350,"perty":1351,"Str":1352,"]);":1353,"duct":1354,"ie":1355,"'],":1356,"79":1357,"new":1358,"70":1359,"pre":1360,"Ġ>":1361,"Method":1362,"action":1363,"ialog":1364,"contains":1365,"ĠAn":1366,"ĠsetState":1367,"auth":1368,"Log":1369,"avigator":1370,"Null":1371,"OR":1372,"has":1373,"ackground":1374,"Ġk":1375,"29":1376,"Ġstate":1377,"used":1378,"other":1379,"pri":1380,"only":1381,"Hand":1382,"reak":1383,"wes":1384,"Ġicon":1385,"wesome":1386,"Ġinstance":1387,"38":1388,"pen":1389,"Add":1390,"Ġro":1391,"Lo":1392,"ShkB":1393,"then":1394,"ym":1395,"44":1396,"Sub":1397,"ĠPadding":1398,"ShkBShkB":1399,"60":1400,"no":1401,"ould":1402,"napshot":1403,"Extension":1404,"ful":1405,"ĠMain":1406,"yp":1407,"Ġmessage":1408,"><":1409,"ĠPointer":1410,"ST":1411,"affold":1412,"vo":1413,"child":1414,"\":\"":1415,"ĠĠĠĠĠĠĠĠĠĠĠĠĠĠĠĠĠĠĠĠĠĠĠĠĠĠĠĠĠĠĠĠĠĠĠĠĠ":1416,"svg":1417,"Input":1418,"KG":1419,"lear":1420,"55":1421,"ude":1422,"ategory":1423,"Family":1424,"light":1425,"Ġapp":1426,"less":1427,"Ġdis":1428,"Ġresponse":1429,"Call":1430,"Options":1431,"});":1432,"ger":1433,"Ġdecoration":1434,"posit":1435,"mis":1436,"Ġshow":1437,"Counter":1438,"work":1439,"Ġmethod":1440,"lete":1441,"lob":1442,"ĠDate":1443,"refer":1444,"ĠTheme":1445,"Ġ'../":1446,"Width":1447,"sing":1448,"++":1449,"Ġignore":1450,"Comm":1451,"JsonKey":1452,"second":1453,"22":1454,"raw":1455,"Ġ${":1456,"ush":1457,"ĠÐ":1458,"On":1459,"Awesome":1460,"Ġimage":1461,"ĠCon":1462,"uffer":1463,"ng":1464,"For":1465,"ec":1466,"ative":1467,"Ġupdate":1468,"Ð°":1469,"Edit":1470,"hash":1471,"Ġhas":1472,"ices":1473,"Ġcode":1474,"OD":1475,"78":1476,"ãģ":1477,"request":1478,"part":1479,"Ġhe":1480,"Ġcurrent":1481,"Ġrequest":1482,"68":1483,"not":1484,"Be":1485,"nal":1486,"Ġwhen":1487,"write":1488,"position":1489,"return":1490,"mail":1491,"Ġat":1492,"icen":1493,"lements":1494,"Ġ*/":1495,"ĠRow":1496,"Per":1497,"imple":1498,"Ġbreak":1499,"SE":1500,"trans":1501,"ĠfontFamily":1502,"irection":1503,"Val":1504,"AL":1505,"Client":1506,"35":1507,"ĠFontWeight":1508,"Ġac":1509,"65":1510,"ĠIconData":1511,">?":1512,"edia":1513,"ĠTh":1514,"])":1515,"Bytes":1516,"Ġare":1517,"Ġassert":1518,"read":1519,"string":1520,"Gener":1521,"Ġwill":1522,"AN":1523,"Material":1524,"ender":1525,"yst":1526,"Mode":1527,"circular":1528,"Update":1529,"Search":1530,"HJ":1531,"Ġloc":1532,"Ġdefault":1533,"valid":1534,"rid":1535,"first":1536,"ils":1537,"Ġ9":1538,"bu":1539,"TI":1540,"39":1541,"Function":1542,"Home":1543,"Collection":1544,"Ġ$_":1545,"angu":1546,"oriz":1547,"Ġnode":1548,"ou":1549,"Cloud":1550,"toList":1551,"comm":1552,"pac":1553,"anguage":1554,"TagNumber":1555,"vel":1556,"ideo":1557,"pository":1558,"time":1559,"Ġmax":1560,"Ġ00":1561,"Ġspec":1562,"Ġcontroller":1563,"74":1564,"ĠĠĊ":1565,"Th":1566,"Ġcontent":1567,"Ġright":1568,"Device":1569,"Auth":1570,"pose":1571,"Card":1572,"ating":1573,"store":1574,"Library":1575,"cur":1576,"Parameter":1577,"ĠĠĠĠĠĠĠĠĠĠĠĠĠĠĠĠĠĠĠĠĠĠĠĠĠĠĠĠĠĠĠĠĠĠĠĠĠĠĠ":1578,"Params":1579,"ape":1580,"pression":1581,"let":1582,"enu":1583,"ystem":1584,"LE":1585,"lobal":1586,"Des":1587,"nection":1588,"status":1589,"icense":1590,"Height":1591,"ference":1592,"Out":1593,"ake":1594,"ĠNavigator":1595,"80":1596,"UE":1597,"irebase":1598,"parse":1599,"Instance":1600,"lib":1601,"ps":1602,"latform":1603,"uccess":1604,"ified":1605,"Ġstr":1606,"be":1607,"uctor":1608,"ĠonTap":1609,"Align":1610,"appl":1611,"fulWidget":1612,"ocus":1613,"default":1614,"element":1615,"iable":1616,"its":1617,"ĠfontWeight":1618,"Ġapi":1619,"};":1620,"Ġtime":1621,"RE":1622,"hed":1623,"ĠCh":1624,"){":1625,"////////":1626,"style":1627,"ry":1628,"lessWidget":1629,"Uri":1630,"Changed":1631,"Ġend":1632,"export":1633,"ys":1634,"lutter":1635,"erializ":1636,"ident":1637,"Gg":1638,"ible":1639,"xf":1640,"69":1641,"ma":1642,"Get":1643,"ĠborderRadius":1644,"ĠBorderRadius":1645,"ĠStatelessWidget":1646,"Ġfield":1647,"Ġsource":1648,"AC":1649,"down":1650,"ared":1651,"ler":1652,"ner":1653,"Position":1654,"final":1655,"rag":1656,"ript":1657,"fields":1658,"max":1659,"Group":1660,"Ġlog":1661,"nullable":1662,"gress":1663,"Details":1664,"Equal":1665,"Ð¾":1666,"xff":1667,"wit":1668,"Exception":1669,"ta":1670,"40":1671,"Ġwe":1672,"ĠDateTime":1673,"\">":1674,"Ġevent":1675,"ĠCard":1676,"body":1677,"call":1678,"cent":1679,"Ġser":1680,"abled":1681,"ote":1682,"Title":1683,"seconds":1684,"lose":1685,"def":1686,"place":1687,"Ġ12":1688,"Ġbackground":1689,"Ġuse":1690,"Ġtester":1691,"andle":1692,"event":1693,"'];":1694,"ich":1695,"Ġ15":1696,"check":1697,"ĠMainAxisAlignment":1698,"Ġj":1699,"Constr":1700,">();":1701,"controller":1702,"ĠSe":1703,"screen":1704,"Man":1705,"ray":1706,"Border":1707,"ector":1708,"Bloc":1709,"Dialog":1710,"lector":1711,"Ġobject":1712,"ager":1713,"Ðµ":1714,"ubl":1715,"Ġ7":1716,"cept":1717,"node":1718,"Ġstart":1719,"sign":1720,"Source":1721,"orage":1722,"Struct":1723,"fe":1724,"Class":1725,"Ut":1726,"Future":1727,"untry":1728,"ä¸":1729,"([":1730,"by":1731,"Ġtop":1732,"aded":1733,"GoogleCloud":1734,"ĠcreateState":1735,"ĠmainAxisAlignment":1736,"GgHJ":1737,"----------------":1738,"ens":1739,"trib":1740,"org":1741,"GgHJGgHJ":1742,"Price":1743,"black":1744,"Ġ11":1745,"Ġ};":1746,"ĠThis":1747,"point":1748,"os":1749,"ĠStatefulWidget":1750,"Ġlabel":1751,"Te":1752,"ĠScaffold":1753,"show":1754,"85":1755,"board":1756,"jc":1757,"And":1758,"Dis":1759,"ĠExample":1760,"Child":1761,"ypes":1762,"bug":1763,"ĠGet":1764,"Impl":1765,"TH":1766,"parent":1767,"Pointer":1768,"double":1769,"di":1770,"Ġpage":1771,"Ġelement":1772,"Ġ+=":1773,"ĠIcons":1774,"witch":1775,"Point":1776,"ines":1777,"orizont":1778,"Trans":1779,"ok":1780,"atab":1781,"ell":1782,"Ġmin":1783,"tric":1784,"etwork":1785,"Ġgroup":1786,"vate":1787,"argin":1788,"atter":1789,"Base":1790,"mission":1791,"********************************":1792,"ined":1793,"ov":1794,"uments":1795,"Side":1796,"orizontal":1797,"ES":1798,"ĠJ":1799,"tal":1800,"Tile":1801,"iter":1802,"left":1803,"atabase":1804,"ĠĠĠĠĠĠĠĠĠĠĠĠĠĠĠĠĠĠĠĠĠĠĠĠĠĠĠĠĠĠĠĠĠĠĠĠĠĠĠĠĠ":1805,"45":1806,"AU":1807,"bar":1808,"peration":1809,"KGUE":1810,"resh":1811,"gre":1812,"Ġpre":1813,"Is":1814,"KGUEKGUE":1815,"led":1816,"Inter":1817,"df":1818,"gr":1819,"ctor":1820,"ero":1821,"Ġimplements":1822,"Ġper":1823,"widgets":1824,"ka":1825,"23":1826,"stract":1827,"amp":1828,"ho":1829,"Content":1830,"Property":1831,"gister":1832,"proto":1833,"push":1834,"containsKey":1835,"cord":1836,"Ġall":1837,"Stream":1838,"Ġtry":1839,"Ġ__":1840,"]),":1841,"Scroll":1842,"Component":1843,"rop":1844,"ĠBoxDecoration":1845,"Ġout":1846,"dic":1847,"adata":1848,"lease":1849,"ĠCenter":1850,"Equality":1851,"Desc":1852,"FontAwesome":1853,"Pl":1854,"\")":1855,"ui":1856,"Length":1857,"48":1858,"Ġclear":1859,"ĠIf":1860,"26":1861,"instance":1862,"raph":1863,"Version":1864,"Ġ'|":1865,"Ġauth":1866,"Play":1867,"panded":1868,"ments":1869,"search":1870,"ĠDeep":1871,"uid":1872,"Ġlate":1873,"leg":1874,"ish":1875,"ility":1876,"CollectionEquality":1877,"cre":1878,"ĠDeepCollectionEquality":1879,"Ġurl":1880,"comp":1881,"Ġ(!":1882,"90":1883,"with":1884,"Sign":1885,"main":1886,"link":1887,"Ġ{\"":1888,"find":1889,"Channel":1890,"content":1891,"ino":1892,"Ġform":1893,"Ġshould":1894,"Ġused":1895,"utes":1896,"ature":1897,"the":1898,"ĠbuildCounter":1899,"assets":1900,"Address":1901,"MaterialIcons":1902,"Ð½":1903,"aders":1904,"ancel":1905,"Cl":1906,"AA":1907,"rame":1908,"sg":1909,"mit":1910,"icker":1911,"Ġtoken":1912,"outline":1913,"ĠKey":1914,"|',":1915,"ernal":1916,"box":1917,"ĠMessage":1918,"models":1919,"Direction":1920,"ors":1921,"ns":1922,"avigation":1923,"num":1924,"Ġaction":1925,"ĠĊ":1926,"md":1927,"fi":1928,"token":1929,"Ġ40":1930,"Ġview":1931,"My":1932,"remove":1933,"OM":1934,"uto":1935,"100":1936,"www":1937,"Ref":1938,"ces":1939,"Ġinitial":1940,"Over":1941,"27":1942,"function":1943,"trol":1944,"builder":1945,"ĠDuration":1946,"bloc":1947,"vas":1948,"Ġbottom":1949,"ĠUser":1950,"space":1951,"Local":1952,"Ġfind":1953,"!,":1954,"Met":1955,"Check":1956,"vir":1957,"Resource":1958,"ĠTResult":1959,"ual":1960,"ences":1961,"last":1962,"Filter":1963,"IG":1964,"Document":1965,"ions":1966,"serial":1967,"ants":1968,"49":1969,"lev":1970,"Ġcomp":1971,"ĠK":1972,"Ġover":1973,"Ġparameter":1974,"Ġ['":1975,"Ġ30":1976,"unded":1977,"face":1978,"rank":1979,"isit":1980,"sym":1981,"ved":1982,"ĠbackgroundColor":1983,"à¸":1984,"Line":1985,"orted":1986,"ĠAlignment":1987,"etch":1988,"older":1989,"End":1990,"</":1991,"tore":1992,"ING":1993,"roid":1994,"ttp":1995,"'));":1996,"next":1997,"Location":1998,"Start":1999,"21":2000,"88":2001,"Rect":2002,"rimary":2003,"ped":2004,"pert":2005,"Ġdate":2006,"Ġtrans":2007,"Ġte":2008,"ĠMedia":2009,"viron":2010,"IS":2011,"irectory":2012,"Account":2013,"ĠImage":2014,"Ġequals":2015,"aw":2016,"ron":2017,"ĠExampleIcon":2018,"Colors":2019,"Var":2020,"OS":2021,"decode":2022,"Ġborder":2023,"No":2024,"Args":2025,"Ġob":2026,"ĠStream":2027,"36":2028,"ness":2029,"local":2030,"Callback":2031,"UR":2032,"post":2033,"Ġfill":2034,"cy":2035,"Left":2036,"Editing":2037,"Buffer":2038,"ĠCrossAxisAlignment":2039,"utils":2040,"ĠSet":2041,"perties":2042,"ll":2043,"ÑĤ":2044,"copyWith":2045,"0000000000000000":2046,"toJson":2047,"Ġdescription":2048,"Ġ{}":2049,"gener":2050,"Ġsuit":2051,"Label":2052,"ning":2053,"ĠcrossAxisAlignment":2054,"ĠElement":2055,"Ġnum":2056,"Ġstatus":2057,"Ġdo":2058,"ĠtoJson":2059,"ween":2060,"eed":2061,"($":2062,"ĠUn":2063,"37":2064,"entity":2065,"group":2066,"spl":2067,"vironment":2068,"Ġvalid":2069,"tity":2070,"icons":2071,"ump":2072,"provider":2073,"ĠRank":2074,"unity":2075,"ĠVector":2076,"Entry":2077,"ses":2078,"ĠSuit":2079,"png":2080,"Comp":2081,"google":2082,"Ġpart":2083,"itude":2084,"abstract":2085,"'s":2086,"FromJson":2087,"Types":2088,"ĠĠĠĠĠĠĠĠĠĠĠĠĠĠ":2089,"ĠTest":2090,"amer":2091,"ĠOffset":2092,"09":2093,"illi":2094,"ilt":2095,"89":2096,"Web":2097,"ĠĠĠĠĠĠĠĠĠĠĠĠĠĠĠĠĠĠĠĠĠĠĠĠĠĠĠĠĠĠĠĠĠĠĠĠĠĠĠĠĠĠĠ":2098,"Animation":2099,"upert":2100,"tails":2101,"pected":2102,"upertino":2103,"ient":2104,"med":2105,"Ġno":2106,"indow":2107,"Ġus":2108,"Ġsearch":2109,"ormal":2110,"Listener":2111,"ear":2112,">{":2113,"span":2114,"pop":2115,"ld":2116,"ShkBShkBShkBShkB":2117,"metric":2118,"PI":2119,"Manager":2120,"legate":2121,"mer":2122,"Ġ[];":2123,"Ġmargin":2124,"Ġ{'":2125,"Block":2126,"inding":2127,"ene":2128,"Ġalignment":2129,"mark":2130,"olic":2131,"ĠMy":2132,"xF":2133,"._(":2134,"ingle":2135,"MM":2136,"ptional":2137,"Ġleft":2138,"Enum":2139,"AUka":2140,"mber":2141,"Ġrun":2142,"Settings":2143,"Ġversion":2144,"email":2145,"Loading":2146,"cm":2147,"Ġfunction":2148,"PageState":2149,"Ġcatch":2150,"convert":2151,"AUkaAUka":2152,"refix":2153,"xe":2154,"Constructor":2155,"ãĤ":2156,"Ġtheme":2157,"Ġwhich":2158,"Default":2159,"entifier":2160,"ï¼":2161,"Uint":2162,"cope":2163,"annot":2164,"`.":2165,"description":2166,"Ġyou":2167,"day":2168,"Body":2169,"Ġcomm":2170,"Range":2171,"ĠMediaQuery":2172,"bold":2173,"ĠpathOffset":2174,"async":2175,"Case":2176,"mplate":2177,"Ġchange":2178,"ĠExpanded":2179,"Menu":2180,"())":2181,"Ġcomple":2182,"Ð»":2183,"sert":2184,"Create":2185,"ĠTo":2186,"ential":2187,"Ġ100":2188,"ven":2189,"Ġload":2190,"Ġoffset":2191,"AS":2192,"TION":2193,"56":2194,"Ġ'/":2195,"named":2196,"Package":2197,"Repository":2198,"illiseconds":2199,"now":2200,"ai":2201,"method":2202,"EditingController":2203,"application":2204,"lip":2205,"buf":2206,"54":2207,"OT":2208,"jo":2209,"Ġ/**":2210,"Ġact":2211,"references":2212,"Reference":2213,"Ph":2214,"perator":2215,"symmetric":2216,"selected":2217,"source":2218,"true":2219,"ization":2220,"à¤":2221,"TY":2222,"AB":2223,"ĠTr":2224,"lag":2225,"thin":2226,"simple":2227,"Ġposition":2228,"pyright":2229,"ailure":2230,"lex":2231,"Init":2232,"ally":2233,"ĠLog":2234,"59":2235,"mb":2236,"xFF":2237,"Ġ'_":2238,"Entity":2239,"Ñģ":2240,"Ġ));":2241,"tt":2242,"Store":2243,"Ġclient":2244,"Ġparent":2245,"AM":2246,"Serializ":2247,"200":2248,"Wh":2249,"html":2250,"home":2251,"amera":2252,"price":2253,"DateTime":2254,"loat":2255,"Duration":2256,"One":2257,"ĠSh":2258,"\"];":2259,"Link":2260,"omain":2261,"()..":2262,"Reg":2263,"dicator":2264,"FontAwesomeIcons":2265,"Ġnext":2266,"blue":2267,"services":2268,"sw":2269,"Password":2270,"private":2271,"gest":2272,"Regist":2273,"arp":2274,"Ġinput":2275,"nect":2276,"ities":2277,"pend":2278,"CM":2279,"onth":2280,"udio":2281,"igh":2282,"1010":2283,"ĠappBar":2284,"Ġup":2285,"fter":2286,"ins":2287,"grey":2288,"voke":2289,"Down":2290,"Progress":2291,"NotEmpty":2292,"ci":2293,"Bl":2294,"clude":2295,"adow":2296,"Ġhave":2297,"Ġ</":2298,"ported":2299,"olicy":2300,"client":2301,"Fields":2302,"Ð¸":2303,"Unit":2304,"ĠAd":2305,"Ġstring":2306,"Ġspecified":2307,"Ġfound":2308,"Profile":2309,"allet":2310,"actor":2311,"open":2312,"ĠRo":2313,"book":2314,"bottom":2315,"Community":2316,"Ġfirst":2317,"Comple":2318,"Post":2319,"Ġ''":2320,"ures":2321,"aW":2322,"Ġ24":2323,"air":2324,"hashCode":2325,"ODO":2326,"web":2327,"encode":2328,"service":2329,"fontSize":2330,"Ġselected":2331,"non":2332,"Ġ14":2333,"js":2334,"Look":2335,"Ob":2336,"Mo":2337,"EE":2338,"cover":2339,"address":2340,"losing":2341,"Ġ50":2342,"76":2343,"library":2344,"lD":2345,"Detail":2346,"dG":2347,"ansition":2348,"ik":2349,"static":2350,"Hel":2351,"Exp":2352,"AT":2353,"Tab":2354,"ÑĢ":2355,"formation":2356,"Format":2357,"aract":2358,"Platform":2359,"iled":2360,"Valid":2361,"mod":2362,"Ġref":2363,"++)":2364,"pacity":2365,"country":2366,"Ġproject":2367,"common":2368,"Ġmust":2369,"Lookup":2370,"coder":2371,"hel":2372,"sharp":2373,"Table":2374,"Header":2375,"ET":2376,"cast":2377,"Part":2378,"Dete":2379,"Ġlast":2380,"isNotEmpty":2381,"avi":2382,"utable":2383,"ward":2384,"></":2385,"\\/":2386,"Ġhttp":2387,"ific":2388,"IClD":2389,"component":2390,"ocket":2391,"aly":2392,"ZW":2393,"Ġdocument":2394,"Ġvalues":2395,"Ġxml":2396,"Ġmodel":2397,"Dart":2398,"IClDIClD":2399,"atio":2400,"ason":2401,"Ġz":2402,"Act":2403,"Ġpl":2404,"Ġcl":2405,"ination":2406,"irestore":2407,"Ġmod":2408,"ĠInput":2409,"ixed":2410,"dispose":2411,"Right":2412,"Ġ18":2413,"Ġcur":2414,"Render":2415,"enum":2416,"project":2417,"angle":2418,"Level":2419,"ivity":2420,"Used":2421,"clar":2422,"ZX":2423,"br":2424,"uri":2425,"ĠĠĠĠĠĠĠĠĠĠĠĠĠĠĠĠĠĠĠĠĠĠĠĠĠĠĠĠĠĠĠĠĠĠĠĠĠĠĠĠĠĠĠĠĠ":2426,"images":2427,"andom":2428,"31":2429,"uch":2430,"Top":2431,"42":2432,"isEmpty":2433,"nown":2434,"vis":2435,"UN":2436,"]',":2437,"Ġemail":2438,"names":2439,"ĠAppBar":2440,"Fonts":2441,"vers":2442,"do":2443,"Ġbase":2444,"iven":2445,"ublic":2446,"CommunityIcons":2447,"====":2448,"fore":2449,"terable":2450,"ĠReturn":2451,"ĠMaterialCommunityIcons":2452,"Ġswitch":2453,"format":2454,"Mem":2455,"Product":2456,"uni":2457,"config":2458,"returns":2459,"any":2460,"location":2461,"nack":2462,"Double":2463,"Rule":2464,"arrow":2465,"Registry":2466,"apt":2467,"Row":2468,"Mod":2469,"AxisSize":2470,"ution":2471,"ather":2472,"58":2473,"New":2474,"Ġgener":2475,"label":2476,"unc":2477,"ayout":2478,"Ġ^":2479,"untime":2480,"alc":2481,"sk":2482,"Match":2483,"Ġnumber":2484,"az":2485,"so":2486,"ause":2487,"objc":2488,"protobuf":2489,"++;":2490,"flow":2491,"substring":2492,"my":2493,"ATE":2494,"ixin":2495,"bol":2496,"object":2497,"Que":2498,"Ġinter":2499,"Ġyour":2500,"Open":2501,"Ġany":2502,"atar":2503,"Sl":2504,"unch":2505,"ĠTODO":2506,"ircle":2507,"çļ":2508,"Each":2509,"ates":2510,"Ġffi":2511,">.":2512,"redential":2513,"\"))":2514,"AD":2515,"bi":2516,"initial":2517,"Day":2518,"theme":2519,"ĠMessageLookup":2520,"ĠDart":2521,"åı":2522,"Ġsign":2523,"typedef":2524,"çļĦ":2525,"Ġcast":2526,"Login":2527,"ĠTextEditingController":2528,"Ġmatch":2529,"served":2530,"Ġxmlns":2531,"ek":2532,"Sw":2533,"ĠBuild":2534,"\"],":2535,"ByLibrary":2536,"000000":2537,"Ġ];":2538,"ĠMessageLookupByLibrary":2539,"LL":2540,"Ġconfig":2541,"101":2542,"ĠFile":2543,"Center":2544,"esture":2545,"Ġ200":2546,"ĠBorder":2547,"simpleMessage":2548,"uilt":2549,"Container":2550,"Pre":2551,"Ho":2552,"SD":2553,"split":2554,"TR":2555,"version":2556,"look":2557,"fin":2558,"ED":2559,"Unnamed":2560,"rix":2561,"ql":2562,"input":2563,"ĠinitState":2564,"Column":2565,"EM":2566,"LG":2567,"primary":2568,"Ġonly":2569,"info":2570,"ĠAll":2571,"server":2572,"pc":2573,"handle":2574,"Expression":2575,"connection":2576,"Cur":2577,"collection":2578,"offset":2579,"Ġ'\\":2580,"Lm":2581,"izer":2582,"gin":2583,"System":2584,"circle":2585,"man":2586,"ĠAr":2587,"horizontal":2588,"Ġbutton":2589,"present":2590,"prec":2591,"72":2592,"aunch":2593,"Padding":2594,"atrix":2595,"ories":2596,"privateConstructor":2597,"SP":2598,"hema":2599,"endar":2600,"Indicator":2601,"Ġoptions":2602,"identical":2603,"ater":2604,"Ġduration":2605,"Ġmay":2606,"Ġsnapshot":2607,"CopyWithImpl":2608,"ĠCopyright":2609,"Handler":2610,"imit":2611,"ĠAuth":2612,"IT":2613,"asset":2614,"Environment":2615,"ĠUse":2616,"alendar":2617,"izations":2618,"ĠCustom":2619,"pump":2620,"46":2621,"delete":2622,"milliseconds":2623,"anner":2624,"UsedError":2625,"privateConstructorUsedError":2626,"Ġtarget":2627,"Items":2628,"06":2629,"ĠAs":2630,"ĠFlutter":2631,"tag":2632,"Const":2633,"_$":2634,"forEach":2635,"UT":2636,"ĠGoogle":2637,"doc":2638,"ailable":2639,"ĠCreate":2640,"ÃĹ":2641,"02":2642,"Task":2643,"imer":2644,"zz":2645,"values":2646,"Ġpass":2647,"mount":2648,"Contact":2649,"Ab":2650,"replace":2651,"Ġinst":2652,"rightness":2653,"ĠĠĠĠĠĠĠĠĠĠĠĠ":2654,"Ġreserved":2655,"Ġhash":2656,"Metadata":2657,"lined":2658,"dAt":2659,"ĠtoString":2660,"Ġ201":2661,"tail":2662,"Ġ'ÃĹ":2663,"ĠY":2664,"Ġ'../../":2665,"oom":2666,"fir":2667,"Parameters":2668,"Custom":2669,"OP":2670,"initState":2671,"86":2672,"Server":2673,"ous":2674,"PageRoute":2675,"Category":2676,"settings":2677,"route":2678,"ertical":2679,"////////////////":2680,"GgHJGgHJGgHJGgHJ":2681,"ned":2682,"ios":2683,"?>":2684,"zm":2685,"Ġ'<":2686,"ĠX":2687,"eta":2688,"ayment":2689,"Ġver":2690,"Ġgiven":2691,"'))":2692,"'t":2693,"Ratio":2694,"card":2695,"Ġprimary":2696,"Ġconvert":2697,"change":2698,"ĠLoc":2699,"Notification":2700,"Ġexternal":2701,"Report":2702,"head":2703,"close":2704,"Email":2705,"Use":2706,"ExtensionRegistry":2707,"button":2708,"Named":2709,"Ġpassword":2710,"document":2711,"Navigation":2712,"Factory":2713,"ysis":2714,"bn":2715,"ENT":2716,"inition":2717,"istory":2718,"ĠGlobal":2719,"Mid":2720,"ee":2721,"children":2722,"?,":2723,"Ġmock":2724,"late":2725,"()),":2726,"mock":2727,"liver":2728,"icle":2729,"ĠLicense":2730,"Order":2731,"\"/":2732,"Ġparams":2733,"fonts":2734,"47":2735,"ume":2736,"mment":2737,"Ġwrite":2738,"ENSE":2739,"``":2740,"Ġ]":2741,"firebase":2742,"havi":2743,"##":2744,"Av":2745,"ply":2746,"account":2747,"Script":2748,"gee":2749,"ats":2750,"Param":2751,"ulti":2752,"ious":2753,"ĠPdf":2754,"ICENSE":2755,"Def":2756,"ĉĉĉĉ":2757,"ãĥ":2758,"alysis":2759,"ription":2760,"05":2761,"Notifier":2762,"Variable":2763,"Detector":2764,"Ġph":2765,"Ġone":2766,"Sp":2767,"extension":2768,"db":2769,"known":2770,"Ġpackage":2771,"heet":2772,"sum":2773,"target":2774,"Apigee":2775,"Ġline":2776,"CH":2777,"wo":2778,"Access":2779,"Mark":2780,"login":2781,"').":2782,"tract":2783,"etween":2784,"go":2785,"active":2786,"Snapshot":2787,"Ġcount":2788,"Ġdetails":2789,"Bottom":2790,"Player":2791,"NotNull":2792,"Selected":2793,"unit":2794,"stream":2795,"Ġtag":2796,"Ġitems":2797,"Selector":2798,"ĠTextAlign":2799,"ĠĠĠĠĠĠĠĠĠĠ":2800,"Ġshape":2801,"ronet":2802,"201":2803,"Imp":2804,"ĠĠĠĠĠĠĠĠĠĠĠĠĠĠĠĠĠĠĠĠĠĠĠĠĠĠĠĠĠĠĠĠĠĠĠĠĠĠĠĠĠĠĠĠĠĠĠ":2805,"dk":2806,"run":2807,"Ġ}),":2808,"Ñı":2809,"ise":2810,"Ġscreen":2811,"lean":2812,"avor":2813,"ĠPar":2814,"Ġdebug":2815,"game":2816,"Ġgover":2817,"Policy":2818,"Ġab":2819,"radi":2820,"Ġlength":2821,"Cache":2822,"KX":2823,"ints":2824,"ding":2825,"member":2826,"Target":2827,"ĠEn":2828,"claration":2829,"EC":2830,"Ġpost":2831,"precated":2832,"Video":2833,"Ġparse":2834,"normal":2835,"ullType":2836,"Ġsecond":2837,"åĪ":2838,"ĠHome":2839,"Initial":2840,"Media":2841,"nod":2842,"ran":2843,"oto":2844,"ict":2845,"KGUEKGUEKGUEKGUE":2846,"ĠtextAlign":2847,"merge":2848,"levation":2849,"table":2850,"img":2851,"pg":2852,"cloud":2853,"sent":2854,"IF":2855,"ques":2856,"Ġdisplay":2857,"nodoc":2858,"GoogleCloudApigee":2859,"GoogleCloudApigeeV":2860,"Ġargs":2861,"Ġstream":2862,"havior":2863,"Ġ)),":2864,"uY":2865,"sResponse":2866,"rawer":2867,"xy":2868,"trait":2869,"Widgets":2870,"ower":2871,"98":2872,"Delegate":2873,"Back":2874,"Span":2875,"off":2876,"Ġsame":2877,"Ġanimation":2878,"Ġreturns":2879,"Ġad":2880,"Read":2881,"exp":2882,"ition":2883,"language":2884,"<_":2885,"Ġ/*":2886,"under":2887,"Ġhint":2888,"ested":2889,"ollow":2890,"ToJson":2891,"ĠListView":2892,"apter":2893,"alcul":2894,"Ġoperator":2895,"URL":2896,"Pb":2897,"serialize":2898,"aracter":2899,"Ġstore":2900,"ĠComple":2901,"Ġthen":2902,"Off":2903,"Values":2904,"istri":2905,"Sync":2906,"upported":2907,"product":2908,"ware":2909,"Ġ'${":2910,"outlined":2911,"attern":2912,"tribute":2913,"US":2914,"mote":2915,"ĠType":2916,"Ġplay":2917,"pages":2918,"ms":2919,"Ġdb":2920,"FB":2921,"Success":2922,"001":2923,"ĠStack":2924,")));":2925,"register":2926,"tip":2927,"uniques":2928,"Bo":2929,"Ġimport":2930,"08":2931,"channel":2932,"Control":2933,"snapshot":2934,"phone":2935,"spec":2936,"false":2937,"Ġresource":2938,"uctate":2939,"ithub":2940,"stamp":2941,"tra":2942,"IA":2943,"ĠReturns":2944,"col":2945,"rect":2946,"nackBar":2947,"}';":2948,"ĠUint":2949,"Ġupdates":2950,"Ġlicense":2951,"95":2952,"ĠInt":2953,"custom":2954,"invoke":2955,"ĠMe":2956,"ited":2957,"Ġrights":2958,"ĠValue":2959,"Description":2960,"vious":2961,"Ġpres":2962,"tries":2963,"rounded":2964,"Ġ13":2965,"Ġhome":2966,"Cronet":2967,"adeHand":2968,"textTheme":2969,"Lines":2970,"Ġ&":2971,"Show":2972,"Ġft":2973,"Command":2974,"anvas":2975,"ability":2976,"73":2977,"Ġ>=":2978,"ays":2979,"ux":2980,"Ġdef":2981,"Last":2982,"ĠHttp":2983,"Ð¾Ð":2984,"Di":2985,"If":2986,"Ġlocal":2987,"Ġinfo":2988,"password":2989,"await":2990,"Ġ\\":2991,"04":2992,"Ġ(_)":2993,"where":2994,"Opacity":2995,"pacing":2996,"Identifier":2997,"Ġlanguage":2998,"ï¼Į":2999,"sor":3000,"alled":3001,"Ġroute":3002,"Ġorder":3003,"mine":3004,"icit":3005,"filter":3006,"ymbol":3007,"ocusNode":3008,"ĠFirebase":3009,"Operation":3010,"Ste":3011,"::":3012,"Ġ25":3013,"array":3014,"Helper":3015,"Ġproperty":3016,"Min":3017,"loating":3018,"Failure":3019,"zero":3020,"Listen":3021,"Ġrow":3022,"Generated":3023,"shared":3024,"ĠToken":3025,"TextStyle":3026,"Ġ'-":3027,"Ø§":3028,"comple":3029,"03":3030,"}',":3031,"imated":3032,"ĠLICENSE":3033,"TO":3034,"loadOptions":3035,"SC":3036,"ĠonChanged":3037,"send":3038,"ACE":3039,"Hash":3040,"ugin":3041,"æľ":3042,"Ġformat":3043,"trics":3044,"velo":3045,"thing":3046,"omit":3047,"Ġwas":3048,"Ġ'',":3049,"listen":3050,"Project":3051,"ffi":3052,"gion":3053,"Ġqu":3054,"Vy":3055,"clear":3056,"ping":3057,"Dir":3058,"Pop":3059,"raft":3060,"ider":3061,"Fit":3062,"vertical":3063,"Ġ??=":3064,"display":3065,"sl":3066,"Num":3067,"iod":3068,"ĠqueryMap":3069,"rency":3070,"--;":3071,"util":3072,"media":3073,"Rate":3074,"umentError":3075,"ĠAnimation":3076,"author":3077,"verse":3078,"çĶ":3079,"ĠIconButton":3080,"Scope":3081,"firm":3082,"lookup":3083,"ince":3084,"Ġheaders":3085,"Ġlocation":3086,"beta":3087,"Util":3088,"ĠSize":3089,"number":3090,"pes":3091,"Ġbox":3092,"ĠListTile":3093,"Decode":3094,"Light":3095,"onicons":3096,"2000":3097,"Ñĥ":3098,"Array":3099,"Ġ[$":3100,"uttify":3101,"Are":3102,"ĠIonicons":3103,"True":3104,"xlink":3105,"fromEnvironment":3106,"Enabled":3107,"Storage":3108,"Shadow":3109,"ĠData":3110,"*/":3111,"vices":3112,"inary":3113,">,":3114,"ĠTrans":3115,"Async":3116,"ĠSP":3117,"Ġarguments":3118,"Ġcanvas":3119,"category":3120,"Ġold":3121,"Ġscroll":3122,"iant":3123,"Ġvisit":3124,"arge":3125,"ĠInputDecoration":3126,"join":3127,"Ġservice":3128,"Handle":3129,"Flutter":3130,"First":3131,"OL":3132,"mob":3133,"Ġgoverned":3134,"ultip":3135,"Ġ'.":3136,"ao":3137,"Ġread":3138,"HT":3139,"ä»":3140,"ĠGesture":3141,"mall":3142,"Ġmo":3143,"Ġfilter":3144,"meta":3145,"Ġhandle":3146,"ble":3147,"ĠFullType":3148,"Quest":3149,")).":3150,"ĠAPI":3151,"Ag":3152,"Ġ'$":3153,"Record":3154,">';":3155,"300":3156,"--------------------------------":3157,"DE":3158,"Delete":3159,"pha":3160,"hedule":3161,"obj":3162,"bm":3163,"Pa":3164,"pendenc":3165,"Wrap":3166,"hy":3167,"ists":3168,"animation":3169,"Ġusing":3170,"Ġ60":3171,"Ġsee":3172,"94":3173,"96":3174,"Background":3175,"Ġopen":3176,"Inline":3177,"options":3178,"IL":3179,"Ġcustom":3180,"ources":3181,"YS":3182,"ift":3183,"strap":3184,"Ġfit":3185,"Utils":3186,"ttf":3187,"storage":3188,"photo":3189,"ĠclearField":3190,"Ġunder":3191,"chat":3192,"Ġlong":3193,"getFont":3194,"ailed":3195,"untimeType":3196,"RO":3197,"ffect":3198,",\"":3199,"GoogleFonts":3200,"ĠSingle":3201,"statusCode":3202,"radient":3203,"ĠMaterialPageRoute":3204,"gstatic":3205,"Mock":3206,"Ġactions":3207,"Void":3208,"cache":3209,"otstrap":3210,"tributes":3211,"Preferences":3212,"Ġcallback":3213,"ĠExpect":3214,"Http":3215,"ĠPdfGoogleFonts":3216,"case":3217,"\"));":3218,"refs":3219,"pectRatio":3220,"acc":3221,"aces":3222,"owner":3223,"Ver":3224,"Ġ'';":3225,"GB":3226,"istance":3227,"ensure":3228,"ves":3229,"ĠWe":3230,"ah":3231,"lf":3232,"urse":3233,"400":3234,"Ġleading":3235,":',":3236,"Ġcor":3237,"Member":3238,"Ġnative":3239,"}');":3240,"screens":3241,"scroll":3242,"Ġ```":3243,"âĢ":3244,"Ġallow":3245,"Ġbl":3246,"ĠcopyWith":3247,"Binding":3248,"ĠAdd":3249,"ending":3250,"uzz":3251,"avorite":3252,"patch":3253,"110":3254,"Option":3255,"components":3256,"Credential":3257,"addAll":3258,"Ġparameters":3259,"UC":3260,"Ġav":3261,"Current":3262,"parameter":3263,"Setting":3264,"ĠOut":3265,"Trait":3266,">[];":3267,"Ġaddress":3268,"Ġbar":3269,"ĠPage":3270,"riptor":3271,"ias":3272,"hoto":3273,"ead":3274,"ĠBSD":3275,"ier":3276,"ShkBShkBShkBShkBShkBShkBShkBShkB":3277,"AG":3278,"DeviceDetails":3279,"Kind":3280,"tach":3281,"domain":3282,"tadata":3283,"imal":3284,"Max":3285,"video":3286,"dition":3287,"Ġcategory":3288,"network":3289,"Permission":3290,"div":3291,")?":3292,"Ġexpected":3293,"ĠTime":3294,"verter":3295,"Ġ{},":3296,"param":3297,"ĠviewBox":3298,"Ġexp":3299,"ĠRadius":3300,"Game":3301,"profile":3302,"oft":3303,"AUkaAUkaAUkaAUka":3304,"BuilderInfo":3305,"river":3306,"/*":3307,"ands":3308,"Ġfields":3309,"ĠMock":3310,"DeviceDetailsData":3311,"err":3312,"Area":3313,"afe":3314,"optional":3315,"msg":3316,"Ġelevation":3317,"Ġserializ":3318,"Directory":3319,"Select":3320,"Layout":3321,"lation":3322,"cket":3323,"af":3324,"\"/></":3325,"Database":3326,"atable":3327,"Ge":3328,"ãĢ":3329,"Ġfinds":3330,"._();":3331,"ĠĠĠĠĠĠĠĠĠĠĠĠĠĠĠĠĠĠĠĠĠĠĠĠĠĠĠĠĠĠĠĠĠĠĠĠĠĠĠĠĠĠĠĠĠĠĠĠĠ":3332,"example":3333,"GeneratedMessage":3334,"IM":3335,"units":3336,"Keys":3337,"ĠFontAwesome":3338,"stination":3339,"Ġsp":3340,"è¯":3341,"antity":3342,"Ġprovid":3343,"fromL":3344,"buildCounter":3345,"uggest":3346,"111":3347,"traits":3348,"igger":3349,"Picker":3350,"Ġserver":3351,"ĠRequest":3352,"999":3353,"Has":3354,"ublish":3355,"ĠGestureDetector":3356,"success":3357,"åħ":3358,"ropdown":3359,"Bool":3360,"åĲ":3361,"ĠFor":3362,"Ġdoes":3363,"Ġdispose":3364,"ixel":3365,"isible":3366,"Ġ<=":3367,"ĠForm":3368,"iteral":3369,"Connection":3370,"Native":3371,"den":3372,"87":3373,"Ġwork":3374,"Flag":3375,"full":3376,"ĠResult":3377,"invokeMethod":3378,"Ġempty":3379,"Ġheader":3380,"Ġoutput":3381,"PT":3382,"ĠSPACE":3383,"green":3384,"ts":3385,"Mixin":3386,"gen":3387,"roke":3388,"olve":3389,"background":3390,"Ġlo":3391,"Pri":3392,"loading":3393,"entication":3394,"should":3395,"mon":3396,"cr":3397,"Port":3398,"ood":3399,"Byte":3400,"DeviceTrait":3401,"aj":3402,"Ġtotal":3403,"Names":3404,"Spacing":3405,"her":3406,"$_":3407,"52":3408,"Ġaccount":3409,"Ġso":3410,"']);":3411,"æĸ":3412,"items":3413,"Selection":3414,"ĠTab":3415,"craft":3416,"ibility":3417,"TER":3418,"Ã©":3419,"Subscription":3420,"fill":3421,"uint":3422,"Process":3423,"erm":3424,"uzzle":3425,"draw":3426,"ysics":3427,"67":3428,"ffff":3429,"Run":3430,"Ġvariable":3431,"match":3432,"edit":3433,"amap":3434,"total":3435,"Ġiter":3436,"Ġroot":3437,"Serializable":3438,"ĠspecifiedType":3439,"UL":3440,"å®":3441,"EX":3442,"600":3443,"Required":3444,"ĠGlobalKey":3445,"github":3446,"alyz":3447,"ĠInter":3448,"quare":3449,"62":3450,"JS":3451,"chart":3452,"uter":3453,"olate":3454,"ike":3455,"Ġ_$_":3456,"Ġren":3457,"LO":3458,"ĠException":3459,"500":3460,"olid":3461,"Ġwhere":3462,"Parent":3463,"00000000000000000000000000000000":3464,"Qp":3465,"pos":3466,"Ġ[],":3467,"\"\"":3468,"ĠCom":3469,"ViewModel":3470,"Ġsuccess":3471,"validate":3472,"\"},":3473,"Declaration":3474,"Ġresults":3475,"Nested":3476,"Next":3477,"308":3478,"](":3479,"tx":3480,"Ġwhile":3481,"gl":3482,"Job":3483,"Asset":3484,"block":3485,"ĠCur":3486,"Proto":3487,"Ġexample":3488,"minecraft":3489,"render":3490,"Scale":3491,"51":3492,"Ġbuffer":3493,"011":3494,"43":3495,"orld":3496,"fluttify":3497,"Drag":3498,"Ġcolumn":3499,"ActionButton":3500,"ĠitemBuilder":3501,"task":3502,"äº":3503,"ĠDi":3504,"Ġafter":3505,"Ġdevice":3506,"Ġsettings":3507,"ĠBoxFit":3508,"Question":3509,"moved":3510,"Send":3511,"ĠSee":3512,"mant":3513,"ĠIterable":3514,"ATION":3515,"åĬ":3516,"none":3517,"ons":3518,"ggle":3519,"temp":3520,"ĠUp":3521,"Sk":3522,"Constraint":3523,"ĠZ":3524,"ital":3525,"Fill":3526,"net":3527,"Second":3528,"gram":3529,"Answ":3530,"Long":3531,"ĠJson":3532,"Ġback":3533,"Ġdelete":3534,"tle":3535,"Parser":3536,"Art":3537,"Frame":3538,"Rectangle":3539,"Step":3540,"'},":3541,"Ġ{@":3542,"FormField":3543,"entry":3544,"Properties":3545,"gn":3546,"ium":3547,"generate":3548,"SH":3549,"asses":3550,"Ġlibrary":3551,"Ġinstead":3552,"ian":3553,"ĠGener":3554,"Ġentry":3555,"Ġconstr":3556,"select":3557,"Ġne":3558,"plication":3559,"voice":3560,"annotation":3561,"tab":3562,"player":3563,"Ġconstra":3564,"NavigationBar":3565,"iginal":3566,"req":3567,"Generator":3568,"Concept":3569,"upport":3570,"params":3571,"queryParams":3572,"types":3573,"EL":3574,"Ġinclude":3575,"print":3576,"Arguments":3577,"Paint":3578,"wner":3579,"aml":3580,"****************************************************************":3581,"oolean":3582,"asic":3583,"Star":3584,"ĠEvent":3585,"YX":3586,"reference":3587,"ither":3588,"coding":3589,"...":3590,"repository":3591,"Ġoperation":3592,"Trace":3593,"ssion":3594,"Definition":3595,"imate":3596,"Ġactive":3597,"AND":3598,"Book":3599,"ived":3600,"Ġrender":3601,"andler":3602,"ique":3603,"Descriptor":3604,"tool":3605,"quence":3606,"Ġaccess":3607,"@',":3608,"imum":3609,"Props":3610,"ScrollView":3611,"Dynamic":3612,"Circle":3613,"withOpacity":3614,"************************************************************************":3615,"Ġchannel":3616,"mov":3617,"53":3618,"ond":3619,"Ġbut":3620,"ĠIN":3621,"Tool":3622,"mog":3623,"ubit":3624,"ained":3625,"ĠCode":3626,"Ġvertical":3627,"transparent":3628,"amo":3629,"Spec":3630,"iver":3631,"å¤":3632,"ocation":3633,"ayload":3634,"Ġ32":3635,"QL":3636,"Ġmore":3637,"fit":3638,"Window":3639,"Ġmark":3640,"cc":3641,"Ġtable":3642,"riter":3643,"()));":3644,"loy":3645,"!);":3646,"hir":3647,"Ġ01":3648,"57":3649,"Ġnon":3650,"resource":3651,"device":3652,"010":3653,"{\"":3654,"=$":3655,")}":3656,"Ġneed":3657,"ScreenState":3658,"fluctate":3659,"BytesHo":3660,"alth":3661,"):":3662,"olume":3663,"mogene":3664,"Accent":3665,"Ġappl":3666,"ĠMethod":3667,"Ġobj":3668,"jpg":3669,"Ġ{};":3670,"Ġreturned":3671,"loatingActionButton":3672,"closing":3673,"connect":3674,"ĠProvider":3675,"Ġ************************************************************************":3676,"ĠUri":3677,"AP":3678,"leted":3679,"lot":3680,"ayer":3681,"peated":3682,"Bold":3683,"BytesHomogene":3684,"84":3685,"bum":3686,"Ġproduct":3687,"ĠitemCount":3688,"Ġselector":3689,"UM":3690,"ĠMaterialApp":3691,"notation":3692,"Transition":3693,"Ġnotify":3694,"QU":3695,"ĠCOM":3696,"Ġdemo":3697,"pathOffset":3698,"Ġstack":3699,"Ġlink":3700,"('$":3701,"ultiple":3702,"Char":3703,"Ð°Ð":3704,"Ġdart":3705,"Ġhttps":3706,"cancel":3707,"alt":3708,"ircular":3709,"ĠChange":3710,"ĠBloc":3711,"Ġ0020":3712,"IClDIClDIClDIClD":3713,"Ġ**************************************************************************":3714,"Fl":3715,"BytesHomogeneous":3716,"SI":3717,"column":3718,"Trade":3719,"ESIS":3720,"ging":3721,"Ġresp":3722,"Track":3723,"ĠOn":3724,"sync":3725,"ĠNOT":3726,"Between":3727,"ented":3728,"ĠBo":3729,"Red":3730,"Ġprocess":3731,"Batch":3732,"Ids":3733,"97":3734,"Bound":3735,"kW":3736,"Transaction":3737,"Grid":3738,"Ġclose":3739,"Else":3740,"ODE":3741,"udent":3742,"ished":3743,"93":3744,"oly":3745,"ied":3746,"TestScript":3747,"root":3748,"ĠNot":3749,"Behavior":3750,"dy":3751,"Ġlat":3752,"Ġbytes":3753,"save":3754,"bG":3755,"EMP":3756,"throw":3757,"defaultInstance":3758,"ĠLogin":3759,"Ġ17":3760,"ĠĠĠĠĠĠĠĠĠĠĠĠĠĠĠĠĠĠĠĠĠĠĠĠĠĠĠĠĠĠĠĠĠĠĠĠĠĠĠĠĠĠĠĠĠĠĠĠĠĠĠ":3761,"63":3762,"ings":3763,"ĠLo":3764,"nV":3765,"ĠDefault":3766,"ship":3767,"((_":3768,"arning":3769,"finity":3770,"dark":3771,"question":3772,"Comment":3773,"pub":3774,"cupertino":3775,"fr":3776,"ORS":3777,"07":3778,"undle":3779,"Answer":3780,"ĠPosition":3781,"ĠComp":3782,"Ġexpression":3783,"Ġcomponent":3784,"Output":3785,"The":3786,"ih":3787,"constr":3788,"Cancel":3789,"ĠBuilt":3790,"atures":3791,"ged":3792,"Ġcenter":3793,"ways":3794,"ĠPer":3795,"android":3796,"plat":3797,"ours":3798,"Ġcard":3799,"icip":3800,"Ġimplement":3801,">)":3802,"Stack":3803,"Ġcontains":3804,"plan":3805,"expected":3806,"Ġidentifier":3807,"Localizations":3808,"ÐµÐ":3809,"ovie":3810,"æĺ":3811,"side":3812,"Where":3813,"Factor":3814,"ĠBorderSide":3815,"gan":3816,"Results":3817,"92":3818,"Focus":3819,"Ġinformation":3820,"cessary":3821,"valu":3822,"ĠCheck":3823,"ĠGro":3824,"Chat":3825,"Listeners":3826,"ordin":3827,"Float":3828,"igin":3829,"ĠArg":3830,"ives":3831,"utf":3832,"Ġu":3833,"quatable":3834,"YW":3835,"ession":3836,"PO":3837,"nd":3838,"zM":3839,"ĠpassStruct":3840,"DI":3841,"aved":3842,"TRB":3843,"10101010":3844,"Network":3845,"Ġradius":3846,"Refresh":3847,"41":3848,"Scheme":3849,"outer":3850,"Ġnamed":3851,"Ġap":3852,"Ġ]),":3853,"Ġcolors":3854,"('/":3855,"fromLTRB":3856,"ĠBlock":3857,"Ġparam":3858,"HomePage":3859,"Cap":3860,"è®":3861,"Load":3862,"oth":3863,"ality":3864,"EMPTY":3865,"uction":3866,"Ġremove":3867,"ĠSer":3868,"Overlay":3869,"ĠRounded":3870,"HE":3871,"ĠID":3872,"debug":3873,"mi":3874,"Ġflag":3875,"icate":3876,"ĠMainAxisSize":3877,"oice":3878,"Ġcreated":3879,"Sheet":3880,"Print":3881,"eature":3882,"Ġprefix":3883,"platform":3884,"Ġverify":3885,"Del":3886,"firestore":3887,"amount":3888,"kWell":3889,"cip":3890,"))),":3891,"Ġfl":3892,"Ġsend":3893,"ĠmainAxisSize":3894,"ĠSearch":3895,"Dark":3896,"Shape":3897,"ĠÐ¿":3898,"ä½":3899,"Ġ]);":3900,"alax":3901,"aredPreferences":3902,"report":3903,"Ġrece":3904,"Serializer":3905,"can":3906,"wallet":3907,"stack":3908,"Locale":3909,"Keyword":3910,"args":3911,"alaxy":3912,"mobile":3913,",),":3914,"Alert":3915,"Chart":3916,"coded":3917,"Pan":3918,"Import":3919,"Painter":3920,">);":3921,"ĠPlease":3922,"ProgressIndicator":3923,"ret":3924,"ĠBase":3925,"Ġscale":3926,"ĠError":3927,"AspectRatio":3928,"||":3929,"è¿":3930,"Ġextension":3931,"ĠCity":3932,"ĠPlatform":3933,"padding":3934,"Ġblock":3935,"ten":3936,"Ġ#":3937,"Cn":3938,"cret":3939,"ĠPl":3940,"Generic":3941,"82":3942,"alance":3943,"Cell":3944,"math":3945,"Traded":3946,"iff":3947,"auto":3948,"Ġ'|-":3949,"SnackBar":3950,"QueryComponent":3951,"Ġplatform":3952,"Ġhorizontal":3953,"Configuration":3954,"TradeValue":3955,"!;":3956,"Ġalso":3957,"sort":3958,"Ġbefore":3959,"obx":3960,"FI":3961,"da":3962,"Encode":3963,"Ġ80":3964,"IconData":3965,"Ġsubtitle":3966,"replaceAll":3967,"Ġits":3968,"SM":3969,"ĠhashCode":3970,"veloper":3971,"83":3972,"LC":3973,"RectangleBorder":3974,"odo":3975,"ĠtestWidgets":3976,"gular":3977,"AppBar":3978,"ĠThemeData":3979,"Return":3980,"Click":3981,"æĪ":3982,"scale":3983,"Ġuri":3984,"imension":3985,"added":3986,"ĠisF":3987,"ugh":3988,"decodeQueryComponent":3989,"Tester":3990,"FFFF":3991,"ipe":3992,"Ġpri":3993,"(){":3994,"Galaxy":3995,"XJ":3996,"template":3997,"Ġ...":3998,"empty":3999,"Func":4000,"ules":4001,"Ġlisten":4002,"((_)":4003,"QueryParam":4004,"Ġtemp":4005,"ðŁ":4006,"Ġ'''":4007,"Ġident":4008,"helper":4009,"ba":4010,"ĠInkWell":4011,"identifier":4012,"ovin":4013,"MyApp":4014,"Ġmy":4015,"primaryColor":4016,"Display":4017,"ategories":4018,"uZ":4019,"ĠIt":4020,"ĠAc":4021,"Language":4022,"keys":4023,"æķ":4024,"()).":4025,"constants":4026,"headers":4027,"upload":4028,"currentColor":4029,"Ġexec":4030,"answ":4031,"')),":4032,"Ġproperties":4033,"Ġlocale":4034,"Work":4035,"cle":4036,"Ġsystem":4037,"Us":4038,"Ġdown":4039,"Ġ((":4040,"Regular":4041,"Tree":4042,"========":4043,"long":4044,"olution":4045,"Only":4046,"rit":4047,"Ġaut":4048,"BIN":4049,"Iterable":4050,"'.":4051,"Ġ42":4052,"Ġtool":4053,"Ġapplication":4054,"Primary":4055,"dev":4056,"schema":4057,"Ġtask":4058,"\"><":4059,"Press":4060,"]=":4061,"vocation":4062,"ThemeData":4063,"Ġconstraints":4064,"host":4065,"insert":4066,"Invalid":4067,"700":4068,"Rules":4069,"61":4070,"refresh":4071,"FieldType":4072,"mmutable":4073,"ĠGroovin":4074,"duration":4075,"asure":4076,"Phone":4077,"ĠGroovinMaterialIcons":4078,"Ġman":4079,"bers":4080,"oci":4081,"ename":4082,"Ġflex":4083,"sdk":4084,"details":4085,"miss":4086,"inue":4087,"contact":4088,"icture":4089,"éĢ":4090,"Updated":4091,"track":4092,"Main":4093,">;":4094,"tax":4095,"holder":4096,"watch":4097,"Ġchar":4098,"Camera":4099,"Attribute":4100,"spaceBetween":4101,"123":4102,"Note":4103,"tester":4104,"NO":4105,"database":4106,"header":4107,"ĠDO":4108,"Stop":4109,"History":4110,"ration":4111,"infinity":4112,"level":4113,"Ġcache":4114,"ĠfindsOne":4115,"ready":4116,"versation":4117,"lv":4118,"mode":4119,"Cor":4120,"heart":4121,"cimal":4122,"frame":4123,"ĠTextInput":4124,"UTH":4125,"agno":4126,"ĠfindsOneWidget":4127,"ced":4128,"si":4129,"ĠHT":4130,"Root":4131,"tml":4132,"Outline":4133,"ĠAsset":4134,"ailing":4135,"Ġrepresent":4136,"rate":4137,"Section":4138,"acy":4139,"dio":4140,"transform":4141,"GgHJGgHJGgHJGgHJGgHJGgHJGgHJGgHJ":4142,"ĠRoundedRectangleBorder":4143,"Ġpaint":4144,"Ġq":4145,"Ġstop":4146,"servable":4147,"IGN":4148,"rade":4149,"KGE":4150,"Cre":4151,"æĹ":4152,"Active":4153,"mergeFrom":4154,"Ġ==(":4155,"PW":4156,"Ġfollow":4157,"Ġinto":4158,"][":4159,"connectionType":4160,"stat":4161,"Ġauthors":4162,"çĶ¨":4163,"PE":4164,"licit":4165,"ĠCont":4166,"Deprecated":4167,"created":4168,"ableConcept":4169,"Transform":4170,"Ġdirect":4171,"Converter":4172,"ĠhintText":4173,"found":4174,"Mon":4175,"internal":4176,"Ġmode":4177,"ĠAUTH":4178,"Ġenabled":4179,"parameters":4180,"GL":4181,"global":4182,"alyzer":4183,".',":4184,"ĠClass":4185,"ĠreturnType":4186,"Nullable":4187,"ĠDIA":4188,"Ã¡":4189,"BINING":4190,"ĠCOMBINING":4191,"Ġ\"\";":4192,"Ġ0308":4193,"ERESIS":4194,"Ġloading":4195,"ĠDIAERESIS":4196,"dd":4197,"ended":4198,"Ġret":4199,"notification":4200,"SignIn":4201,"ĠSingleChild":4202,"'].":4203,"username":4204,"Amount":4205,"ln":4206,"ĠStr":4207,"Ġsome":4208,"Month":4209,"star":4210,"hether":4211,"]+":4212,"sive":4213,"Ġsk":4214,"Find":4215,"^^":4216,"ĠAN":4217,"Ġthrows":4218,"latButton":4219,"ucer":4220,"Ġfuture":4221,"ĠMyApp":4222,"curity":4223,"graph":4224,"comment":4225,"output":4226,"fix":4227,"ZXR":4228,"CON":4229,"levated":4230,"Marker":4231,"ĠLine":4232,"ĠAUTHORS":4233,"dir":4234,"ĠOr":4235,"les":4236,"Ġthere":4237,"ĠrunApp":4238,"Br":4239,"Ġrange":4240,"InputBorder":4241,"aper":4242,"AI":4243,"Close":4244,"Lng":4245,"Ġ300":4246,"ĠUpdate":4247,"Ġfetch":4248,"plash":4249,"Ġserializers":4250,"Ġfull":4251,"Ġbeen":4252,"actions":4253,"Ġdi":4254,"Ġvalidator":4255,"ram":4256,"ç»":4257,"Demo":4258,"cmV":4259,"Ġyield":4260,"buffer":4261,"']),":4262,"Graph":4263,"Socket":4264,"room":4265,"Ġplace":4266,"script":4267,"ĠSliver":4268,"ErrorCode":4269,"scribe":4270,"ĠorElse":4271,"ragma":4272,"Blue":4273,"Ġeach":4274,"delay":4275,"PbList":4276,"Ġthan":4277,"Place":4278,"CL":4279,"Angle":4280,"Series":4281,"Bu":4282,"unk":4283,"Template":4284,"Opened":4285,"Statement":4286,"Direct":4287,"ji":4288,"ority":4289,"TextField":4290,"71":4291,"ĠTextSpan":4292,"lineInputBorder":4293,"ĠResponse":4294,"border":4295,"abs":4296,"ANG":4297,"CE":4298,"je":4299,"pr":4300,"ATED":4301,"ĠButton":4302,"Extent":4303,"\".":4304,"Immutable":4305,"ost":4306,"Gl":4307,"åĽ":4308,"access":4309,"pragma":4310,"runtimeType":4311,"Ġmsg":4312,"ĠaddQueryParam":4313,"Ġavailable":4314,"quire":4315,"Ck":4316,"pur":4317,"Ø±":4318,"Ġentity":4319,"ĠcreateEmpty":4320,"Meta":4321,"ĠDivider":4322,"uffix":4323,"ĠcreateEmptyInstance":4324,"region":4325,"pansion":4326,"QQ":4327,"dle":4328,"Ġconstructor":4329,"stop":4330,"Ġgame":4331,"pendencies":4332,"gExp":4333,"rink":4334,"aster":4335,"ABLE":4336,"fetch":4337,"Ġremoved":4338,"losed":4339,"PL":4340,"SS":4341,"]).":4342,"ple":4343,"ĠRoute":4344,"system":4345,"ĠCupertino":4346,"KH":4347,"erve":4348,"Ġweb":4349,"atal":4350,"Region":4351,"Decoder":4352,"Avatar":4353,"Ġpoint":4354,"Ġmeet":4355,"ĠJS":4356,"Rpb":4357,"Ġexist":4358,"Constraints":4359,"API":4360,"Ġside":4361,"necessary":4362,"Ġprevious":4363,"ĠSingleChildScrollView":4364,"Ġcom":4365,"process":4366,"KGUEKGUEKGUEKGUEKGUEKGUEKGUEKGUE":4367,"levatedButton":4368,"Ġreq":4369,"emon":4370,")\",":4371,"otal":4372,"Ġar":4373,"Ġ).":4374,"Ġ}).":4375,"Ġlevel":4376,"complete":4377,"teger":4378,"JsonSerializable":4379,"RGB":4380,"pin":4381,"ĠisTrue":4382,"kFont":4383,"ĠSign":4384,"peri":4385,"Temp":4386,"prev":4387,"usic":4388,"sumer":4389,"Full":4390,"Im":4391,"amond":4392,"\"].":4393,"ĠCircular":4394,"ĠnotifyListeners":4395,"tics":4396,"ĠĠĠĠĠĠĠĠĠĠĠĠĠĠĠĠĠĠĠĠĠĠĠĠĠĠĠĠĠĠĠĠĠĠĠĠĠĠĠĠĠĠĠĠĠĠĠĠĠĠĠĠĠ":4397,"RI":4398,"}\\":4399,"come":4400,"Ġì":4401,"Remove":4402,"Ass":4403,"Blocks":4404,"Ġtypes":4405,"AAAA":4406,"Ġ\"${":4407,"ĠSimple":4408,"Ġamount":4409,"Ġkeyboard":4410,"ose":4411,"rey":4412,"ĠScroll":4413,"ometry":4414,"translate":4415,"catch":4416,"launch":4417,"Ġ{});":4418,"sure":4419,"peed":4420,"ĠWeb":4421,"Simple":4422,"px":4423,"Ġcancel":4424,"å¼":4425,"ĠOb":4426,"Ġ\"/":4427,".');":4428,"Ġsl":4429,"Feed":4430,"Session":4431,"Been":4432,"Solid":4433,"sa":4434,"wise":4435,"Ġdistri":4436,"Ġpermission":4437,"Absent":4438,"Ln":4439,"aised":4440,"ĠQuery":4441,"ĠĠĠĠĊ":4442,"Ġvideo":4443,"poch":4444,"noInline":4445,"ĠBuildContext":4446,"note":4447,"Ġcurve":4448,"Messages":4449,"Dto":4450,"MenuItem":4451,"utor":4452,"super":4453,"istic":4454,"orization":4455,"Eng":4456,"ĠOR":4457,"ENER":4458,"}/":4459,"tion":4460,"Loaded":4461,"paint":4462,"variant":4463,"forward":4464,"Ġpr":4465,"Rece":4466,"cd":4467,"Ġframe":4468,"ision":4469,"Events":4470,"Med":4471,"userId":4472,"expression":4473,"Ġglobal":4474,"Ġprops":4475,"car":4476,"ĠApi":4477,"More":4478,"ĠPositioned":4479,"HasBeen":4480,"Ġlimit":4481,"/**":4482,"ummary":4483,"irror":4484,"fromMap":4485,"ĠfontPackage":4486,"Pos":4487,"Ġ__$":4488,"ĠFlatButton":4489,"Ġevents":4490,"medi":4491,"ElementCopyWith":4492,"Fin":4493,"TP":4494,"Ġdoc":4495,"etter":4496,"Jo":4497,"umb":4498,"rides":4499,"Ġbegin":4500,"unittest":4501,"pa":4502,"vision":4503,"Year":4504,"dGlv":4505,"ances":4506,"xx":4507,"ĠDis":4508,"year":4509,"mented":4510,"âķ":4511,"Multi":4512,"CardSet":4513,"results":4514,"month":4515,"ĠbuildUnnamed":4516,"Ġenum":4517,"ĠAlign":4518,"Ġ($":4519,"ĠPlay":4520,"club":4521,">{};":4522,"`,":4523,"stant":4524,"Ġprovided":4525,"Ġcalled":4526,"ĠField":4527,"ĠRun":4528,"arguments":4529,"nected":4530,"olved":4531,"ĠAxis":4532,"currentState":4533,"ĠcheckUnnamed":4534,"lookupFunction":4535,"Room":4536,"VE":4537,"sList":4538,"refId":4539,"ĠWh":4540,"ĠRes":4541,"ME":4542,"users":4543,"perations":4544,"ÑĥÐ":4545,"trim":4546,"MadeHand":4547,"Ne":4548,"Ġphone":4549,"dXJ":4550,"ĠMadeHand":4551,"pename":4552,"ImmutableCardSet":4553,"colors":4554,"menu":4555,"iffer":4556,"Global":4557,"ĠAnd":4558,"Canvas":4559,"Matrix":4560,"aur":4561,"Ġ'|+":4562,"Term":4563,"ifierExtension":4564,"åľ":4565,"ĠName":4566,"icro":4567,"Metrics":4568,"tile":4569,"æķ°":4570,"camera":4571,"Ġlongitude":4572,"iler":4573,"Renderer":4574,"Ġrecord":4575,"Ġregister":4576,"Ġhel":4577,"alpha":4578,"Ġcopy":4579,"ÑĮ":4580,"setString":4581,"xl":4582,"UI":4583,"mart":4584,"ĠClip":4585,"708":4586,">().":4587,"Found":4588,"ĠCall":4589,"KE":4590,"Ġmember":4591,"iss":4592,"Ġtransform":4593,"agnost":4594,"answer":4595,"ĠProduct":4596,">('":4597,"iny":4598,"ĠItem":4599,"container":4600,"Created":4601,"tn":4602,"ĠTextFormField":4603,"exec":4604,"mantics":4605,"LH":4606,"Ġmake":4607,"Engine":4608,"fd":4609,"pumpWidget":4610,"ĠwriteNotNull":4611,"ighlight":4612,"DynamicLibrary":4613,"Ġ22":4614,"ĠElevatedButton":4615,"typename":4616,"Qy":4617,"Word":4618,"nob":4619,"tap":4620,"Ġedit":4621,"Visit":4622,"deserialize":4623,"gu":4624,"Ġcontact":4625,"Ġlistener":4626,"counter":4627,")',":4628,"IH":4629,"Ġ',":4630,"Msg":4631,"fb":4632,"ric":4633,"Ġlogin":4634,"Will":4635,"Ital":4636,"Ġpreserve":4637,"andard":4638,"byType":4639,"._()":4640,"PX":4641,"lated":4642,"Ġauto":4643,"ĠTextField":4644,"tc":4645,"iphy":4646,"Ġlatitude":4647,"dialog":4648,"Activity":4649,"1999":4650,"hh":4651,"Ġflutter":4652,"Ġag":4653,"DA":4654,"PS":4655,"na":4656,"Rel":4657,"ĠBottom":4658,"aisedButton":4659,"Ġ35":4660,"ters":4661,"Homeaddress":4662,"Children":4663,"oftware":4664,"ĠCON":4665,"Ġenable":4666,"range":4667,"ypto":4668,"KS":4669,"pol":4670,"views":4671,"Ġsave":4672,"Ip":4673,"rot":4674,"Ġprefs":4675,"Ġprovider":4676,"HomePageState":4677,"licitRules":4678,"Ġcontainer":4679,"0000000000":4680,"aining":4681,"locale":4682,"Example":4683,"7777":4684,"Submit":4685,"Ġendpoint":4686,"Prefix":4687,"Ġcol":4688,"va":4689,"issing":4690,"Ġdatabase":4691,"grpc":4692,"Failed":4693,"TW":4694,"Ġcomment":4695,"Extensions":4696,"ĠFl":4697,"diamond":4698,"mZ":4699,"Ġæ":4700,"ĠSub":4701,"fromBuffer":4702,"uster":4703,"à¥":4704,"ĠObjective":4705,"After":4706,"prefix":4707,"native":4708,"ĠGDeviceDetailsData":4709,"ĠNote":4710,"ERR":4711,"ArgumentError":4712,"crement":4713,"Ġcommand":4714,"person":4715,"ĠmaxLines":4716,"Gu":4717,"HVy":4718,"aut":4719,"obile":4720,"This":4721,"Ġmessages":4722,"trade":4723,"ENERATED":4724,"pth":4725,"toDouble":4726,"Ġ%":4727,"GV":4728,"Total":4729,"Move":4730,"Fetch":4731,"Ġunused":4732,"Ġspecific":4733,"ĠSharedPreferences":4734,"ensureDynamicLibrary":4735,"HasBeenOpened":4736,"ensureDynamicLibraryHasBeenOpened":4737,"kit":4738,"Ñĭ":4739,"ĠRegExp":4740,"Done":4741,"Ġcannot":4742,"ars":4743,"ette":4744,"ĠPaint":4745,"Lower":4746,"very":4747,"Ġhere":4748,"giphy":4749,"ĠCircularProgressIndicator":4750,"Ii":4751,"åŃ":4752,"Information":4753,"ĠTe":4754,"preferences":4755,"ÛĮ":4756,"Ġ500":4757,"Gradient":4758,"255":4759,"OfB":4760,"yntax":4761,"Payment":4762,"aa":4763,"dia":4764,"uce":4765,"ĠLe":4766,"Ġmetadata":4767,"Exec":4768,"Fixed":4769,"\\'":4770,"Ġelements":4771,"Ġport":4772,"Ġnote":4773,"dXJu":4774,"sWith":4775,"ĠpreserveAspectRatio":4776,"91":4777,"ĠRect":4778,"planation":4779,"ĠArgumentError":4780,"Built":4781,"WidgetTester":4782,"Ġ28":4783,"cipe":4784,"Symbol":4785,"amb":4786,"aker":4787,"Ġinvalid":4788,"Ð°Ð»":4789,"splash":4790,"chor":4791,"ĠRE":4792,"maps":4793,"PbFieldType":4794,"YMid":4795,"dC":4796,"xMid":4797,"deep":4798,"Ġlet":4799,"xMidYMid":4800,"rule":4801,"sb":4802,"Ġcollection":4803,"}\");":4804,"ĠScreen":4805,"ĠYou":4806,"ycle":4807,"ĠparameterTypes":4808,"generated":4809,"bed":4810,"share":4811,"kg":4812,"Drawer":4813,"chase":4814,"Ġcomplete":4815,"eric":4816,"Application":4817,"sRequest":4818,"cell":4819,"record":4820,"Scaffold":4821,"BB":4822,"Static":4823,"allow":4824,"Elements":4825,"uted":4826,"aking":4827,"Audio":4828,"alculate":4829,"atLng":4830,"bytes":4831,"ja":4832,"Constants":4833,"Ġmethods":4834,"audio":4835,"\"]);":4836,"ĠMethodChannel":4837,"ĠDevice":4838,"Cubit":4839,"\").":4840,"Italic":4841,"rest":4842,"ali":4843,"Ġusername":4844,"Ġfoo":4845,"Ġreason":4846,"viders":4847,"pushNamed":4848,"ublisher":4849,"addedBlocks":4850,"Ġoff":4851,"ublicKey":4852,"Calendar":4853,"Ġemit":4854,"TypeArgs":4855,"leton":4856,"Complete":4857,"VER":4858,"city":4859,"ĠtextStyle":4860,"fil":4861,"Ġcre":4862,"analyzer":4863,"Ġod":4864,"yy":4865,"Ðº":4866,"Contract":4867,"Parse":4868,"tachment":4869,"alytics":4870,"IFY":4871,"''');":4872,"Score":4873,"ĠoJson":4874,"Mask":4875,"Ä±":4876,"ĠAnimated":4877,"Html":4878,"Ġ\"$":4879,"Ð½Ð°":4880,"oard":4881,"tex":4882,"Ġstep":4883,"Ġ400":4884,"DB":4885,"Pur":4886,"ĠCreates":4887,"It":4888,"arm":4889,"Ġselection":4890,"ĠqueryParams":4891,"spade":4892,"Switch":4893,"Doc":4894,"ua":4895,"acket":4896,"Register":4897,"Ġ?.":4898,"parator":4899,"bmN":4900,"rece":4901,"WN":4902,"Ġ64":4903,"Proxy":4904,"ĠRaisedButton":4905,"900":4906,"ĠCompletes":4907,"float":4908,"freezed":4909,"Ġred":4910,"Ġ[\"":4911,"izers":4912,"esc":4913,"foundation":4914,"ĠOutlineInputBorder":4915,"VAL":4916,"aries":4917,"logger":4918,"Ġtransaction":4919,"tpCenter":4920,"IGHT":4921,"ched":4922,"adge":4923,"/{":4924,"getInstance":4925,"ĠPath":4926,"Since":4927,"ado":4928,"(\"/":4929,"toast":4930,"Android":4931,"////////////////////////////////":4932,"Ġplayer":4933,"atalog":4934,"ĠlabelText":4935,"delayed":4936,"Ġacc":4937,"ldHVy":4938,"aiV":4939,"Wallet":4940,"åº":4941,"ĠshowDialog":4942,"cogn":4943,"DocumentaiV":4944,"enefit":4945,"Ptr":4946,"è¡":4947,"getSelector":4948,"Objc":4949,"Ġbloc":4950,"moke":4951,"MethodInfo":4952,"rowser":4953,"Ġprofile":4954,"STR":4955,"Team":4956,"losingPrice":4957,"ObjcMethodInfo":4958,"Ġart":4959,"ĠNull":4960,"Ġjs":4961,"urface":4962,"INT":4963,"Ġconnection":4964,"nobr":4965,"Banner":4966,"bit":4967,"ĠFlex":4968,"requester":4969,">(_":4970,"ĠId":4971,"']['":4972,"optionalTypeArgs":4973,"Points":4974,"Col":4975,"OB":4976,"Ġreference":4977,"Ġpop":4978,"ĠOF":4979,"pi":4980,"Ġprefer":4981,"rossAxis":4982,"olver":4983,"800":4984,"entic":4985,"Ġbu":4986,"Ġ000":4987,"Core":4988,"points":4989,"biB":4990,"typed":4991,"256":4992,"Ġbound":4993,"Ġ['@',":4994,">()":4995,"Ġnow":4996,"Ġwindow":4997,"Ġlike":4998,"cs":4999,"variable":5000,"ĠTextButton":5001,"ĠConstr":5002,"81":5003,"RL":5004,"visit":5005,"command":5006,"ĠTextInputType":5007,"expectAsync":5008,"centColor":5009,"entation":5010,"Do":5011,"ople":5012,"entities":5013,"Ġselect":5014,"DTO":5015,"Ġ\"\",":5016,"plus":5017,"ÑģÑĤ":5018,"ĠAndroid":5019,"vector":5020,"Ġnotification":5021,"Visible":5022,"Song":5023,"[^":5024,"ĠĠĠĠĠĠĠĠĠĠĠĠĠĠĠĠĠĠ":5025,"Router":5026,"Ġunits":5027,"]));":5028,"ZnV":5029,"jdGlv":5030,"enable":5031,"Schema":5032,"ĠCircle":5033,"Ġstorage":5034,"ĠHe":5035,"Ġclone":5036,"ifferent":5037,"dx":5038,"ÙĨ":5039,"just":5040,"Ġobjects":5041,"commons":5042,"aging":5043,"ä¸Ģ":5044,"Epoch":5045,"Svg":5046,"Timeout":5047,"Ġwithout":5048,"Ġreplace":5049,"ĠNO":5050,"batch":5051,"atient":5052,"ĠMod":5053,"allery":5054,"queue":5055,"ĠGENERATED":5056,"angular":5057,"Ġwant":5058,"ling":5059,"lines":5060,"constant":5061,"Ġabout":5062,"ranch":5063,"Ġter":5064,"als":5065,"Toast":5066,"ĠRender":5067,"Person":5068,"til":5069,"ĠtextColor":5070,"Tear":5071,"Ùħ":5072,"PageToken":5073,"ĠQ":5074,"avatar":5075,"Adapter":5076,"Subject":5077,"cn":5078,"Topic":5079,"Private":5080,"Ġcontinue":5081,"manager":5082,"pZ":5083,"Bootstrap":5084,"Ġdirection":5085,"Pe":5086,"ĠNetwork":5087,"aX":5088,"Character":5089,"AsString":5090,"ird":5091,"Ġself":5092,"Ġ'../../../":5093,"IfAbsent":5094,"acity":5095,"Ġtwo":5096,"Folder":5097,"inst":5098,"ĠGoogleFonts":5099,"GET":5100,"(-":5101,"Iam":5102,"ML":5103,"Ġchanges":5104,"\\\\":5105,"Ġoptional":5106,"Ġprogress":5107,"Photo":5108,"lta":5109,"sired":5110,"window":5111,"('-":5112,"Ġbinary":5113,"ĠBuilder":5114,"moji":5115,"ency":5116,"Period":5117,"('${":5118,"ĠVoid":5119,"attery":5120,"team":5121,"Ġdirectory":5122,"ĠĠĠĠĠĠĠĠĠĠĠĠĠĠĠĠĠĠĠĠĠĠĠĠĠĠĠĠĠĠĠĠĠĠĠĠĠĠĠĠĠĠĠĠĠĠĠĠĠĠĠĠĠĠĠ":5123,"ĠProto":5124,"movie":5125,"æĺ¯":5126,"Live":5127,"Layer":5128,"Bean":5129,"begin":5130,"flag":5131,"Ġ600":5132,"OUT":5133,"Ġreport":5134,"Ġvalidate":5135,"ĠVal":5136,"ĠProject":5137,"iness":5138,"alette":5139,"fromRGB":5140,"Ġsingle":5141,"Interface":5142,"Ġbook":5143,"Ġprice":5144,"Ġstroke":5145,"Enter":5146,"Plugin":5147,"Overflow":5148,"ĠNo":5149,"Bus":5150,"Ġhtml":5151,"Ġtransition":5152,"Ġtrailing":5153,"ĠSettings":5154,"ĠdebugPrint":5155,"AUkaAUkaAUkaAUkaAUkaAUkaAUkaAUka":5156,"Ġday":5157,"Ġdesc":5158,"Annotation":5159,"itional":5160,"vidence":5161,">>{":5162,"mbers":5163,"ĠPost":5164,"ĠStreamController":5165,"done":5166,"Ġdialog":5167,"else":5168,"ShkBShkBShkBShkBShkBShkBShkBShkBShkBShkBShkBShkBShkBShkBShkBShkB":5169,"ZS":5170,"ctx":5171,"ached":5172,"animate":5173,"intl":5174,"JsonValue":5175,"]['":5176,"indings":5177,"TYPE":5178,"redit":5179,"Todo":5180,"docs":5181,"Ui":5182,"hook":5183,"Ġcontrol":5184,"Module":5185,"ajor":5186,"progress":5187,"bb":5188,"ube":5189,"Tri":5190,"147":5191,"KC":5192,"ĠCategory":5193,"calendar":5194,"Ġdid":5195,"Ġcommons":5196,"ĠisFalse":5197,"ĠGame":5198,"detail":5199,"ĠChat":5200,"Car":5201,"ĠBY":5202,"fromRGBO":5203,"redux":5204,"=\"#":5205,"ĠAnimationController":5206,"omatic":5207,"mdW":5208,"identity":5209,"Space":5210,"assed":5211,"stro":5212,"ĠAlert":5213,"Ġfiles":5214,"getS":5215,"ZnVuY":5216,"Ġpattern":5217,"JldHVy":5218,"trie":5219,"weet":5220,"Ġdraw":5221,"Retail":5222,"/$":5223,"Lock":5224,"indexOf":5225,"backgroundColor":5226,"td":5227,"ĠnamedArgs":5228,"Errors":5229,"Non":5230,"asc":5231,"Ġel":5232,"ALL":5233,"ĠMOD":5234,"putIfAbsent":5235,"Upload":5236,"Ġdeprecated":5237,"site":5238,"ĠLocal":5239,">>(":5240,"ung":5241,"Checked":5242,"ern":5243,"Ġrect":5244,"Release":5245,"ermo":5246,"Headers":5247,"Ġreverse":5248,"Ġgenerate":5249,"kind":5250,"Ġsupported":5251,"ĠNe":5252,"scaffold":5253,"Ġoriginal":5254,"Ġword":5255,"Domain":5256,"/\\":5257,"Percent":5258,"afeArea":5259,"developer":5260,"ured":5261,"isibility":5262,"ĠuserId":5263,"Ġge":5264,"ersist":5265,"INE":5266,"AME":5267,"Preview":5268,"Cart":5269,"unknown":5270,"Completed":5271,"ãĢĤ":5272,"åį":5273,"Ġexception":5274,"buted":5275,"GoogleCloudRetail":5276,"selection":5277,"traded":5278,"Atom":5279,"æł":5280,"accTradeValue":5281,"unitsTraded":5282,"EF":5283,"cry":5284,"headline":5285,"ĠMaterialIcons":5286,"photos":5287,"Ġspecify":5288,"xs":5289,"properties":5290,"inner":5291,"City":5292,"reset":5293,"Ġiss":5294,"opening":5295,".\",":5296,"Visitor":5297,"Foo":5298,"Ġbetween":5299,"Reader":5300,"Ġbeing":5301,"Can":5302,"Literal":5303,"[_":5304,"Ã§":5305,"Reply":5306,"loaded":5307,"Ġsection":5308,"formKey":5309,"aWY":5310,"OfBenefit":5311,"planationOfBenefit":5312,"TearOff":5313,"random":5314,"Sink":5315,"Even":5316,"compare":5317,"Physics":5318,"Constant":5319,"Timer":5320,"ana":5321,"exception":5322,"NS":5323,"Ġ;":5324,"Confirm":5325,"Security":5326,".\");":5327,"Ġoverflow":5328,"junction":5329,"mF":5330,"Ġhost":5331,"lative":5332,"gif":5333,"ApiRequest":5334,"features":5335,"ĠAccount":5336,"ators":5337,"prototype":5338,"ĠCurves":5339,"Raw":5340,"drop":5341,"vide":5342,"Stats":5343,"Wrapper":5344,"ĠkeyboardType":5345,"Ġsymbol":5346,"Sort":5347,"Using":5348,"Ġ19":5349,"ava":5350,"Pair":5351,"ĠLocation":5352,"ĠBootstrap":5353,"Week":5354,"Internal":5355,"Ġrefresh":5356,"IP":5357,"engine":5358,"ĠMODIFY":5359,"LowerCase":5360,"BootstrapIconData":5361,"512":5362,"picker":5363,"acked":5364,"Com":5365,"ĠsubPart":5366,"defined":5367,"Owner":5368,"ÙĦ":5369,"session":5370,"Ġcountry":5371,"uk":5372,"Ġlogger":5373,"getString":5374,"ĠCODE":5375,"Ġraw":5376,"aracters":5377,"stroke":5378,"fontWeight":5379,"visible":5380,"OK":5381,"cid":5382,"ĠVideo":5383,"resolve":5384,"Ð²":5385,"onTap":5386,"Pin":5387,"rough":5388,"ĠTable":5389,"Ġchart":5390,"lec":5391,"Suggest":5392,"self":5393,"Ġhandler":5394,"Fn":5395,"uuid":5396,"605":5397,"KQp":5398,"Single":5399,"Ġarray":5400,"SinceEpoch":5401,"WidgetState":5402,"Ġtests":5403,"Thermo":5404,"Ug":5405,"Keyboard":5406,"section":5407,"Ġperson":5408,"presentation":5409,"Dig":5410,"ouse":5411,"å°":5412,"ĠSource":5413,"Cupertino":5414,"logo":5415,"Navigator":5416,"direction":5417,"Ġmenu":5418,"Ġargument":5419,"ä¸ª":5420,"IE":5421,"ĠBe":5422,"Ġ'./":5423,"ilation":5424,"Ġcompleter":5425,"âķĲ":5426,"FA":5427,"Save":5428,"Ġidentical":5429,"åĩ":5430,"ĠÑģ":5431,"Ġeither":5432,"CT":5433,"future":5434,"sitive":5435,"ĠParser":5436,"¾ç":5437,"wi":5438,"ashboard":5439,"series":5440,"ragment":5441,"Thermostat":5442,"Ġgrid":5443,"ĠQu":5444,"stiny":5445,"Ġlib":5446,"jsonDecode":5447,"SearchToken":5448,"metadata":5449,"AY":5450,"router":5451,"toLowerCase":5452,"Ġtile":5453,"ĠJSON":5454,"erature":5455,"Ġavoid":5456,"Ġtree":5457,"Ġgenerated":5458,"0018":5459,"Ġlines":5460,"respon":5461,"layout":5462,"Distance":5463,"rive":5464,"ssible":5465,"shade":5466,"ellow":5467,"ESS":5468,"periment":5469,"Ġ,":5470,"Ġfil":5471,"ĠBrightness":5472,"covery":5473,"weather":5474,"ĠborderSide":5475,"Ġctx":5476,"UP":5477,"á»":5478,"Ġ1000":5479,"apping":5480,"ĠPoint":5481,"Ã£":5482,"Ġloaded":5483,"TResult":5484,"Pool":5485,"Upper":5486,"à¹":5487,"å½":5488,"Ġconfiguration":5489,"ategy":5490,"projects":5491,"Ġlight":5492,"git":5493,"Ġiterator":5494,"Gesture":5495,"Ñĩ":5496,"ĉĉĉ":5497,"Ġusers":5498,"Ġpur":5499,"avigate":5500,"Ġerrors":5501,"BackgroundColor":5502,"mt":5503,"ARR":5504,"Ġmonth":5505,"ummy":5506,"Mouse":5507,"ĠDirectory":5508,"ĠStruct":5509,"Alias":5510,"copy":5511,"Interval":5512,"Ġactual":5513,"au":5514,"mixin":5515,"ĠStyle":5516,"El":5517,"Js":5518,"mac":5519,"Review":5520,"'])":5521,"ĠGroup":5522,"(<":5523,"Firestore":5524,"reet":5525,"Analysis":5526,"Ñİ":5527,"Ġmedia":5528,"azy":5529,"ÙĪ":5530,"Replace":5531,"lips":5532,"GoogleCloudRetailV":5533,"Connect":5534,"callback":5535,"idden":5536,"Share":5537,"Ġmajor":5538,"ĠAssetImage":5539,"Ġui":5540,"Ġserial":5541,"Vertical":5542,"subtitle":5543,"Bundle":5544,"GoogleCloudDocumentaiV":5545,"Mess":5546,"hour":5547,"pet":5548,"Ġcons":5549,"Ġasset":5550,"Ġtab":5551,"getN":5552,"ById":5553,"Ġrandom":5554,":\"":5555,"che":5556,"Ð¼":5557,"Users":5558,"ĠsetUp":5559,"&&(":5560,"Ġtooltip":5561,"hasLength":5562,"Db":5563,"Fhir":5564,"Xml":5565,"icode":5566,"isode":5567,"road":5568,"rier":5569,"Picture":5570,"Files":5571,"ubble":5572,"0000000000000000000000000000000000000000000000000000000000000000":5573,"step":5574,"todo":5575,"Flags":5576,"Auto":5577,"Repeated":5578,"3333":5579,"Queue":5580,"Ġparser":5581,"Ġblur":5582,"SettingDeviceTrait":5583,"ThermostatSettingDeviceTrait":5584,"Ġwhether":5585,"265":5586,"UB":5587,"Rest":5588,"BytesHomogeneousUint":5589,"stroy":5590,"ĠAction":5591,"Ġtrack":5592,"Watch":5593,"Ġsong":5594,"Debug":5595,"Ġ39":5596,"Argument":5597,"Ġupload":5598,"ploy":5599,"Ġdark":5600,"Ġaxis":5601,"erId":5602,"control":5603,"ĠClient":5604,"('''":5605,"ĠĠĠĠĠĠĠĠĠĠĠĠĠĠĠĠĠĠĠĠĠĠĠĠĠĠĠĠĠĠĠĠĠĠĠĠĠĠĠĠĠĠĠĠĠĠĠĠĠĠĠĠĠĠĠĠĠ":5606,"Ġdistributed":5607,"dW":5608,"addListener":5609,"pendency":5610,"Ġ150":5611,"adio":5612,"clu":5613,"ĠAppColors":5614,"âķĲâķĲ":5615,"OF":5616,"rome":5617,"AppState":5618,"Ġ(_,":5619,"single":5620,"ĠmodifierExtension":5621,"0101":5622,"ĠHAND":5623,"Cr":5624,"inte":5625,"iddle":5626,"transaction":5627,"\\\"":5628,"ders":5629,"gor":5630,"attributes":5631,"Ġpub":5632,"ptim":5633,"Ġtemplate":5634,"ĠSafeArea":5635,"ĠVersion":5636,"ha":5637,"9999":5638,"Movie":5639,"pass":5640,"limit":5641,"ĠTask":5642,"keyValue":5643,"Pr":5644,"Saved":5645,"alert":5646,"alculator":5647,"é¢":5648,"fromList":5649,"ario":5650,"Timestamp":5651,"Host":5652,"Vector":5653,"socket":5654,"Ġthey":5655,"NativeFunction":5656,"ĠNew":5657,"istrict":5658,"demo":5659,"Country":5660,"shop":5661,"ĠNode":5662,"sole":5663,"asThermostatSettingDeviceTrait":5664,"Ġregular":5665,"Ġassoci":5666,"Ġalready":5667,"ORT":5668,"scriptions":5669,"pageSize":5670,"Ġ['|":5671,"aption":5672,"cure":5673,"vm":5674,"ĠReference":5675,"TED":5676,"KXt":5677,"Firebase":5678,"ganization":5679,"TC":5680,"pod":5681,"ks":5682,"ensity":5683,"ĠNotification":5684,"Pixel":5685,"ĠInit":5686,"Settle":5687,"bW":5688,"Ġpassed":5689,"ĠConfig":5690,"writeln":5691,"Ġbased":5692,"qr":5693,"Board":5694,"ĠWhen":5695,"gy":5696,"ART":5697,"ITH":5698,"ĠSl":5699,"Ġ(){":5700,"Svgs":5701,"did":5702,"free":5703,"}\",":5704,"Ġ--":5705,"jsonEncode":5706,"ĠBootstrapSvgs":5707,"Curve":5708,"ĠPh":5709,"Ġgr":5710,"Ġvisible":5711,"rows":5712,"Unknown":5713,"gment":5714,"Utf":5715,"Op":5716,"assert":5717,"serializers":5718,"cluded":5719,"Balance":5720,"Ġmeta":5721,"Ã£o":5722,"Mixed":5723,"mploy":5724,"å¯":5725,"ison":5726,"raction":5727,"pick":5728,"built":5729,"bound":5730,"Images":5731,"Ġcorrect":5732,"Lib":5733,"âĸ":5734,"Ġlaunch":5735,"Zone":5736,"Ġgradient":5737,"Ġyear":5738,"Ġkind":5739,"ili":5740,"igInt":5741,"Ġequal":5742,"Ġcourse":5743,"exists":5744,"Ġproto":5745,"Ġgo":5746,"Geo":5747,"BA":5748,"Pass":5749,"Sans":5750,"events":5751,"PR":5752,"ĠDio":5753,"pageToken":5754,"Formatter":5755,"serializer":5756,"ane":5757,"ca":5758,"Extra":5759,"IClDIClDIClDIClDIClDIClDIClDIClD":5760,"Nav":5761,"lations":5762,"Ġinvoke":5763,"ĠImp":5764,"WE":5765,"release":5766,"Ġsecondary":5767,"Math":5768,"Ġoption":5769,"Ġsort":5770,"Ġsession":5771,"Admin":5772,"Available":5773,"Limit":5774,"lower":5775,"BR":5776,"focus":5777,"ina":5778,"ocial":5779,"ocused":5780,"Gr":5781,"Ġunnecessary":5782,"pad":5783,"Copy":5784,"ĠView":5785,"ListView":5786,"00000":5787,"previous":5788,"389":5789,"expand":5790,"Ġsupport":5791,"bus":5792,"pmdW":5793,"alf":5794,"ifact":5795,"ĠFloatingActionButton":5796,"Ġcharset":5797,"Gen":5798,"GDeviceDetailsData":5799,"Encoding":5800,"CodeableConcept":5801,"Ġupdated":5802,"When":5803,"ĠChangeNotifier":5804,"ĠisLoading":5805,"ä¹":5806,"updated":5807,"enabled":5808,"izes":5809,"riend":5810,"ĠonError":5811,"ĠSystem":5812,"ListTile":5813,"desc":5814,"plugin":5815,"ACK":5816,"tags":5817,"Equals":5818,"MS":5819,"xz":5820,"Ġ26":5821,"Ġ255":5822,"Ġkeys":5823,"ĠCH":5824,"ExplanationOfBenefit":5825,"tected":5826,"Remote":5827,"download":5828,"dout":5829,"Ġopacity":5830,"ĠparentId":5831,"signed":5832,"posed":5833,"tree":5834,"pedia":5835,"Ġrepository":5836,"ificant":5837,"Medium":5838,"Ffi":5839,"isLoading":5840,"ĠEdit":5841,")))":5842,"Ġrest":5843,"uple":5844,"ĠGe":5845,"Ġprev":5846,"Ġskip":5847,"FhirExtension":5848,"Len":5849,"PRE":5850,"Ġpe":5851,"tro":5852,"verage":5853,"Deleted":5854,"Ġfollowing":5855,"ĠDocument":5856,"cart":5857,"ĠIS":5858,"enger":5859,"Ġchat":5860,"asy":5861,"ĠModel":5862,"Identity":5863,"ĠValid":5864,"cause":5865,"åĨ":5866,"toInt":5867,"Ġeffect":5868,"Repo":5869,"Credentials":5870,"ĠgetDefault":5871,"mV":5872,"Ø¯":5873,"Ġsubject":5874,".';":5875,"MA":5876,"Uid":5877,"ĠreturnStruct":5878,"Condition":5879,"curren":5880,"invalid":5881,"ĠBar":5882,")';":5883,"vite":5884,"Ġmath":5885,"StatefulWidget":5886,"Ġ31":5887,"Pages":5888,"Super":5889,"ĠVoidCallback":5890,"canvas":5891,"hp":5892,"land":5893,"é¡":5894,"EXT":5895,"peat":5896,"Ġunique":5897,";\\":5898,"ĠBy":5899,"yaml":5900,"AndSettle":5901,"ĠDo":5902,"Ġnames":5903,"Ġfailed":5904,"Ġ21":5905,"ĠProfile":5906,"apply":5907,"feed":5908,"small":5909,"Øª":5910,"song":5911,"umbn":5912,"displayName":5913,"TokenType":5914,"Feature":5915,"pag":5916,"æī":5917,"Routes":5918,"Ġgoogle":5919,"lc":5920,"public":5921,"admin":5922,"Ġmove":5923,"ÃŃ":5924,"éĹ":5925,"rong":5926,"food":5927,"Ġauthor":5928,"Ġ(!_":5929,"SwK":5930,"pumpAndSettle":5931,"Corner":5932,"Face":5933,"equatable":5934,"navigation":5935,"Ġ36":5936,"Ġphysics":5937,"imensions":5938,"Ġshadow":5939,"Ġnormal":5940,"currency":5941,"ĠSIGN":5942,"Ġwrit":5943,"ĠcreatedAt":5944,"messages":5945,"GR":5946,"Grey":5947,"la":5948,"Ġsignificant":5949,"CO":5950,"ĠLocale":5951,"Scan":5952,"Short":5953,"gp":5954,"gex":5955,"Summary":5956,"ster":5957,"hell":5958,"Inst":5959,"ĠXml":5960,"Panel":5961,"strHomeaddress":5962,"FormState":5963,"Evidence":5964,"folder":5965,"Hint":5966,"ĠWork":5967,"struction":5968,"ĠStore":5969,"Ġpos":5970,"Bucket":5971,"Ori":5972,"Ġdon":5973,"ClosingPrice":5974,"ires":5975,"itor":5976,"isual":5977,"showSnackBar":5978,"OmZ":5979,"dr":5980,"Ġcharacter":5981,"Ġdelegate":5982,"Trigger":5983,"Ġparsed":5984,"ze":5985,"æİ":5986,"ĠDatabase":5987,"waiting":5988,"ĠDelete":5989,"ĠBoxConstraints":5990,"Puzzle":5991,"imm":5992,"elementAt":5993,"ĠBuiltValue":5994,">\",":5995,"scure":5996,"()}":5997,"failed":5998,"ĠfromJson":5999,"Ġletter":6000,"ifest":6001,"ĠTimer":6002,"Ġ29":6003,"Role":6004,"LI":6005,"Random":6006,"Ġnetwork":6007,"Strings":6008,"Ġwidgets":6009,"Ġ23":6010,"Ġhow":6011,"Ð½Ð°Ñı":6012,"summary":6013,">),":6014,"ĠMyHomePage":6015,"Ġ**":6016,"Ġreset":6017,"apsed":6018,"initialize":6019,"ti":6020,"vi":6021,"ĠTextOverflow":6022,"irth":6023,"Ġ70":6024,"Ġfluctate":6025,"ĠÐ²":6026,"NAME":6027,"oY":6028,"Push":6029,"ae":6030,"square":6031,"desired":6032,"ĠÐº":6033,"ÐµÐ½":6034,"ĠblurRadius":6035,"plicit":6036,"wrap":6037,"½®":6038,"ĠruntimeType":6039,"ONG":6040,"VALID":6041,"Ġpoints":6042,"Tags":6043,"currentUser":6044,"Mirror":6045,"ador":6046,"Ġscope":6047,"plit":6048,"Ġfail":6049,"Ġ->":6050,"DataSource":6051,"interface":6052,"mory":6053,"avel":6054,"Modal":6055,"grid":6056,"grade":6057,"Ġpreload":6058,"Ġchanged":6059,"ĠAC":6060,"ScrollPhysics":6061,"enticated":6062,"lipsis":6063,"Ind":6064,"Ġdifferent":6065,"Req":6066,"redient":6067,"createdAt":6068,"Ġcompletes":6069,"ito":6070,"Invoice":6071,"dispatch":6072,"ĠdefaultValue":6073,"Validator":6074,"skip":6075,"Ġ':":6076,"Ġ132":6077,"startsWith":6078,"Ġroom":6079,"Swatch":6080,"ĠHomePage":6081,"Diagnost":6082,"throws":6083,"sample":6084,"Reason":6085,"parser":6086,"æĹ¶":6087,"Ġrequire":6088,"Write":6089,"radius":6090,"ĠMark":6091,"Ġspace":6092,"Tooltip":6093,"Generate":6094,"Dismiss":6095,"requ":6096,"ĠAb":6097,"ĠAlertDialog":6098,"Download":6099,"AGE":6100,"ĠSp":6101,"ĠĠĠĠĠĠĠĠĠĠĠĠĠĠĠĠĠĠĠĠĠĠĠĠĠĠĠĠĠĠĠĠĠĠĠĠĠĠ":6102,"ĠExt":6103,"webp":6104,"ĠHttpServer":6105,"rating":6106,"ICAg":6107,"positional":6108,"mergeFromMessage":6109,"mar":6110,"xml":6111,"æį":6112,"ĠcreateRepeated":6113,"Launch":6114,"apis":6115,"Ġ58":6116,"Services":6117,"===":6118,"Margin":6119,"Ã³":6120,"Invocation":6121,"ĠURL":6122,"ĠBlocProvider":6123,"eh":6124,"way":6125,"Ġandroid":6126,"ĠimageUrl":6127,"FOR":6128,"IR":6129,"Pattern":6130,"best":6131,"åĮ":6132,"classes":6133,"favorite":6134,"Ġowner":6135,"ĠExpression":6136,"unted":6137,"ĠisNotNull":6138,"Ġdestination":6139,"Locations":6140,"ĠOrder":6141,"Brightness":6142,"ota":6143,"ĠWidgets":6144,"Lk":6145,"aily":6146,"Ġalways":6147,"Glz":6148,"None":6149,"care":6150,"volume":6151,"Ġoverhead":6152,"Secret":6153,"Ġcursor":6154,"ERROR":6155,"ä¸Ń":6156,"Mov":6157,"herited":6158,"=[":6159,"ef":6160,"amily":6161,"ordinates":6162,"Schedule":6163,"ĠAsync":6164,"rane":6165,"JSON":6166,"include":6167,"ĠHTTP":6168,"tain":6169,"Semantics":6170,"Getter":6171,"constructor":6172,"bind":6173,"ĠVer":6174,"timestamp":6175,"'\\":6176,"gative":6177,"White":6178,"Favorite":6179,"Ġ))":6180,"ĠRandom":6181,"Ġaccept":6182,"perimental":6183,"FR":6184,"tooth":6185,".''',":6186,"ually":6187,"Accept":6188,"Directive":6189,"Ġquestion":6190,"Ġdue":6191,"Loader":6192,"CR":6193,"éĩ":6194,"property":6195,"Ġensure":6196,"ASS":6197,"Observer":6198,"bc":6199,"hand":6200,"ĠVar":6201,"####":6202,"ls":6203,"ĠDropdown":6204,"Ġwithin":6205,"thenAnswer":6206,"Ġjo":6207,"GenericExtensions":6208,"routes":6209,"Ġrule":6210,"GeneratedMessageGenericExtensions":6211,"ony":6212,"ĠboxShadow":6213,"ä¼":6214,"delegate":6215,"ĠGenerated":6216,"rinkWrap":6217,"aurant":6218,"Cursor":6219,"ĠLinear":6220,"olog":6221,"Groups":6222,"PackageName":6223,"Ġsw":6224,"Ġbecause":6225,"ĠprimaryColor":6226,"license":6227,"Ġcondition":6228,"locity":6229,"ĠjsonDecode":6230,"Ġseries":6231,"Black":6232,"Ġdocumentation":6233,"roadcast":6234,">((":6235,"accentColor":6236,"]:":6237,"Attachment":6238,"subject":6239,"Hello":6240,"Ġassociated":6241,"permission":6242,"kFontFam":6243,"Ġpublic":6244,"ĠRead":6245,"BytesNested":6246,"Ġmatches":6247,"Green":6248,"Ġgl":6249,"ĠfloatingActionButton":6250,"Ġ[]).":6251,"ĠBl":6252,"Ġgraph":6253,"hasRequired":6254,"elements":6255,"Ġvariables":6256,"fixnum":6257,"wp":6258,"Ġlak":6259,"ored":6260,"707":6261,"Ġtags":6262,"318":6263,"hasRequiredFields":6264,"Changes":6265,"Please":6266,"Weather":6267,"ĠBoxShadow":6268,"nextInt":6269,"animationController":6270,"\"},{\"":6271,"Dropdown":6272,"jdf":6273,"oh":6274,"ĠsetField":6275,"Rating":6276,"Fix":6277,"Ġ'\"":6278,"ĠÐ½":6279,"BottomSheet":6280,"cached":6281,"ìĿ":6282,"atas":6283,"Arrow":6284,"Ġsuch":6285,"ĠPop":6286,"ĠBottomNavigationBar":6287,"LT":6288,"Override":6289,"Initialized":6290,"trl":6291,"analysis":6292,"chain":6293,"Than":6294,"Clip":6295,"RRect":6296,"æŀ":6297,"Ġboth":6298,"sheet":6299,"Ġcell":6300,"Ġ\",":6301,"Ġadded":6302,"XT":6303,"achine":6304,"days":6305,"tools":6306,"Ġwrap":6307,"LCJ":6308,"iform":6309,"edge":6310,"BaseRequest":6311,"Endpoint":6312,"lang":6313,"Ð´":6314,"iming":6315,"ÑĥÐ±":6316,"Sample":6317,"Geometry":6318,"payment":6319,"timer":6320,"Ġkeyword":6321,"pay":6322,"Ġ})),":6323,"short":6324,"Ġpa":6325,"append":6326,"Horizontal":6327,"toggle":6328,"termin":6329,"aving":6330,"Seconds":6331,"raries":6332,"upl":6333,"ä»¶":6334,"cG":6335,"lipb":6336,"012":6337,"Obj":6338,"319":6339,"cp":6340,"dl":6341,"struct":6342,"ĠCompleter":6343,"Ġsoftware":6344,"Ġexit":6345,"128":6346,")>":6347,"zone":6348,"uring":6349,"ĠcontentPadding":6350,"MMM":6351,"1010101010101010":6352,"MENT":6353,"Square":6354,"sink":6355,"}}":6356,"Ġrepo":6357,"ĠNumber":6358,"firstWhere":6359,"Ke":6360,"score":6361,"Ġ'@',":6362,"Ġperform":6363,"Stat":6364,"Ġlayout":6365,"ordinate":6366,"Ms":6367,"Ġ59":6368,"kemon":6369,"Ġrefer":6370,"msgSend":6371,"Ġpermissions":6372,"unsplash":6373,"ctionary":6374,"Fore":6375,"PH":6376,"åıĸ":6377,"umbnail":6378,"|'],":6379,"arison":6380,"GgHJGgHJGgHJGgHJGgHJGgHJGgHJGgHJGgHJGgHJGgHJGgHJGgHJGgHJGgHJGgHJ":6381,"ente":6382,"isTrue":6383,"ĠjsonDecoder":6384,"byKey":6385,"329":6386,"Attributes":6387,"scrollController":6388,"NE":6389,"çĽ":6390,"Ġ~":6391,"({@":6392,"ĠTokenType":6393,"(!":6394,"symbol":6395,"venue":6396,"king":6397,"latitude":6398,"MyHomePageState":6399,"Ġunknown":6400,"News":6401,"åĬ¨":6402,"áº":6403,"\\/\\/":6404,"mn":6405,"Ġenter":6406,"oYS":6407,"accept":6408,"toMap":6409,"loor":6410,"Ġtheir":6411,"available":6412,"ĠWrap":6413,"ĠObservable":6414,"fixed":6415,"ny":6416,"ellipsis":6417,"fSwK":6418,"Ġcover":6419,"Ġclip":6420,"ĠIs":6421,"Assets":6422,"Ġenvironment":6423,"ï¼ļ":6424,"æĶ":6425,"Ġconnect":6426,"Ġhide":6427,"ĠtextDirection":6428,"module":6429,"drag":6430,"handler":6431,"IND":6432,"Ġ');":6433,"endor":6434,"ventory":6435,"Ġshort":6436,"ä¸į":6437,":\\/\\/":6438,"Ġop":6439,"ifiers":6440,"Ġsubscription":6441,"Design":6442,"downloadOptions":6443,"hint":6444,"za":6445,"Ġphoto":6446,"('\\":6447,"secondary":6448,"even":6449,"Ġbel":6450,"Alpha":6451,"Codes":6452,"Head":6453,"dH":6454,"olyline":6455,"Ġ}));":6456,"akes":6457,"organ":6458,"æ³":6459,">>{};":6460,"Operator":6461,"ease":6462,"Ġdoesn":6463,"immutable":6464,"Ġë":6465,"asFunction":6466,"ĠimplicitRules":6467,"gesture":6468,"lipboard":6469,"istics":6470,"ĠisNull":6471,"prod":6472,"Ġtimeout":6473,"apture":6474,"ĠCircleAvatar":6475,"License":6476,"aOS":6477,"ĠFind":6478,"errors":6479,"ONE":6480,"FO":6481,"Before":6482,"ĠService":6483,"LF":6484,"Rot":6485,"SER":6486,"ĠâĢ":6487,"ĠHttpServerMock":6488,"Replacement":6489,"ifec":6490,"redicate":6491,"Health":6492,")],":6493,"gb":6494,"remote":6495,"leep":6496,"ama":6497,"Course":6498,"COM":6499,"IED":6500,"external":6501,"Ġmaking":6502,"keyboard":6503,"']!.":6504,"history":6505,"otion":6506,"`',":6507,"signIn":6508,">))":6509,"Ġimg":6510,"pattern":6511,"Ġnodes":6512,"Ð°Ð»ÑĥÐ±":6513,"GE":6514,"Ġvec":6515,"Ġdone":6516,"OrNull":6517,"@$":6518,"updates":6519,"original":6520,"ĠPackage":6521,"Ġtap":6522,"TextColor":6523,"icket":6524,"ResourceType":6525,"jection":6526,"ifecycle":6527,"Ġreader":6528,"Ġpointer":6529,"Ġjust":6530,"Ø¨":6531,"Ġcounter":6532,"files":6533,"Two":6534,"Zm":6535,"Actions":6536,"pense":6537,"hedul":6538,"Finder":6539,"smoke":6540,"odd":6541,"ANGUL":6542,"![":6543,"Dj":6544,"320":6545,"Article":6546,"failure":6547,"tral":6548,"Ġ38":6549,"Links":6550,"è§":6551,"stit":6552,"Ġem":6553,"ToString":6554,"ĠChar":6555,"fire":6556,"Matcher":6557,"wn":6558,"æĿ":6559,"ica":6560,"Logger":6561,"pending":6562,"mergeFromJson":6563,"Ok":6564,">>();":6565,"fc":6566,"agraph":6567,"FieldError":6568,"ĠqueryOffset":6569,"stringResponse":6570,"ked":6571,"Ġallowed":6572,"ĠANY":6573,"Ġresolve":6574,"dateTime":6575,"italic":6576,"ĠÐ¿Ð°Ð»ÑĥÐ±":6577,"ĠMem":6578,"ĠscrollDirection":6579,"mergeFromBuffer":6580,"ĠDecoration":6581,"Ġ'');":6582,"apple":6583,"ĠÐ¾":6584,"longitude":6585,"sTo":6586,"Ġsent":6587,"ĠHANGUL":6588,"iterator":6589,"uploadMedia":6590,"gorith":6591,"Il":6592,"Ġcity":6593,"Ġ34":6594,"Texture":6595,"Zh":6596,"orange":6597,"ĠLogger":6598,"fully":6599,"pacer":6600,"FocusNode":6601,"Iss":6602,"Rl":6603,"brightness":6604,"more":6605,"Ġprod":6606,"ickerProvider":6607,"aGlz":6608,"Units":6609,"attr":6610,"),),":6611,"Ġaudio":6612,"scan":6613,"specified":6614,"positories":6615,"Ġdefined":6616,"Hex":6617,"stage":6618,"Ġdisabled":6619,"dom":6620,"xi":6621,"ĠfocusNode":6622,"udit":6623,"ĠTransform":6624,"External":6625,"launcher":6626,"ĠOver":6627,"UCT":6628,"Author":6629,"è½":6630,"ä¸º":6631,"Days":6632,")_":6633,"rics":6634,"inger":6635,"reshold":6636,"mand":6637,"Ġuid":6638,"ĠCloud":6639,"comb":6640,"eds":6641,"ĠFirestore":6642,"Slider":6643,"/'":6644,"rase":6645,"supported":6646,"Ġthem":6647,"Codec":6648,"ãģĦ":6649,"æľī":6650,"ĠFocusNode":6651,"ĠAt":6652,"referred":6653,"crete":6654,"ker":6655,"å±":6656,"enge":6657,"325":6658,"Ġquantity":6659,"UpperCase":6660,"You":6661,"ĠInitial":6662,"Ùĩ":6663,"ids":6664,"schedule":6665,"ales":6666,"Ġrows":6667,"ada":6668,"quantity":6669,"Ġroutes":6670,"ĠcrossAxis":6671,"Ġnavigation":6672,"2016":6673,"313":6674,"Hour":6675,"fold":6676,"idu":6677,"ĠSnackBar":6678,"Ġdrag":6679,"åľ¨":6680,"Evenly":6681,"315":6682,"operation":6683,"uploadOptions":6684,"ĠContact":6685,"316":6686,"Go":6687,"ring":6688,"Ġregion":6689,"ĠRef":6690,"wd":6691,"Ġind":6692,"Allow":6693,"Ġ48":6694,"spaceEvenly":6695,"nackbar":6696,"è¾":6697,"Ġdecode":6698,"Ġcomb":6699,"providers":6700,"mlm":6701,"Ġ002":6702,"Cert":6703,"EB":6704,"Rv":6705,"alent":6706,"utation":6707,"Ġindic":6708,"146":6709,"Plus":6710,"olute":6711,"ĠTween":6712,"ĠStringBuffer":6713,"Pub":6714,"make":6715,"å¸":6716,"reverse":6717,"ĠLink":6718,"ĠĠĠĠĠĠĠĠĠĠĠĠĠĠĠĠĠĠĠĠ":6719,"ĠĠĠĠĠĠĠĠĠĠĠĠĠĠĠĠĠĠĠĠĠĠĠĠĠĠĠĠĠĠĠĠĠĠĠĠĠĠĠĠĠĠĠĠĠĠĠĠĠĠĠĠĠĠĠĠĠĠĠ":6720,"ĠĠĠĠĠĠĠĠĠĠĠĠĠĠĠĠĠĠĠĠĠĠĠĠĠĠĠĠĠĠĠĠĠĠĠĠĠĠĠĠĠĠĠĠ":6721,"ResourceApi":6722,"cursive":6723,"ĠUnicode":6724,"elcome":6725,"Ġ45":6726,"ĠAnalysis":6727,"å®ļ":6728,"VM":6729,"Ġhand":6730,"2020":6731,"POST":6732,"Ġappro":6733,"JldHVybiB":6734,"Ig":6735,"locations":6736,"Popup":6737,"ĠFlexible":6738,"txt":6739,"reported":6740,"Ġmultiple":6741,"flict":6742,"andid":6743,"Tween":6744,"iet":6745,"entries":6746,"Exit":6747,"force":6748,"Manage":6749,"Fe":6750,"hide":6751,"rebuild":6752,"cat":6753,"ĠMatrix":6754,"Ġ++":6755,"1200":6756,"SY":6757,"pisode":6758,"ä¿":6759,"erci":6760,"117":6761,"Ġ2020":6762,"LongPress":6763,"retch":6764,"KGUEKGUEKGUEKGUEKGUEKGUEKGUEKGUEKGUEKGUEKGUEKGUEKGUEKGUEKGUEKGUE":6765,"Destination":6766,"sm":6767,"Ġextra":6768,"ĠToast":6769,"omatically":6770,"LAp":6771,"Missing":6772,"cap":6773,"ense":6774,"\")),":6775,"Ry":6776,"music":6777,"Ã¼":6778,"Ð¿":6779,"role":6780,"ĠshrinkWrap":6781,"Company":6782,"Ġapply":6783,"Shared":6784,"ĠstackTrace":6785,"bre":6786,"Ġbrightness":6787,"ifference":6788,"Choice":6789,"ĠConnection":6790,"ĠLoad":6791,"Drop":6792,"uite":6793,"Cg":6794,"origin":6795,"Ġdir":6796,"ORD":6797,"nb":6798,"actual":6799,"ViewState":6800,"week":6801,"Stamp":6802,"when":6803,"aptive":6804,"Ġfore":6805,"hello":6806,"por":6807,"prot":6808,"Ġscript":6809,"helpers":6810,"Ġ_(":6811,"exit":6812,"Ġanswer":6813,"328":6814,"790000":6815,"----------------------------------------------------------------":6816,"mantic":6817,"Ij":6818,"rown":6819,"ĠNOTE":6820,"disabled":6821,"eeded":6822,"^^^^":6823,"mediate":6824,"onical":6825,"illing":6826,"Signature":6827,"Ġissue":6828,"ingleton":6829,"chool":6830,"Dependencies":6831,"ĠCountry":6832,"Ġast":6833,"Reset":6834,"Ġhead":6835,"Ġpartial":6836,"evenodd":6837,"untries":6838,"fromIndex":6839,"ĠArt":6840,":${":6841,"TT":6842,"evalu":6843,"Ġindicator":6844,"colorScheme":6845,"ĠDateFormat":6846,"Ġiterable":6847,"Comments":6848,"toUpperCase":6849,"ely":6850,"allenge":6851,"plier":6852,"Transfer":6853,"Contacts":6854,"gamepedia":6855,"LINE":6856,"gg":6857,"éĿ":6858,"checked":6859,"KEY":6860,"KT":6861,"KaWY":6862,"char":6863,"ĠÐ¿Ð°Ð»ÑĥÐ±Ð°":6864,"Rpg":6865,"axis":6866,"Ġ':',":6867,"Ġmatrix":6868,"4444":6869,"compareTo":6870,"Ġoc":6871,"ĠUI":6872,"ĠFirebaseAuth":6873,"big":6874,"Ġrouter":6875,"Currency":6876,"Ġdio":6877,"Begin":6878,"sn":6879,"Ġtyped":6880,"pread":6881,"directory":6882,"scope":6883,"unce":6884,"Ġmaterial":6885,"imageUrl":6886,"mployee":6887,"317":6888,"Ġrelative":6889,"aced":6890,"like":6891,"1234":6892,"ERO":6893,"condition":6894,"CA":6895,"Fi":6896,"faces":6897,"sur":6898,"Ġsample":6899,"liance":6900,"topic":6901,"repeated":6902,"udy":6903,"Animated":6904,"ĠLoading":6905,"jdGlvbi":6906,"cg":6907,"ĠConst":6908,"Plan":6909,"\"}":6910,".$":6911,"BuiltValue":6912,"Cmlm":6913,"Edge":6914,"yellow":6915,"Ġ37":6916,"Ġ'')":6917,"anding":6918,">['":6919,"Categories":6920,"Fr":6921,"resses":6922,"centerLeft":6923,"ARRAN":6924,"products":6925,"Milliseconds":6926,"Ġfb":6927,"StateMixin":6928,"ĠWARRAN":6929,"Break":6930,"switch":6931,"erge":6932,"eries":6933,"ĠDemo":6934,"Nodes":6935,"Ġinterface":6936,"ĠFontAwesomeIcons":6937,"Ġexisting":6938,"RpgAwesome":6939,"udW":6940,"ĠSelector":6941,"Ast":6942,"HH":6943,"sY":6944,"ĠFocus":6945,"Variant":6946,"Ġmaybe":6947,"Notifications":6948,"dD":6949,"ones":6950,"('(":6951,"news":6952,"Ġprogram":6953,"ĠBoxShape":6954,"Delta":6955,"OU":6956,"Vt":6957,"ĠnewValue":6958,"Ġrot":6959,"Ġtimestamp":6960,"ĠREST":6961,"job":6962,"Ġfailure":6963,"002":6964,"ĠAuto":6965,"ickness":6966,"ensor":6967,"('.":6968,"ots":6969,"jector":6970,"Ġagain":6971,"ĠMo":6972,"catchError":6973,"Orientation":6974,"Btn":6975,"Ġç":6976,"Ġinsert":6977,"Started":6978,"ball":6979,"ListState":6980,"Anim":6981,"Ġcharacters":6982,"gorithm":6983,"ITE":6984,"reason":6985,"ApQy":6986,"notes":6987,"Memory":6988,"CharProperty":6989,"NOT":6990,"blem":6991,"olyg":6992,"reader":6993,"review":6994,"icable":6995,"ĠEquatable":6996,"ĠDesc":6997,"================":6998,"CB":6999,"Ġspan":7000,"baidu":7001,"ĠUnicodeRange":7002,"=!":7003,"LA":7004,"SA":7005,"Transformer":7006,"Pay":7007,"Ġdomain":7008,"keep":7009,"scureText":7010,"ĠCharProperty":7011,"Ġ'@":7012,"Ġsplash":7013,"Ġ<<":7014,"notify":7015,"llig":7016,"repo":7017,"Ġvari":7018,"ApQyApQy":7019,"oop":7020,"percent":7021,"ĠletterSpacing":7022,":`.":7023,"nav":7024,"_$_":7025,"ApiRequestError":7026,"ifies":7027,"Ġdefinition":7028,"MT":7029,"Common":7030,"ĠAuthors":7031,"Payload":7032,"Buttons":7033,"179":7034,"Authentication":7035,"ĠScrollController":7036,"PRO":7037,"ZE":7038,"clock":7039,"Ġfirebase":7040,"Ġworld":7041,"ĠStatus":7042,"Bounds":7043,"Optional":7044,"Pkg":7045,"align":7046,"()?":7047,"aXM":7048,"QF":7049,"Ġrelease":7050,"Ġpi":7051,"Nl":7052,"thes":7053,"Ġcrane":7054,"mounted":7055,"bodyText":7056,"nextPageToken":7057,"running":7058,"ĠDet":7059,"vron":7060,"Ġ133":7061,"102":7062,"Esc":7063,"confirm":7064,"Ġevery":7065,"Effect":7066,"itTest":7067,"ĠĠĠĠĠĠĠĠĠĠĠĠĠĠĠĠĠĠĠĠĠĠĠĠĠĠĠĠĠĠĠĠĠĠĠĠĠĠĠĠĠĠĠĠĠĠĠĠĠĠĠĠĠĠĠĠĠĠĠĠĠ":7068,"Measure":7069,"ĠCodeableConcept":7070,"Join":7071,"Git":7072,"125":7073,"119":7074,"spe":7075,"TIES":7076,"Syntax":7077,"icipant":7078,"æģ":7079,"ĠGrid":7080,"ĠAppLocalizations":7081,"æĸ¹":7082,"ĠcenterTitle":7083,"tor":7084,"ceptions":7085,"listener":7086,"compute":7087,"Assignment":7088,"Ġhelp":7089,"currence":7090,"II":7091,"ving":7092,"wire":7093,"Assert":7094,"Ly":7095,"Ġpayment":7096,"Ġwould":7097,"ĠAddress":7098,"åĬł":7099,"pare":7100,"mous":7101,"Chip":7102,"Should":7103,"ĠPermission":7104,"Ġpayload":7105,"ife":7106,"click":7107,"RenderObject":7108,"lementation":7109,"Ġscore":7110,"Resp":7111,"UrlRequest":7112,"ĠsubBuilder":7113,"Ġtopic":7114,"TIONS":7115,"ickerProviderStateMixin":7116,"Sdk":7117,"lB":7118,"Ġremote":7119,"ĠSpec":7120,"1879":7121,"lligence":7122,"314":7123,"onPressed":7124,"ĠaccTradeValue":7125,"ĠunitsTraded":7126,"Density":7127,"lem":7128,"ĠFilter":7129,"RegExp":7130,"_,":7131,"hi":7132,"cep":7133,"Ġforce":7134,"Expanded":7135,"324":7136,"ech":7137,".$_":7138,"Ĥ¹":7139,"ĠUt":7140,"follow":7141,"etic":7142,"Album":7143,"Ġ401":7144,"lineTo":7145,"bove":7146,"æĮ":7147,"design":7148,"chron":7149,"Ġrole":7150,"Ġstruct":7151,"Ġcompleted":7152,"iki":7153,"tasks":7154,"pause":7155,"DartType":7156,"ĠGoogleCloud":7157,"riteria":7158,"CheckedMode":7159,"NU":7160,"Ġ120":7161,"Toggle":7162,"anger":7163,"Dispatch":7164,"\\$":7165,"nam":7166,"Recogn":7167,"irt":7168,"BU":7169,"reater":7170,"ĠWITH":7171,"Ġdownload":7172,"packages":7173,"clus":7174,"Ġavatar":7175,"Bit":7176,"reply":7177,"geon":7178,"Ġfocus":7179,"Ġinterval":7180,"fs":7181,"Scrollable":7182,"rotate":7183,"Export":7184,"END":7185,"Ġotherwise":7186,"Ġflags":7187,"Ġfinally":7188,"105":7189,"Ġprovide":7190,"Mobile":7191,"Sequence":7192,"anti":7193,"moveNext":7194,"Ġ~/":7195,"330":7196,"ListItem":7197,"('<":7198,"ĠMan":7199,"Ġexists":7200,"Ġannotation":7201,"Ġattribute":7202,"gedIn":7203,"lw":7204,"Ġfin":7205,"isch":7206,"Ġconfirm":7207,"imul":7208,"agger":7209,"IOS":7210,"Ġsup":7211,"Expansion":7212,"cursor":7213,"onymous":7214,"xc":7215,"Ġtrigger":7216,"ĠLibrary":7217,"GF":7218,"Binary":7219,"ĠMulti":7220,"NullFieldError":7221,"ĠBuiltValueNullFieldError":7222,"ĠVariable":7223,"four":7224,"ubic":7225,"Ġ!_":7226,"defaultFor":7227,"CENT":7228,"Sen":7229,"rat":7230,"æĢ":7231,"Ġadditional":7232,"crypt":7233,"Ġpublisher":7234,"overlay":7235,"Editor":7236,"ichText":7237,"kFontPkg":7238,"ga":7239,"Ġcamera":7240,"Ġtoggle":7241,"(_$":7242,"icks":7243,"epali":7244,"Ġoverlay":7245,"Ġcolumns":7246,"0109":7247,"Ci":7248,"ĠPri":7249,"(\"$":7250,"nodes":7251,":$":7252,"borderRadius":7253,"geo":7254,"quiv":7255,"ynchron":7256,"ĠNavigation":7257,"clarations":7258,"Ġimports":7259,"Ġ[_":7260,"OSPolicy":7261,"?>({":7262,"positionalArgs":7263,"ĠBook":7264,"ĠLatLng":7265,"Ġcontain":7266,"ĠTransaction":7267,"ousel":7268,"ĠDecorationImage":7269,"Branch":7270,"Ġsrc":7271,"Ġsocket":7272,"Ġdrawer":7273,"Ġstar":7274,"Ġdeleted":7275,"outube":7276,"ĠWeather":7277,"Warning":7278,"rift":7279,"Ġpush":7280,"Ġwait":7281,"ivate":7282,"\"',":7283,"cut":7284,"ĠCl":7285,"Strategy":7286,"BytesMixed":7287,"generator":7288,"938":7289,"eX":7290,"¤º":7291,"Ġedge":7292,"15265":7293,"hasData":7294,"åı¯":7295,"millisecondsSinceEpoch":7296,"480":7297,"Ġpixel":7298,"Ġhigh":7299,"maining":7300,"Hub":7301,"micro":7302,"sy":7303,"Ġdiv":7304,"Ġexcept":7305,"144":7306,"ĠprimarySwatch":7307,"(',":7308,"112":7309,"ARK":7310,"feature":7311,"STRUCT":7312,"Ġstudent":7313,"Ð¾Ð»":7314,"Validation":7315,"execute":7316,"ĠResource":7317,"æĸ°":7318,"38928":7319,"navigator":7320,"Ġbit":7321,"extra":7322,"Ġbehavior":7323,"Ġ62":7324,"ĠupdatedAt":7325,"Ġ2019":7326,"110605":7327,"ysical":7328,"Ġzero":7329,"14715265":7330,"Ġwriting":7331,"389281879":7332,"Dao":7333,"LatLng":7334,"ND":7335,"Ġsync":7336,"checkNotNull":7337,"Permissions":7338,"Messenger":7339,"OC":7340,"å·":7341,"åī":7342,"toStringAs":7343,"Ġcurrently":7344,"ĠdescriptionElement":7345,"ilationUnit":7346,"Draw":7347,"Li":7348,"tl":7349,"}),":7350,"ĠProcess":7351,"Ġautomatically":7352,"fast":7353,"matrix":7354,"Ġest":7355,"crypto":7356,"requency":7357,"!');":7358,"isolate":7359,"ĠisEmpty":7360,"Signal":7361,"Cluster":7362,">');":7363,"master":7364,"Ġwatch":7365,"Ġangle":7366,"Ġcontaining":7367,"thenReturn":7368,"ĠbuildCounterGoogleCloudApigeeV":7369,"intelligence":7370,"æģ¯":7371,"awesome":7372,"factory":7373,"sState":7374,"}'":7375,"FunctionType":7376,"ificate":7377,"Ġseconds":7378,"rine":7379,"Ġboolean":7380,"Ð¾Ð²":7381,"sia":7382,"unicip":7383,"MyAppState":7384,"114":7385,"Ġdefine":7386,"ĠInterface":7387,"Finished":7388,"CheckedModeBanner":7389,"?:":7390,"Power":7391,"basic":7392,"FontSize":7393,"ĠProperty":7394,"ĠLinearGradient":7395,"Speed":7396,"Ġ27":7397,"ĠDialog":7398,"ÑĢÐµÐ":7399,"env":7400,"Ġmon":7401,"Ġ512":7402,"ĠApache":7403,"Ġoutline":7404,"Ġspecifying":7405,"Relation":7406,"olygon":7407,"clip":7408,"å¹":7409,"Ġsequence":7410,"riverpod":7411,"hpcy":7412,"Sliver":7413,"payload":7414,"ĠSvg":7415,"rip":7416,"ShowCheckedModeBanner":7417,"ercise":7418,"Ġfloat":7419,"Ġ\"+":7420,"CC":7421,"dig":7422,"ĠOne":7423,"Ġmembers":7424,"Ġimages":7425,"789":7426,"Ġ({":7427,"tryParse":7428,"Added":7429,"marker":7430,"ĠFormat":7431,"æĸĩ":7432,"è¡¨":7433,"AK":7434,"ĠSerializ":7435,"Ġmov":7436,"ĠOperation":7437,"ĠAct":7438,"=');":7439,"gColor":7440,"Ø³":7441,"ĠAudio":7442,"Ġexpansion":7443,"timeout":7444,"łģ":7445,"ĠTHE":7446,"Products":7447,"vc":7448,"Ġfeature":7449,"Baseline":7450,"Playlist":7451,"ĠIntl":7452,"Agent":7453,"high":7454,"Paths":7455,"notations":7456,"è¯·":7457,"Normal":7458,"Pi":7459,"bot":7460,"article":7461,"Ġsuffix":7462,"period":7463,"Ġlabels":7464,")]":7465,"direct":7466,"sK":7467,"sZW":7468,"ĠOB":7469,"EventListener":7470,"EEK":7471,"District":7472,"Ġ])":7473,"unused":7474,"Ġsuggest":7475,"Ġanalysis":7476,"opacity":7477,"Ġmodify":7478,"ĠParse":7479,"uz":7480,"ĠST":7481,"Ġpurpose":7482,"Ġdecl":7483,"Ġrate":7484,"Until":7485,"RoaXM":7486,"redentials":7487,"Ġprivate":7488,"!)":7489,"Final":7490,"Suffix":7491,"Ġthese":7492,"help":7493,"Ġcurrency":7494,"Ġimplementation":7495,"ĠFutureBuilder":7496,"witter":7497,"ico":7498,"ĠTextDirection":7499,"ĠdateTime":7500,"ientation":7501,"ĠClipRRect":7502,"ically":7503,"Ġbarrier":7504,"trieve":7505,"ICAgICAg":7506,"Pad":7507,"wt":7508,"Ġfocused":7509,"ural":7510,"ĠSpacer":7511,"Ġour":7512,"Without":7513,"Submitted":7514,")},":7515,"Ik":7516,"Ġim":7517,"orph":7518,"pear":7519,"ĠCamera":7520,"objects":7521,"='":7522,"got":7523,"emit":7524,"ĠGets":7525,"ĠParameter":7526,"front":7527,"notifications":7528,"Ġplaceholder":7529,"ersistent":7530,"UU":7531,"ĠTarget":7532,"ĠGraph":7533,"Ġalign":7534,"Ġbyte":7535,"Authorization":7536,"uation":7537,"uKGE":7538,"±»":7539,"icator":7540,"ĠConvert":7541,"Ġteam":7542,"sktop":7543,"ĠServer":7544,"Tx":7545,"ĠBigInt":7546,"]+/":7547,"OBX":7548,"ĠWARRANTIES":7549,"OW":7550,"ç§":7551,"sequence":7552,"Complex":7553,"Ġopening":7554,"stor":7555,"terator":7556,"UseCase":7557,"ĠdebugShowCheckedModeBanner":7558,"ĠEntity":7559,"getSZ":7560,"gments":7561,"Ġinner":7562,"160":7563,"Arch":7564,"Secondary":7565,"las":7566,"sender":7567,"anim":7568,"ĠSong":7569,"Ġ\".":7570,"isting":7571,"Insert":7572,"Divider":7573,"support":7574,"Ġlook":7575,"character":7576,"Consumer":7577,"Ġdelta":7578,"keyvalue":7579,"../../":7580,"Ġneeds":7581,"UA":7582,"vince":7583,"wa":7584,"ditions":7585,"ĠqueryParameters":7586,"two":7587,"real":7588,"Ġcar":7589,"ression":7590,"127":7591,"ployment":7592,"Ġbr":7593,"toBuilder":7594,"shape":7595,"Videointelligence":7596,"&#":7597,"FT":7598,"æŃ":7599,"Ġ'ðŁ":7600,"Ġnepali":7601,"ĠFloat":7602,"FilePath":7603,"375":7604,"AV":7605,"transition":7606,"Ġrating":7607,"jdGlvbihh":7608,"see":7609,"254":7610,"Ġcontents":7611,"Artifact":7612,"106":7613,"rowable":7614,"Ġpossible":7615,"Ġattributes":7616,"ĠFirebaseFirestore":7617,"Age":7618,"Zoom":7619,"ye":7620,"verted":7621,"ĠMon":7622,"mapapi":7623,"authentication":7624,"GoogleCloudVideointelligence":7625,"GoogleCloudVideointelligenceV":7626,"ITY":7627,"ds":7628,"margin":7629,"otes":7630,"uris":7631,"ĠHel":7632,"646":7633,">>>":7634,"ĠcheckGoogleCloudApigeeV":7635,"HJv":7636,"Ġperiod":7637,"ĠComplex":7638,"Guide":7639,"DF":7640,"Hook":7641,"Ir":7642,"Ġè":7643,"Ġpick":7644,"Ġmaps":7645,"åħ¥":7646,"æį®":7647,".\\":7648,"Jl":7649,"quality":7650,"protocol":7651,"ĠStreamBuilder":7652,"ĠSizeConfig":7653,"battery":7654,"Ġdistance":7655,"StateProperty":7656,"Either":7657,"Pdf":7658,"ĠSql":7659,"003":7660,"course":7661,"6666":7662,"Small":7663,"ĠMenu":7664,"iece":7665,"Ð¾ÑĢ":7666,"PropsBuilder":7667,"Driver":7668,"lt":7669,"Ñħ":7670,"relation":7671,"ĠChart":7672,"multiple":7673,"IdElement":7674,"lied":7675,"Ġmaximum":7676,"Ġcorrespon":7677,"ĠConstants":7678,"Qi":7679,"[__":7680,"after":7681,"alar":7682,"Ġ101":7683,"---":7684,"Quantity":7685,"Ġobtain":7686,"ases":7687,"Ġschedule":7688,"Ġtimes":7689,"âĢĻ":7690,"Yg":7691,"gate":7692,"Ġdiff":7693,"Conversation":7694,"connections":7695,"Other":7696,"Sel":7697,"Ġqueue":7698,"Ġregist":7699,"Ġthrough":7700,"Ġwallet":7701,"ĠRange":7702,"tokenize":7703,"Ready":7704,"utorial":7705,"]}":7706,"íķ":7707,"Anchor":7708,"Formal":7709,"ĠÐ¸":7710,"firmed":7711,"ĠJsonSerializable":7712,"BER":7713,"Ġisolate":7714,"clone":7715,"ublished":7716,"About":7717,"documentation":7718,"ki":7719,"destination":7720,"ĠTag":7721,"coming":7722,"ĠExif":7723,"UserId":7724,"Ġscaffold":7725,"okie":7726,"vance":7727,"éĻ":7728,"stone":7729,"Ġ_)":7730,"Ġsmall":7731,"ĠĠĠĠĠĠĊ":7732,"ĠmaxLength":7733,"Temperature":7734,"ÑĪ":7735,"metrics":7736,"ĠTH":7737,"Ġminimum":7738,"Completer":7739,"Food":7740,"Integer":7741,"eting":7742,"ĠDb":7743,"Ġorigin":7744,"133":7745,"lyrics":7746,"logging":7747,"Ġpercent":7748,"ãĤĵ":7749,"Ġpin":7750,"Ġsb":7751,"ĠFake":7752,"Ġ250":7753,"ĠiOS":7754,"ĠChannel":7755,"ceptor":7756,"Flow":7757,"PC":7758,"elocity":7759,"uman":7760,"Ġwhite":7761,"192":7762,"cipes":7763,"Ġfree":7764,"COL":7765,"ovo":7766,"tern":7767,"Ġconstant":7768,"className":7769,"activity":7770,"Nothing":7771,"vacy":7772,"Ġpress":7773,"Ġpolicy":7774,"oose":7775,"____":7776,"Ġjob":7777,"constraint":7778,"Clock":7779,"prefs":7780,"anch":7781,"hex":7782,"Ġ1200":7783,"Subtitle":7784,"DEF":7785,"ĠPerson":7786,"ĠRunIn":7787,"Lat":7788,"pink":7789,"alk":7790,"pointer":7791,"live":7792,"104":7793,"Runner":7794,"cipient":7795,"332":7796,"MD":7797,"Ġcr":7798,"Ġdesign":7799,"ĠOptional":7800,"bose":7801,"ultipart":7802,"GNode":7803,"impl":7804,"Ġcompare":7805,"Hours":7806,"_.":7807,"gree":7808,"ĠTop":7809,"Backup":7810,"ScaleFactor":7811,"PAR":7812,"lin":7813,"Ġrelated":7814,"1024":7815,"expr":7816,"åĽŀ":7817,"selector":7818,"Ter":7819,"Yy":7820,"Ġunt":7821,"Ġsure":7822,"ĠinitialValue":7823,"Members":7824,"cedure":7825,"Keep":7826,"CP":7827,"Qo":7828,"Yw":7829,"çłģ":7830,"keyword":7831,"Ġ2021":7832,"Ġ90":7833,"udWxs":7834,"IZ":7835,"floor":7836,"pers":7837,"Ġhighlight":7838,"Usage":7839,"Ġvsync":7840,"Ġdelay":7841,"ĠOpen":7842,"ĠWhether":7843,"Mac":7844,"Resolver":7845,"Ġdetail":7846,"Metric":7847,"SPEC":7848,"Ġ2014":7849,")\"":7850,"there":7851,"ports":7852,"Notes":7853,"à¤¾":7854,"åº¦":7855,"Cm":7856,"Ġdig":7857,"Real":7858,"ights":7859,"baseUrl":7860,"ofocus":7861,"Ġentries":7862,"icensed":7863,"contacts":7864,"warning":7865,"ĠCar":7866,"boarding":7867,"company":7868,"medium":7869,"130":7870,"ari":7871,"Ġtodo":7872,"Semi":7873,"subscription":7874,"ilities":7875,"ĠCollection":7876,"implemented":7877,"Isolate":7878,"good":7879,"ĠthrowsA":7880,"bucket":7881,"ĠcontentType":7882,"Ð°Ð²":7883,"ĠPlayer":7884,"pZih":7885,"uf":7886,"vZ":7887,"Ġbindings":7888,"agram":7889,"ĠStatic":7890,"minPrice":7891,"licenses":7892,"AMap":7893,"Some":7894,"å¾":7895,"losure":7896,"Ġinvo":7897,"Ġcould":7898,"agination":7899,"Ġshared":7900,"ĠInfo":7901,"cessed":7902,"Holder":7903,"multi":7904,"stretch":7905,"Setter":7906,"ĠDef":7907,"Methods":7908,"pushReplacement":7909,"Ġnavigator":7910,"mitted":7911,"Ġmodule":7912,"NV":7913,"nector":7914,"arn":7915,"Ġmulti":7916,"ĠRequired":7917,"Ġsignature":7918,"Criteria":7919,"DD":7920,"Dom":7921,"dot":7922,"Ġtx":7923,"016":7924,"115":7925,"ferred":7926,"Ġinternal":7927,"Ġapplicable":7928,"Ġterm":7929,"AUkaAUkaAUkaAUkaAUkaAUkaAUkaAUkaAUkaAUkaAUkaAUkaAUkaAUkaAUkaAUka":7930,"Closed":7931,"XX":7932,"ament":7933,"revenue":7934,"trace":7935,"109":7936,"shadow":7937,"SearchString":7938,"SignUp":7939,"ĠSem":7940,"implicitRules":7941,"Program":7942,"maxPrice":7943,"Swid":7944,"valuation":7945,"dmF":7946,"ç±»":7947,"Ġspread":7948,"ĠBoolean":7949,"Ġsetting":7950,"Union":7951,"ĠApplication":7952,"topLeft":7953,"Reducer":7954,"eXBl":7955,"texture":7956,"immer":7957,"Ġweek":7958,"ĠSw":7959,"Ð½Ñı":7960,"bul":7961,"Ġabove":7962,"Ġdirectives":7963,"Feedback":7964,"ĠScreenUtil":7965,"amber":7966,"Enable":7967,"archive":7968,"Ġ700":7969,"Playing":7970,"ĠviewModel":7971,">());":7972,"effect":7973,"åĢ":7974,"overrides":7975,"Ġgu":7976,"Ġimplied":7977,"LmE":7978,"ĠWITHOUT":7979,"hc":7980,"erved":7981,"aling":7982,"delta":7983,"éĥ":7984,"Ġcap":7985,"Ġ'#":7986,"xture":7987,"Ġ\"-":7988,"Connected":7989,"queryMap":7990,"ĠobscureText":7991,"æĪĲ":7992,"scaffoldKey":7993,"jfd":7994,"mic":7995,"blocs":7996,"mockito":7997,"aring":7998,"setState":7999,"ĠDrawer":8000,"mouse":8001,"subscribe":8002,"Ġcompute":8003,"ĠKIND":8004,"fluctateRate":8005,"closingPrice":8006,"prevClosingPrice":8007,"openingPrice":8008,"Ġ':'],":8009,"ĠPopup":8010,"=>":8011,"Ãª":8012,"Ġlask":8013,"Ġalsk":8014,"ĠMaterialStateProperty":8015,"Overrides":8016,"FilterBuilder":8017,"ĠfillColor":8018,"WebView":8019,"toStringAsFixed":8020,"Ġalskjdf":8021,"CF":8022,"Ez":8023,"zh":8024,"Ġgen":8025,"Ġ98":8026,"localization":8027,"bottomCenter":8028,"lers":8029,"album":8030,"formed":8031,"ÐµÐ»":8032,"Labels":8033,"MMMM":8034,"completed":8035,"Ġserializer":8036,"ĠContent":8037,"AE":8038,"Hive":8039,"dc":8040,"ws":8041,"ETTER":8042,"Suggestion":8043,"Cover":8044,"MC":8045,"Entries":8046,"StaticType":8047,"ores":8048,"yoh":8049,"atched":8050,"2021":8051,"Ġencode":8052,"commit":8053,"Ġclick":8054,"Gas":8055,"world":8056,"ãģ®":8057,"helf":8058,"enums":8059,"yohom":8060,"004":8061,"Decor":8062,"Ġdeck":8063,"Ġrunning":8064,"Ġrepresents":8065,"/${":8066,">(),":8067,"(\"${":8068,"area":8069,"Ġassign":8070,"modules":8071,"press":8072,"ĠFhir":8073,"Ġalias":8074,"derr":8075,"same":8076,"007":8077,"Like":8078,"PublicKey":8079,"ĠFI":8080,"Ġarea":8081,"labels":8082,"ehicle":8083,"OG":8084,"vey":8085,"326":8086,"Ġanother":8087,"INVALID":8088,"uchsia":8089,"ĠOutput":8090,"Oi":8091,"çĤ¹":8092,"Ġdeclaration":8093,"Intent":8094,"ypted":8095,"LED":8096,"Ġoverride":8097,"Ġprinter":8098,"éĿ¢":8099,"Mi":8100,"distance":8101,"è¦":8102,"Ġlower":8103,"Sql":8104,"oke":8105,"Ġfr":8106,"Ġsimple":8107,"Ġlayer":8108,"Contents":8109,"Ġplaylist":8110,"Surface":8111,"pixel":8112,"uy":8113,"ĠSD":8114,"ĠCr":8115,"Ġhistory":8116,"ARGB":8117,"bnV":8118,"ä»¥":8119,"414":8120,"IO":8121,"ench":8122,"ooth":8123,"118":8124,"updatedAt":8125,"Ġbounds":8126,"Ġvia":8127,"('#":8128,"ĠBAS":8129,"ĠDes":8130,"ponsive":8131,"Chapter":8132,"ARE":8133,"ARY":8134,"TIME":8135,"ĠSelect":8136,"Ġcopyright":8137,"349":8138,"Ġinitialize":8139,"ShkBShkBShkBShkBShkBShkBShkBShkBShkBShkBShkBShkBShkBShkBShkBShkBShkBShkBShkBShkBShkBShkBShkBShkBShkBShkBShkBShkBShkBShkBShkBShkB":8140,":'":8141,"cision":8142,"uer":8143,"ĠtoMap":8144,"Touch":8145,"Ġshare":8146,"Ġcontained":8147,"Objective":8148,"ĠiconSize":8149,"Ġpresent":8150,"[^/\\":8151,"Ġserialized":8152,"izing":8153,"Ġuses":8154,"é¡µ":8155,"Kit":8156,"ĠLETTER":8157,"NotFound":8158,"Implementation":8159,"ECT":8160,"purple":8161,"gender":8162,"æĭ":8163,"Ġ>>":8164,"Ġsink":8165,"Ġwhat":8166,"Sprite":8167,"Verification":8168,"cepted":8169,"opt":8170,"operator":8171,"rpc":8172,"safe":8173,"çº":8174,"acon":8175,"Ġinside":8176,"ĠAP":8177,"Late":8178,"aim":8179,"İ·":8180,"ĠĠĠĠĠĠĠĠĠĠĠĠĠĠĠĠĠĠĠĠĠĠ":8181,"Ġfe":8182,"ĠSend":8183,"Shop":8184,"Ġbucket":8185,"option":8186,"some":8187,"Ġprom":8188,"Ġsetup":8189,"uding":8190,"ĠBottomNavigationBarItem":8191,"Fire":8192,"firstName":8193,"Signed":8194,"Operations":8195,"YE":8196,"aar":8197,"sql":8198,"thumb":8199,"acing":8200,"Ġden":8201,"ĠEnum":8202,"ĠpageSize":8203,"Received":8204,"Purchase":8205,"FORM":8206,"att":8207,"Ġ[]);":8208,"resources":8209,"Ġla":8210,"Documents":8211,"junctionType":8212,"ĠImport":8213,"literal":8214,"environment":8215,"Ġcalendar":8216,"members":8217,"Ġ\"\"":8218,"Ġinability":8219,"ĠNQF":8220,"Ġreceived":8221,"unicipality":8222,"Kc":8223,"Tod":8224,"getList":8225,"locate":8226,"lective":8227,"ĠConsumer":8228,"Ġrequests":8229,"ä½¿":8230,"Ġexpansions":8231,"Such":8232,"Ġ75":8233,"Ġtake":8234,"weight":8235,"/\\[^/\\":8236,"Rh":8237,"idity":8238,"uting":8239,"Ġbasic":8240,"ĠonSaved":8241,"327":8242,"ãĤĭ":8243,"ĠInputBorder":8244,"PA":8245,"Uuid":8246,"uck":8247,"006":8248,"('&":8249,"108":8250,"ĠcontentTypes":8251,"methods":8252,"Ġclasses":8253,"Ġexpress":8254,"!=":8255,"fromARGB":8256,"HomeState":8257,"comparison":8258,"ĠthemeData":8259,"ĠhintStyle":8260,"versed":8261,"ĠPassword":8262,"ĠOther":8263,"ĠShow":8264,"dirty":8265,"}\";":8266,"Story":8267,"ĠIndex":8268,"cluding":8269,"BE":8270,"MON":8271,"ĠQuestion":8272,"Ġrebuild":8273,"Ġseparator":8274,"comments":8275,"Accounts":8276,"regist":8277,"ĠMunicipality":8278,"ĠInstance":8279,"Tests":8280,"ARAC":8281,"marks":8282,"312":8283,"Ġcompile":8284,"PER":8285,"SV":8286,"crop":8287,"rx":8288,"sun":8289,"Ġ\"\"\"":8290,"ĠTool":8291,"Ġduring":8292,"agent":8293,"''';":8294,"MethodCall":8295,"changed":8296,"Diagnostics":8297,"?>?":8298,"BO":8299,"amel":8300,"ĠAppTheme":8301,"cases":8302,"Boolean":8303,"hive":8304,"lk":8305,"lish":8306,"sq":8307,"sData":8308,"Ġ##":8309,"Ġmissing":8310,"Ġleast":8311,"ĠtopLeft":8312,"crease":8313,"Expr":8314,"Public":8315,"repositories":8316,"Ġmight":8317,"Encoder":8318,"Lenovo":8319,"Ġforeground":8320,"!\");":8321,"Ġcert":8322,"trod":8323,"Ġsdk":8324,"Ġtxt":8325,"ĠEX":8326,"ĠjsonEncode":8327,"Ġbelow":8328,"ĠUtil":8329,"ipping":8330,"Orange":8331,"maxWidth":8332,"combine":8333,"onError":8334,"rection":8335,"Ġhref":8336,"'):":8337,"routeName":8338,"coin":8339,"Models":8340,"UserInfo":8341,"OfDay":8342,"ĠNetworkImage":8343,"ARACTER":8344,"Multiple":8345,"Patch":8346,"ĠTitle":8347,"textStyle":8348,"ĠPayment":8349,"iry":8350,"bH":8351,"}.":8352,"utions":8353,"verify":8354,"ĠStart":8355,"TextInput":8356,"Ġleg":8357,"Ġatt":8358,"ĉĉĉĉĉĉĉĉ":8359,"ernel":8360,"arus":8361,"Ġfolder":8362,"\":{":8363,"Chunk":8364,"partment":8365,"localizations":8366,"brands":8367,"ĠCommon":8368,"TermType":8369,"åŃĹ":8370,"PinCode":8371,"health":8372,"Ġder":8373,"ĠĠĠĠĠĠĠĠĠĠĠĠĠĠĠĠĠĠĠĠĠĠĠĠĠĠĠĠĠĠĠĠĠĠĠĠĠĠĠĠĠĠĠĠĠĠĠĠĠĠĠĠĠĠĠĠĠĠĠĠĠĠĠ":8374,"ĠEmpty":8375,"Ġ33":8376,"World":8377,"Ġfeed":8378,"Ġhour":8379,"\"]),":8380,"Commit":8381,"Controls":8382,")*":8383,"Sto":8384,"arer":8385,"Ġfood":8386,"ĠLanguage":8387,"647":8388,"Setup":8389,"versal":8390,"ĠĠĠĠĠĠĠĠĠĠĠĠĠĠĠĠĠĠĠĠĠĠĠĠ":8391,"Ġ'--":8392,"unnecessary":8393,"ĠTerm":8394,"ĠRed":8395,"Quality":8396,"250":8397,"Tokens":8398,"Origin":8399,"mbed":8400,"LICENSE":8401,"Volume":8402,"sid":8403,"alignment":8404,"esh":8405,"ĠCalendar":8406,"Lists":8407,"Ġwho":8408,"ĠerrorMessage":8409,"preview":8410,"ĠConstant":8411,"dGhpcy":8412,"Accessor":8413,"dos":8414,"Ġmeasure":8415,"currentIndex":8416,"Hero":8417,"Ġlp":8418,"ĠGit":8419,"ĠtopRight":8420,"Versions":8421,"ĠKeyword":8422,"Pick":8423,"Ġfactor":8424,"Ġsum":8425,"avoid":8426,"ategor":8427,"ÐµÑĢ":8428,"Completion":8429,"ĠDartType":8430,"Variables":8431,"uplicate":8432,"268":8433,"Singleton":8434,"ontser":8435,"ĠEmail":8436,"ChlB":8437,"ApYw":8438,"145":8439,"bnVsb":8440,"Ġ[-":8441,"Ġmarker":8442,"èĥ":8443,"ĠTAB":8444,"Ġlaw":8445,"ĠFocusScope":8446,"ledge":8447,"Convert":8448,"ĠtypeArgs":8449,"commend":8450,"Ġpriority":8451,"¾ç½®":8452,"ology":8453,"take":8454,"reg":8455,"connected":8456,"transfer":8457,"ChlBChlB":8458,"ApYwApYw":8459,")?.":8460,"Sa":8461,"Ġdriver":8462,"Leg":8463,"ridge":8464,"definition":8465,"360":8466,"rec":8467,"encoder":8468,"icient":8469,"Ġway":8470,"ĠtextTheme":8471,">',":8472,"MIN":8473,"UD":8474,"six":8475,"{{":8476,"hem":8477,"Rows":8478,"Img":8479,"mptom":8480,"])');":8481,"ä¸Ĭ":8482,"Locales":8483,"IFIED":8484,"columns":8485,">({":8486,"High":8487,"Ġage":8488,"atory":8489,"mpt":8490,"ĠTodo":8491,"startTime":8492,"ĠWallet":8493,"Ġweight":8494,"ATA":8495,"ĠTabBar":8496,"hooks":8497,"1000":8498,"Bh":8499,"lbn":8500,"ingredient":8501,"apache":8502,"Ġ256":8503,"Resolution":8504,"æķ°æį®":8505,"è¡Į":8506,"paper":8507,"conversation":8508,"heel":8509,"('_":8510,"Multiplier":8511,"Spe":8512,"ZZ":8513,"Parents":8514,"drawer":8515,"agon":8516,"168":8517,"Ġknown":8518,"ĠbytesBuilder":8519,"GT":8520,"navigate":8521,"ĠFeed":8522,"018":8523,"ĠAuthentication":8524,"hr":8525,"Alive":8526,"208":8527,"Organization":8528,"chevron":8529,"625":8530,"wifi":8531,"scape":8532,"Viewport":8533,"Posts":8534,"Ġzoom":8535,"Middle":8536,"Processor":8537,"è®¾ç½®":8538,"Money":8539,":{":8540,"HM":8541,"Ġdays":8542,"Ġanim":8543,"Ġupper":8544,"RR":8545,"UV":8546,"wall":8547,"Ġgesture":8548,"student":8549,"Instant":8550,"endMode":8551,"loader":8552,"Ġformatted":8553,"Ġoccur":8554,":</":8555,"EAD":8556,"Ym":8557,"cb":8558,"gable":8559,"ato":8560,"Ġspacing":8561,"chn":8562,"Ġresolved":8563,"ĠNg":8564,"HttpClient":8565,"Movies":8566,"STRUCTOR":8567,"234":8568,"than":8569,"('=');":8570,"indicator":8571,"buy":8572,"ontserrat":8573,"BL":8574,"URE":8575,"arr":8576,"isValid":8577,"scanner":8578,"Ġcalls":8579,"ä¸Ģä¸ª":8580,"AsStringSync":8581,"KQ":8582,"Pending":8583,"tv":8584,"aps":8585,"fromAddress":8586,"contentType":8587,"Ã§Ã£o":8588,"enk":8589,"Ġreg":8590,"Ġresources":8591,"015":8592,"Ġdisplayed":8593,"Dismissible":8594,"ZT":8595,"Mapping":8596,"ĠHive":8597,"fontFamily":8598,"SideC":8599,"\"/>":8600,"ĠZERO":8601,"ĠParserErrorCode":8602,"thereum":8603,"Ġpair":8604,"Ġsince":8605,"setting":8606,"Ġonce":8607,"topCenter":8608,"Customer":8609,"Redirect":8610,"implementedError":8611,"İ·åıĸ":8612,"CESS":8613,"LD":8614,"dp":8615,"focusNode":8616,"ĠRx":8617,"ĠkeyValue":8618,"998":8619,"ĠpostBody":8620,"Creation":8621,"TV":8622,"catalog":8623,"tty":8624,"ĠLayout":8625,"ĠUns":8626,"({'":8627,"need":8628,"signature":8629,"Ġfunctions":8630,"å¼ı":8631,"junctions":8632,"ĠBasic":8633,"ĠDirection":8634,"protected":8635,"linear":8636,"à¤°":8637,"livery":8638,"YXIg":8639,"KeyboardKey":8640,"Ġrequirements":8641,"Issue":8642,"ience":8643,"ĠMin":8644,"formance":8645,"before":8646,"\"\"\",":8647,"ĠConnectionState":8648,"ĠTEXT":8649,"Segment":8650,"Ġidentity":8651,"Iso":8652,"Ġcompliance":8653,"Purple":8654,"Supported":8655,"æĽ":8656,"ëĭ":8657,"Ġput":8658,"allback":8659,"Ġchile":8660,"åĪ°":8661,"Large":8662,"PLE":8663,"coll":8664,"osition":8665,"puzzle":8666,"107":8667,"Ġmost":8668,"éĢī":8669,"Ġjoin":8670,"dmFy":8671,"clean":8672,"zA":8673,"ä¾":8674,"prop":8675,"ĠLicensed":8676,"Any":8677,"120":8678,"resultBatch":8679,"Abstract":8680,"ietnam":8681,"ä½¿çĶ¨":8682,"Coll":8683,"alle":8684,"flite":8685,"TextDirection":8686,"UND":8687,"ĠAND":8688,"ĠApiException":8689,"OIN":8690,"mask":8691,"ĠÑĤ":8692,"Ġsql":8693,"ĠStorage":8694,"olden":8695,"ĠnameElement":8696,"nowledge":8697,"Vertex":8698,"00000000000000000000000000000000000000000000000000000000000000000000000000000000000000000000000000000000000000000000000000000000":8699,"FullType":8700,"pins":8701,"roc":8702,"Styles":8703,"ROW":8704,"ãĢģ":8705,"rotation":8706,"dial":8707,"isto":8708,"Ġagre":8709,"ĠÐ´":8710,"Ġallows":8711,"ĠCONDI":8712,"BM":8713,"CI":8714,"Vud":8715,"din":8716,"odies":8717,"Ġtabs":8718,"Ġgetter":8719,"ä¸ĭ":8720,"[^/":8721,"Ġfilled":8722,"ĠAsyncSnapshot":8723,"568":8724,"Bid":8725,"Follow":8726,"hn":8727,"Ġsm":8728,"Ġvolume":8729,"Ġmiddle":8730,"Devices":8731,"ĠRemove":8732,"Radio":8733,"money":8734,"æŀľ":8735,"Air":8736,"AIL":8737,"Catalog":8738,"caption":8739,"lm":8740,"Ġreal":8741,"quote":8742,"Tapped":8743,"Ġlatest":8744,"ĠUnique":8745,"wards":8746,"matches":8747,"ĠCommand":8748,"æłĩ":8749,"ĠSH":8750,"setup":8751,"ableText":8752,"imil":8753,"Providers":8754,"ivo":8755,"initions":8756,"lastName":8757,"Separator":8758,"ĠJsonSerializableGenerator":8759,"ĠBASIS":8760,"SuchMethod":8761,"ĠCONDITIONS":8762,"power":8763,"avity":8764,"150":8765,"FL":8766,"Ġip":8767,"Ġcart":8768,"Ġ')":8769,"Ġpending":8770,"ĠBack":8771,"correct":8772,"ResponseData":8773,"pageController":8774,"Ġcommon":8775,"Ġmatching":8776,"CredentialDeviceTrait":8777,"PinCodeCredentialDeviceTrait":8778,"San":8779,"closed":8780,"Ġwriter":8781,"Ġwarning":8782,"ciB":8783,"77777777":8784,"filled":8785,"Bits":8786,"NT":8787,"zip":8788,"Objects":8789,"TEXT":8790,"Ø§ÙĦ":8791,"pubspec":8792,"cident":8793,"categories":8794,"ris":8795,"è·":8796,"Expected":8797,"ĠclassName":8798,"354":8799,"ĠlabelStyle":8800,"Ġgoverning":8801,"ĠfindsNothing":8802,"Delay":8803,"Ġreceive":8804,"tileId":8805,"Ġuntil":8806,"DC":8807,"Sx":8808,"Ġarrow":8809,"memory":8810,"ĠFade":8811,"preload":8812,"Ġ${_":8813,"ãģĹ":8814,"apeVariable":8815,"DocumentSnapshot":8816,"2019":8817,"æĪ·":8818,"called":8819,"çī":8820,"celer":8821,"(\"#":8822,"aves":8823,"Ġ_$$_":8824,"8601":8825,"documents":8826,"ffffff":8827,"heduler":8828,"equal":8829,"itect":8830,"TestReport":8831,"ĠcurrentIndex":8832,"Fluttify":8833,"Ã¤":8834,"ĠExec":8835,"InlineArray":8836,"ierarch":8837,"failedField":8838,"SemiBold":8839,"Fade":8840,"ACT":8841,"Sent":8842,"Visibility":8843,"Ġ//#":8844,"Revision":8845,"otential":8846,"ucce":8847,"EEEE":8848,"Columns":8849,"ĠPlace":8850,"ĠCalls":8851,"('&'))":8852,"Bi":8853,"quiz":8854,"Ġdecimal":8855,"180":8856,"minus":8857,"mitive":8858,"ĠUnless":8859,"branch":8860,"Slide":8861,"Records":8862,"alyze":8863,"Ġreceiver":8864,"AAAAAAAA":8865,"âķĲâķĲâķĲâķĲ":8866,"CRE":8867,"Fail":8868,"Ky":8869,"sel":8870,"tect":8871,"Ġbot":8872,"uses":8873,"ieve":8874,"IHQ":8875,"è¦ģ":8876,"!==":8877,"Ġboard":8878,"ĠCanvas":8879,"Detection":8880,"ĠlanguageElement":8881,"Ġblue":8882,"tempt":8883,"Ġlimitations":8884,"ĠRefresh":8885,"/[^/":8886,"large":8887,"van":8888,"recursive":8889,"atis":8890,"Ġlen":8891,"ĠLabel":8892,"ĠHash":8893,"ĠHero":8894,"248":8895,"784":8896,"Ġrequested":8897,"UpdateWidget":8898,"styleFrom":8899,"ÐµÑģÑĤ":8900,"ĠUnimplementedError":8901,"Windows":8902,"åīį":8903,"213":8904,"hs":8905,"itation":8906,"asPinCodeCredentialDeviceTrait":8907,"ads":8908,"Ġshrine":8909,"diction":8910,"mobx":8911,"ipeline":8912,"Ġagreed":8913,"Sy":8914,"Splash":8915,"Tax":8916,"attach":8917,"ListModel":8918,"Localization":8919,"extensions":8920,"ĠoldWidget":8921,"Writer":8922,"ever":8923,"ipt":8924,"story":8925,"Ġdummy":8926,"ToState":8927,"188":8928,"Cost":8929,"')));":8930,"SET":8931,"tooltip":8932,"Characteristic":8933,"IClDIClDIClDIClDIClDIClDIClDIClDIClDIClDIClDIClDIClDIClDIClDIClD":8934,"175":8935,"publisher":8936,"å¦":8937,"()))":8938,"covid":8939,"Ġ128":8940,"Ġexclude":8941,"Ġhover":8942,"ĠbuildGoogleCloudApigeeV":8943,"116":8944,"ĠapiClient":8945,"Ġexecute":8946,"pinCode":8947,"ĠStyles":8948,"ĠRegister":8949,"Ġtokens":8950,"configuration":8951,"SION":8952,"igo":8953,"coped":8954,"moveTo":8955,"minute":8956,"ĠUnit":8957,"Ġloop":8958,"Ġglobals":8959,"Ġbelarus":8960,"AF":8961,"Ll":8962,"Ã¶":8963,"adic":8964,"InProgress":8965,"strings":8966,"ASH":8967,"LmI":8968,"ĠWidgetsBinding":8969,"Maker":8970,"Ġtimer":8971,"ĠisA":8972,"Ent":8973,"Ġ65":8974,"SEONG":8975,"Titles":8976,"Ġcommit":8977,"Flex":8978,"Tip":8979,"Yaml":8980,"gi":8981,"enticate":8982,"States":8983,"Charge":8984,"Unittest":8985,"quivalent":8986,"Bill":8987,"Preference":8988,"LOC":8989,"ĠSvgPicture":8990,"Micro":8991,"oices":8992,"Student":8993,"abilities":8994,"ĠMovie":8995,"ĠDynamic":8996,"Exact":8997,"Ġspecial":8998,"curve":8999,"ClassName":9000,"(['":9001,"Vm":9002,"Ġalbum":9003,"states":9004,"Leading":9005,"Ġcalling":9006,"ĠConnect":9007,"showToast":9008,"EvidenceVariable":9009,"evaluate":9010,"/'),":9011,"QR":9012,"gallery":9013,"Ġcoll":9014,"priority":9015,"BytesInt":9016,"Ġparts":9017,"Ġusage":9018,"ATCH":9019,":\\":9020,"driver":9021,"sess":9022,"ura":9023,"Ġrepl":9024,"Ġviewport":9025,"äºĨ":9026,"ĠBuiltList":9027,"ðŁĩ":9028,"629":9029,"ru":9030,"affic":9031,"ĠbottomNavigationBar":9032,"à¸²":9033,".\"),":9034,"ĠSec":9035,"ÐµÑĤ":9036,"cross":9037,"è´":9038,"Username":9039,"Matches":9040,"ParentData":9041,"Placeholder":9042,"emonic":9043,"Digits":9044,"andidate":9045,"Letter":9046,"Lifecycle":9047,"bg":9048,"Ġutf":9049,"acao":9050,"ĠĠĠĠĠĠĠĠĠĠĠĠĠĠĠĠĠĠĠĠĠĠĠĠĠĠĠĠĠĠĠĠĠĠĠĠĠĠĠĠĠĠĠĠĠĠĠĠĠĠĠĠĠĠĠĠĠĠĠĠĠĠĠĠĠ":9051,"submit":9052,"æľ¬":9053,"ç»Ħ":9054,"receiver":9055,"SPECIFIED":9056,"credit":9057,"Ġ99":9058,"Ġvm":9059,"termine":9060,"ĠDisplay":9061,"Ġbuf":9062,")');":9063,"Fragment":9064,"WEEK":9065,"ĠSte":9066,"umidity":9067,"Forward":9068,"PhoneNumber":9069,"'re":9070,"So":9071,"dHJ":9072,"diff":9073,"fid":9074,"five":9075,"mind":9076,"isIn":9077,"Ġbatch":9078,"Prod":9079,"'][":9080,"Ġsecret":9081,"ecapeVariable":9082,"removeAt":9083,"åıĳ":9084,"OPER":9085,"éĢļ":9086,"waitingNot":9087,"Escaper":9088,"Ġerr":9089,"Ł¥":9090,"Ġcircle":9091,"Ġreply":9092,"Ġbuttons":9093,"Initializer":9094,"urisdiction":9095,"005":9096,"ĠisNot":9097,"Ġtexture":9098,"ĠshouldRe":9099,"actoring":9100,"ĠChangeNotifierProvider":9101,"!),":9102,"Fil":9103,"Fake":9104,"][\"":9105,"night":9106,"åĻ":9107,"Ġpan":9108,"Ġsheet":9109,"anging":9110,"ĠJob":9111,"AX":9112,"ustr":9113,"ĠFoo":9114,"ago":9115,"ĠstrHomeaddress":9116,"ĠminWidth":9117,"AULT":9118,"vedAnimation":9119,"initialized":9120,"Protocol":9121,"ScaffoldState":9122,"ĠGeo":9123,"!!":9124,"Pause":9125,"ÅŁ":9126,"decoration":9127,"ĠMath":9128,"ValueSet":9129,"Analytics":9130,"blur":9131,"ĠComponent":9132,"ãģĨ":9133,"Wnd":9134,"emoji":9135,"Ġnullable":9136,"Ġhex":9137,"ĠlastName":9138,"Ġ\\'":9139,"Ġautofocus":9140,"âĸĪ":9141,"imilar":9142,"Your":9143,"bindings":9144,"è°":9145,"ĠkB":9146,"imeType":9147,"flat":9148,"Chrome":9149,"Byb":9150,"293":9151,"Ð½Ð¾":9152,"Validate":9153,"ĠUtils":9154,"SW":9155,"bin":9156,"ataaar":9157,"Mapper":9158,"322":9159,"redits":9160,"ĠdisplayName":9161,"ĠOnly":9162,"flags":9163,"çĻ":9164,"èī":9165,"oring":9166,"people":9167,"Ġwell":9168,"ChangeDependencies":9169,"AllTypes":9170,"Many":9171,"throwsA":9172,"ĠSemant":9173,"Latest":9174,"ĠUnsupported":9175,"lp":9176,"touch":9177,"Ġpara":9178,"Ġvalidation":9179,"ĠTrack":9180,"ĠsplashColor":9181,"Tex":9182,"break":9183,"wind":9184,"ittle":9185,"ĠFetch":9186,"Ġliteral":9187,"Ġrally":9188,"Requested":9189,"contain":9190,"178":9191,"enclosing":9192,"notate":9193,"controllers":9194,"Ġauthentication":9195,"editor":9196,"Rotation":9197,"ä¿¡":9198,"Dot":9199,"ste":9200,"Ġoper":9201,"ĠPre":9202,"ĠisSelected":9203,"['_":9204,"styles":9205,"Ġapplied":9206,"issue":9207,"IamPolicy":9208,"Rpc":9209,"bank":9210,"008":9211,"Ġstdout":9212,"Ġexpl":9213,"Generation":9214,"Ġworking":9215,"auton":9216,"ĠTargetPlatform":9217,"Er":9218,"PU":9219,"Pull":9220,"]*":9221,"cubit":9222,"jd":9223,"ĠCol":9224,"Ġeven":9225,"Ġdecoded":9226,"THER":9227,"ZXJ":9228,"cdn":9229,"Ġprotocol":9230,"åĻ¨":9231,"autonavi":9232,"packed":9233,"áĢ":9234,"secret":9235,"Ġevalu":9236,"Refer":9237,"googleapis":9238,"ĠoldDelegate":9239,"OverlayStyle":9240,"enkins":9241,"Need":9242,"Packed":9243,"nine":9244,"ya":9245,"uniform":9246,"Ġpuzzle":9247,"Ġincluded":9248,"-----":9249,"ĠjsonPath":9250,"Ġmedi":9251,"Ġalert":9252,"writeByte":9253,"Clause":9254,"ĠStreamSubscription":9255,"Ġplugin":9256,"IST":9257,"analytics":9258,"ĠAss":9259,"Ġrules":9260,"Ġservices":9261,"groups":9262,"wireName":9263,"ynchronous":9264,"199":9265,"MX":9266,"iso":9267,")..":9268,"Ġyet":9269,"Ele":9270,"PORT":9271,"cubic":9272,"Ð·":9273,"spot":9274,"vote":9275,"macro":9276,"smart":9277,"Ġexperimental":9278,"Unique":9279,"acher":9280,"business":9281,"164":9282,":(":9283,"VC":9284,"aOM":9285,"hl":9286,"Ð³":9287,"Ġthrift":9288,"Dev":9289,"Ġ_$_$_":9290,"ĠRepository":9291,"Directional":9292,"PrivateKey":9293,"Sources":9294,"jack":9295,"via":9296,"wcm":9297,"âĶ":9298,"lightBlue":9299,"Ġpages":9300,"dt":9301,"Ġent":9302,"Seed":9303,"TextTheme":9304,"ĠtextInput":9305,"EnumValue":9306,"ingerprint":9307,"Allowed":9308,"ĠSqlSyntax":9309,"har":9310,"ltr":9311,"stick":9312,"ĠSmart":9313,"setInt":9314,"imited":9315,"Try":9316,"Ġblack":9317,"å¯¹":9318,"422":9319,"Clear":9320,"Mar":9321,"Nv":9322,"Ġ180":9323,"Ġoperations":9324,"Ġmask":9325,"ĠMatch":9326,"ĠFontisto":9327,"740":9328,"Threshold":9329,"byte":9330,"Checker":9331,"ä¼ļ":9332,"ĠRIGHT":9333,"ĠspreadRadius":9334,"ets":9335,"205":9336,"park":9337,"ĠborderColor":9338,"blueGrey":9339,"è®¤":9340,"EV":9341,"Wait":9342,"Ġnone":9343,"Ġdot":9344,"Ġscan":9345,"Places":9346,"Ġstrings":9347,"Ġinstances":9348,"Ġvisitor":9349,"ĠactiveColor":9350,"å¼Ģ":9351,"issues":9352,"Now":9353,"zoom":9354,"¶Ī":9355,"Ġbinding":9356,"ĠDrag":9357,"WithEmail":9358,"Ġ63":9359,"AsBytes":9360,"languageCode":9361,"RW":9362,"Zero":9363,"increment":9364,"trins":9365,"Ġstandard":9366,"questions":9367,"ĠInvalid":9368,"(${":9369,")!.":9370,"Gap":9371,"TODO":9372,"ko":9373,"orth":9374,"umi":9375,"Internet":9376,"åĪĹ":9377,"rendering":9378,"deepCopy":9379,"portrait":9380,"ScrollableScrollPhysics":9381,"Dimension":9382,"Eo":9383,"onChanged":9384,"aled":9385,"sec":9386,"Invite":9387,"annotations":9388,"herit":9389,"ĠprefixIcon":9390,"ĠPlatformException":9391,"EQ":9392,"IX":9393,"erce":9394,"igma":9395,"Ġstat":9396,"rict":9397,"Ġlarge":9398,"384":9399,"numeric":9400,"Ġsuccessfully":9401,"Ġ'@'],":9402,"ough":9403,"Ġdepth":9404,"ĠRaw":9405,"Ġsets":9406,"appBar":9407,"velop":9408,"Ġcomponents":9409,"Receive":9410,"Ġhelper":9411,"isualDensity":9412,"ĠDropdownMenuItem":9413,"Merr":9414,"eb":9415,"hours":9416,"inator":9417,"tegr":9418,"Ġfixed":9419,"Ġsaved":9420,"about":9421,"Ġdecoder":9422,"Logo":9423,"ĠfirstName":9424,"æ³ķ":9425,"DATE":9426,"EY":9427,"KEN":9428,"Ġwere":9429,"Rec":9430,"riends":9431,"ĠOptions":9432,"ĠWH":9433,"åĪĨ":9434,"Dispatcher":9435,"itecture":9436,"Lazy":9437,"Pref":9438,"soft":9439,"regular":9440,"seven":9441,"Ġneeded":9442,"ĠstaticType":9443,"Ð°ÑĤ":9444,"Ġ123":9445,"ĠloadedFields":9446,"éĹ´":9447,"èī²":9448,"Den":9449,"qb":9450,"unspecified":9451,"Instruction":9452,"Ġmac":9453,"ĠVisibility":9454,"172":9455,"jb":9456,"Inner":9457,"Ġschema":9458,"__;":9459,"ĠWill":9460,"Ġchecked":9461,"slider":9462,"DAYS":9463,"ĠtypedResult":9464,"TickerProviderStateMixin":9465,"uro":9466,"assign":9467,"Ġassets":9468,"ItemModel":9469,"Quote":9470,"140":9471,"Ð°Ð½":9472,"notifier":9473,"AnimationController":9474,"562":9475,"Rp":9476,"stats":9477,"igration":9478,"Ġsender":9479,"209":9480,"Vars":9481,"Numeric":9482,"Ġvariadic":9483,"Badge":9484,"difference":9485,"stdout":9486,"ational":9487,"Ġ[]":9488,"Orders":9489,"ĠDefaults":9490,"ĠcrossAxisCount":9491,"Drive":9492,"balance":9493,"eight":9494,"Ġque":9495,"toIso":9496,"Ġmovie":9497,"ograph":9498,"STAND":9499,"SED":9500,"ĠScaffoldMessenger":9501,"selectedIndex":9502,"reportError":9503,"naire":9504,"å¦Ĥ":9505,"(.":9506,"fail":9507,"Ġdependencies":9508,"Chain":9509,"Ġcases":9510,"ICE":9511,"Ġ&#":9512,"å½ķ":9513,"Palette":9514,"Ġ'[":9515,"Ġinvocation":9516,"jsonPath":9517,"Notify":9518,"ĠAppState":9519,"Ġfilename":9520,"ĠpreloadFields":9521,"ÑĢÐµÐ´":9522,"FC":9523,"False":9524,"Ġcategories":9525,"Ġconditions":9526,"ables":9527,"userName":9528,"333":9529,"Jh":9530,"Smi":9531,"banner":9532,"Ġkeep":9533,"Unexpected":9534,"IDTH":9535,"validator":9536,"ĠJenkins":9537,"ZWJ":9538,"Ġfix":9539,"Ġbundle":9540,"eye":9541,"ileTime":9542,"124":9543,"awn":9544,"PlayerController":9545,"FlutterBinding":9546,"ACKET":9547,"war":9548,"anc":9549,"122":9550,"Organ":9551,"middle":9552,"éĶ":9553,"mes":9554,"ĠRichText":9555,"Semantic":9556,"icalKeyboardKey":9557,"155":9558,"159":9559,"FFFFFF":9560,"Bracket":9561,"Ġthird":9562,"Ġ134":9563,"Ġwrong":9564,"missed":9565,"ãģĻ":9566,"pointment":9567,"ĠNever":9568,"éĥ¨":9569,"Decorator":9570,"è°ĥ":9571,"Gallery":9572,"QUE":9573,"SU":9574,"ĠSk":9575,"ĠInvoice":9576,"138":9577,"UNSPECIFIED":9578,"ĠscreenWidth":9579,"MouseEvent":9580,"Ġpainter":9581,"Cod":9582,"Prom":9583,"å§":9584,"ĠSM":9585,"avour":9586,"UserData":9587,"ĠSimpleIdentifier":9588,"edges":9589,"Ġcorresponding":9590,"Iterator":9591,"solute":9592,"129":9593,"anning":9594,"ĠAlways":9595,"spaces":9596,"ARG":9597,"ãĥ¼":9598,"ĠscreenSize":9599,"pinCodeCredentials":9600,"Around":9601,"Dio":9602,"depth":9603,"ados":9604,"Ġvietnam":9605,"Ġ111":9606,"queen":9607,"scribed":9608,"phab":9609,"ĠmaxWidth":9610,"Parts":9611,"Modified":9612,"MediaQuery":9613,"phoneNumber":9614,"Div":9615,"à¦":9616,"ç¬":9617,"desktop":9618,"ĠSplash":9619,"Ġdrop":9620,"ĠexpectEncoding":9621,"Timeline":9622,"ĠWindow":9623,"MONTH":9624,"Hover":9625,"Iik":9626,"KNO":9627,"social":9628,"Ð¹":9629,"())),":9630,"Ġ110":9631,"parsed":9632,"Ġdefaults":9633,"TWH":9634,"clusive":9635,"Radi":9636,"Runtime":9637,"orn":9638,"ĠUN":9639,"querySelector":9640,"hasMatch":9641,"448":9642,"ZhciB":9643,"ierarchy":9644,":[":9645,"?>(":9646,"Loop":9647,"}'),":9648,"Ġconversation":9649,"Exists":9650,"osite":9651,"Oneof":9652,"ĠresourceType":9653,"fromLTWH":9654,"ĠfocusedBorder":9655,"oper":9656,"Ġlock":9657,"ĠCache":9658,"abe":9659,"ĠAR":9660,"ĠBit":9661,"ĠListBuilder":9662,"Ġencoding":9663,"ĠheaderParams":9664,"Qs":9665,"Sound":9666,"Slot":9667,"bs":9668,"Ġclosed":9669,"Ġbo":9670,"148":9671,"306":9672,"accessToken":9673,"orphic":9674,"CODE":9675,"Ctrl":9676,"DO":9677,"Ġengine":9678,"ido":9679,"Ġsmoke":9680,"Depth":9681,"Destiny":9682,"imens":9683,"fade":9684,"ifiable":9685,"Ġencoder":9686,"Translations":9687,"hole":9688,"connectionState":9689,"Ġproviders":9690,"ĠProjects":9691,"SmiHash":9692,"ĠJenkinsSmiHash":9693,"Mp":9694,"('[":9695,"Ġless":9696,"returnType":9697,"projectId":9698,"Avataaar":9699,"AvataaarType":9700,"224":9701,"Gender":9702,"hero":9703,"oloc":9704,"term":9705,"Ġopt":9706,"redi":9707,"Ġstatement":9708,"SideF":9709,"åĲ¦":9710,"Elevation":9711,"street":9712,"ĠSwitch":9713,"Ġsplit":9714,"copes":9715,"Ġstill":9716,"Ġencoded":9717,"AndPassword":9718,"modifierExtension":9719,"crypted":9720,"WEI":9721,"oYSxi":9722,"lap":9723,"win":9724,"ora":9725,"....":9726,"udget":9727,"ĠbackgroundImage":9728,"UNT":9729,"TOKEN":9730,"restore":9731,"teal":9732,"abc":9733,"ĠAst":9734,"links":9735,"ĠSingleTickerProviderStateMixin":9736,"Skip":9737,"KSk":9738,"TF":9739,"mix":9740,"geometry":9741,"testing":9742,"ĠRest":9743,"995":9744,"Ġchunk":9745,"Ġobjc":9746,"Ġgeneric":9747,"Ġ2018":9748,"!(":9749,"ÑĨ":9750,"plift":9751,"\"][\"":9752,"509":9753,"ANT":9754,"Ġnotes":9755,"dlFor":9756,"ĠclipBehavior":9757,"678":9758,"èĩ":9759,"attribute":9760,"Ġfake":9761,"ism":9762,"','":9763,"Recipe":9764,"Ġ$$":9765,"iration":9766,"ĠMapEntry":9767,"ĠDestiny":9768,"\"])":9769,"ĠConstructor":9770,"ĠDioError":9771,"ObjectiveC":9772,"dlForObjectiveC":9773,"Dp":9774,"hover":9775,"secure":9776,"deuce":9777,"ĠOff":9778,"ĠControl":9779,"TabBar":9780,"à¸²à¸":9781,"(#":9782,"217":9783,"Split":9784,"èĢ":9785,"ĠFe":9786,"ippet":9787,"Components":9788,"books":9789,"visibility":9790,"2018":9791,"åĲį":9792,"è¿Ļ":9793,"ĠimplicitRulesElement":9794,"Bg":9795,"Uplift":9796,"qq":9797,"uous":9798,"orderBy":9799,"Ġgreater":9800,"ĠMaterialButton":9801,"Phase":9802,"EED":9803,"Ġcurr":9804,"('/'),":9805,"çĶ¨æĪ·":9806,"UAWEI":9807,"368":9808,"Basic":9809,"Browser":9810,"Calculate":9811,"Site":9812,"Sleep":9813,"]{":9814,"Ġlive":9815,"285":9816,"Ġnumbers":9817,"Ġsuccessful":9818,"Ġmanage":9819,"oYSl":9820,"MAP":9821,"iment":9822,"Ú©":9823,"ano":9824,"ĠPhoto":9825,"aybe":9826,"defaultValue":9827,"Ġminute":9828,"Cases":9829,"Booking":9830,"Peer":9831,"åĩº":9832,"adorn":9833,"ĠbarrierDismissible":9834,"ĠSemantics":9835,"LY":9836,"gers":9837,"ised":9838,"iOS":9839,"qtt":9840,"interval":9841,"158":9842,"Subtype":9843,"ĠJOIN":9844,"ranted":9845,"ĠExtension":9846,"Tick":9847,"dro":9848,"ktop":9849,");\\":9850,"aser":9851,"Ġpreferences":9852,"Ġinteger":9853,"panel":9854,"ScrollController":9855,"Ġactivity":9856,"velope":9857,"={":9858,"Ġreview":9859,"Ġbus":9860,"verity":9861,"Ġtrace":9862,"ĠOp":9863,"__)":9864,"authorization":9865,"hasError":9866,"Ġattr":9867,"ampa":9868,"LOG":9869,"SIZE":9870,"Ġexecution":9871,"trinsic":9872,">\\":9873,"Predicate":9874,"prom":9875,"une":9876,"Ġmemory":9877,"playlist":9878,"195":9879,"Configs":9880,"ĠstartTime":9881,"\"/><":9882,"Ð¾Ð¼":9883,".,":9884,"cli":9885,"len":9886,"sr":9887,"é»":9888,"Ġmetrics":9889,"204":9890,"139":9891,"iterable":9892,"Ġcompletion":9893,"customer":9894,"LastUpdated":9895,"Worker":9896,"æĹ¥":9897,"ileTimeErrorCode":9898,"bab":9899,"Could":9900,"Projects":9901,"ELD":9902,"Ġserialize":9903,"é¢ĺ":9904,"Cx":9905,"ira":9906,"Ġ97":9907,"000000000000000000":9908,"ĠloadParents":9909,"Tabs":9910,"Ġ]));":9911,"densed":9912,"ANGE":9913,"ApiRequester":9914,"auge":9915,"Self":9916,"ĠUnsupportedError":9917,"Later":9918,"Ġum":9919,"Ġbuilt":9920,"Ġown":9921,"Destroy":9922,"IntPtr":9923,"STATE":9924,"pendent":9925,"AlertDialog":9926,"KNOWN":9927,"Highlight":9928,"//\"":9929,"extended":9930,"126":9931,"BytesHomogeneousFloat":9932,"ĠChecks":9933,"Deliver":9934,"Ġpreferred":9935,"ascript":9936,"åĨħ":9937,"constraints":9938,"Actor":9939,"Pack":9940,"Prefs":9941,"Ven":9942,"Äĥ":9943,"Testing":9944,">?,":9945,"RES":9946,"house":9947,"DocumentPage":9948,"GraphQL":9949,"cryption":9950,"HY":9951,"aning":9952,"ĠEng":9953,"Ġforward":9954,"Ġ55":9955,"Ġscheme":9956,"disable":9957,"writeTo":9958,"STANDAL":9959,"PM":9960,"plot":9961,"æı":9962,"Ġsummary":9963,"Ġincluding":9964,"Ġcost":9965,"argument":9966,"Ġproxy":9967,"134":9968,"ĠcurrentUser":9969,"ULATION":9970,"åįķ":9971,"Low":9972,"pdf":9973,"Ġ\"\\":9974,"cons":9975,"Inventory":9976,"ĠTextDecoration":9977,"Ġradi":9978,"103":9979,"DownloadOptions":9980,"unique":9981,"Ġcustomer":9982,"movies":9983,"Turn":9984,"Ø´":9985,"Ġtw":9986,"endsWith":9987,"errorMessage":9988,"ĠPlaylist":9989,"Percentage":9990,"Ġbranch":9991,"chars":9992,"Ġdev":9993,"Manifest":9994,"Bank":9995,"ê°":9996,"izz":9997,"umorphic":9998,"serve":9999,"ĠIM":10000,"Quota":10001,"ĠDecode":10002,"Att":10003,"Ġstarting":10004,"Creator":10005,"]+$":10006,"ĠcancelToken":10007,"ĠByte":10008,"RU":10009,"dashboard":10010,"fn":10011,"sound":10012,"Ð±":10013,"Ġca":10014,"Ġcook":10015,"unication":10016,"Ġdom":10017,"ĠStrings":10018,"Ġrespon":10019,"sha":10020,"aste":10021,"Under":10022,"Ġ105":10023,"Disabled":10024,"SideD":10025,"```":10026,"Ġcomments":10027,"Sum":10028,"sen":10029,"enced":10030,"Cards":10031,"æĪĳ":10032,"ĠTABULATION":10033,"100000":10034,"=${":10035,"Na":10036,"fan":10037,"ergy":10038,"avascript":10039,"ipher":10040,"ViewController":10041,"ĠDecimal":10042,"viewModel":10043,"Ġlocator":10044,"Ġobx":10045,"Ġpackages":10046,"ĠHttpStatus":10047,"pagated":10048,"GgHJGgHJGgHJGgHJGgHJGgHJGgHJGgHJGgHJGgHJGgHJGgHJGgHJGgHJGgHJGgHJGgHJGgHJGgHJGgHJGgHJGgHJGgHJGgHJGgHJGgHJGgHJGgHJGgHJGgHJGgHJGgHJ":10049,"Qr":10050,"æ±":10051,"lore":10052,"Three":10053,"ãĤĴ":10054,"Ġemits":10055,"565":10056,"mag":10057,"pic":10058,"suggest":10059,"éĴ":10060,"incip":10061,"Ġbig":10062,"648":10063,"sublist":10064,"Ġtransfer":10065,"ĠSets":10066,"Ġrepresenting":10067,"ampaign":10068,"ELE":10069,"ante":10070,"ĠFound":10071,"jectable":10072,"Ġruntime":10073,"ĠcolorScheme":10074,"996":10075,"Attr":10076,"404":10077,"StreamController":10078,"åĲİ":10079,"charts":10080,"æİ¥":10081,"Audit":10082,"BI":10083,"Episode":10084,"easy":10085,"decimal":10086,"ĠTV":10087,"Ġexpanded":10088,"ĠProgress":10089,"ĠJs":10090,"ĠdownloadOptions":10091,"à¥į":10092,"KY":10093,"MO":10094,"ULL":10095,"æ¶Ī":10096,"Ġund":10097,"animated":10098,"Ġhero":10099,"Ġ56":10100,"Attrib":10101,"854":10102,"manage":10103,"\"\"\"":10104,"å¤§":10105,"dXJuIG":10106,"People":10107,"Ġrotation":10108,"374":10109,"flex":10110,"Ġdash":10111,"ĠGen":10112,"ĠHtml":10113,"READ":10114,"ensureInitialized":10115,"Ġrepresentation":10116,"Hair":10117,"gt":10118,"ĠcloseTo":10119,"jected":10120,"strokeWidth":10121,"ĠInterfaceType":10122,"repeat":10123,"Ġ';":10124,"cos":10125,"ĠreturnValue":10126,"ĠMax":10127,"ĠAST":10128,"lik":10129,"149":10130,"ymer":10131,"ESC":10132,"presents":10133,"ĠHeader":10134,"bodies":10135,"åĳ":10136,"çİ":10137,"idx":10138,"trast":10139,"istin":10140,"ĠMode":10141,"Prop":10142,"166":10143,"ĠfileName":10144,"ĠmaxHeight":10145,"Ġcasted":10146,"radio":10147,"Ġdirectly":10148,"([\"":10149,"oted":10150,"zen":10151,"isS":10152,"Ġhold":10153,"ALetter":10154,"Ġminutes":10155,"Slash":10156,"ĠsignIn":10157,"Digit":10158,"CD":10159,"OUR":10160,"Rename":10161,"riction":10162,"apps":10163,"Ġ800":10164,"667":10165,"Dictionary":10166,"Running":10167,"Ġconstraint":10168,"ĠuploadMedia":10169,"enchmark":10170,",-":10171,"Mill":10172,"additional":10173,"ĠUsed":10174,"observable":10175,"ops":10176,"ĠBlocBuilder":10177,"Ġuuid":10178,"existsSync":10179,"Clipper":10180,"275":10181,"bad":10182,"glass":10183,"zier":10184,"ĠIdentifier":10185,"inations":10186,"ulum":10187,"dartz":10188,"Ġmix":10189,"Ġhours":10190,"moves":10191,"Env":10192,"ĠStateError":10193,"latest":10194,"ĠHomeScreen":10195,"gnore":10196,"Ð½ÑıÑı":10197,"355":10198,"æ¯":10199,"ety":10200,"anga":10201,"IDE":10202,"8080":10203,"ĠbuildCounterList":10204,"ĠRoutes":10205,"slide":10206,"Ġconsider":10207,"bmd":10208,"StringValue":10209,"ĠAtt":10210,"ĠuserName":10211,"EqualTo":10212,"define":10213,"Ġ2017":10214,"ĠEnd":10215,"tableName":10216,"blockIndex":10217,"Management":10218,"Calculator":10219,"Nz":10220,"Vz":10221,"ĠSymbol":10222,"Ġspeed":10223,"endpoint":10224,"emale":10225,"305":10226,"ĠWorld":10227,"FileName":10228,"Utc":10229,"linked":10230,"ĠuploadOptions":10231,"css":10232,"family":10233,"jp":10234,"ĠĠĠĠĠĠĠĠĊ":10235,"relative":10236,"Ġmany":10237,"309":10238,"Ġweather":10239,"tabController":10240,"EFT":10241,"olocator":10242,"}:":10243,"Ident":10244,"ĠFutureOr":10245,"Ġorganization":10246,"UMENT":10247,"ĠPlus":10248,"ĠenabledBorder":10249,"ĠModal":10250,"Ġinvoked":10251,"highlight":10252,"çĲ":10253,"sons":10254,"Ġok":10255,"Ġinactive":10256,"ĠEva":10257,"Sets":10258,"ĠshouldBe":10259,"Registration":10260,"ĠhttpClient":10261,"628":10262,"åĴ":10263,"Ġrelation":10264,"ĠPalette":10265,"ĠsetCriteria":10266,"Unsigned":10267,"SearchReference":10268,"Throw":10269,"Ġheadline":10270,"Sensitive":10271,"Ġfavorite":10272,"getState":10273,"getAll":10274,"Ġmd":10275,"ĠPageController":10276,"WillPop":10277,"ĠLevel":10278,"åĮĸ":10279,"cubicTo":10280,"233":10281,"å¿":10282,"ides":10283,"olar":10284,"decoder":10285,"ĠRegion":10286,"parated":10287,"Ġouter":10288,"cards":10289,"NestedMessage":10290,"BuiltValueField":10291,"ImplementationGuide":10292,"avourite":10293,"must":10294,"ĉĊ":10295,"Ġthickness":10296,"ĠPr":10297,"Ġmeans":10298,"ĠContext":10299,"signal":10300,"Ġ__)":10301,"Swi":10302,"Verify":10303,"KD":10304,"pf":10305,"solid":10306,"ĠTree":10307,"Ġda":10308,"Deployment":10309,"Leaf":10310,"688":10311,"finite":10312,"2015":10313,"Ð¾Ð¹":10314,"Ġcreation":10315,"rxdart":10316,"Dat":10317,"Free":10318,"ZTE":10319,"trigger":10320,"Ġdy":10321,"169":10322,"ĠRemote":10323,"LoggedIn":10324,"maxHeight":10325,"ADD":10326,"ĠscrollController":10327,"Processing":10328,"ĠInterval":10329,"Ġmanager":10330,"æĺ¯åĲ¦":10331,"cGU":10332,"BY":10333,"WH":10334,"slot":10335,"çŃ":10336,"237":10337,"functions":10338,"EnumMap":10339,"ĠrouteName":10340,"percentage":10341,"Rank":10342,"peg":10343,"textColor":10344,"resp":10345,"017":10346,"Ġ44":10347,"Ġdisable":10348,"constructors":10349,"Big":10350,"broadcast":10351,"dash":10352,"uario":10353,"yes":10354,"Ø¹":10355,"Coord":10356,"244":10357,"167":10358,"ENCE":10359,"Ġitself":10360,"194":10361,"358":10362,"ABK":10363,"Tasks":10364,"easeIn":10365,"Aff":10366,"tz":10367,"decl":10368,"ynth":10369,"ĠLEFT":10370,"ickname":10371,"137":10372,"398":10373,"ECTION":10374,"èĥ½":10375,"Aut":10376,"UID":10377,"pair":10378,"áĥ":10379,"ĠMARK":10380,"Comb":10381,"ssib":10382,"Ġgender":10383,"._('":10384,"Ġassignment":10385,"Ġcompany":10386,"istinct":10387,"Che":10388,"Eva":10389,"ky":10390,"prefer":10391,"wx":10392,"æ¡":10393,"appro":10394,"typo":10395,"Ġ-=":10396,"1111":10397,"Ġhealth":10398,"HTC":10399,"ĠComment":10400,"å§ĭ":10401,"BF":10402,"cu":10403,"patient":10404,"ÙĬ":10405,"ĠCached":10406,"ĠFR":10407,"quires":10408,"reng":10409,"pool":10410,"Appro":10411,"Editable":10412,"ĠaccentColor":10413,"curacy":10414,"spaceAround":10415,"PrimaryColor":10416,"Ġeffective":10417,":!":10418,"Packet":10419,"bia":10420,"rules":10421,"idable":10422,"ĠCart":10423,"Ġ010":10424,"ĠPb":10425,"304":10426,"79000":10427,"Ġtear":10428,"USER":10429,"Longrunning":10430,"graphql":10431,"ĠSignUp":10432,"OY":10433,"Sur":10434,"Ġvector":10435,"assignment":10436,"(((":10437,"Ġ)));":10438,"ENG":10439,"MaterialPageRoute":10440,"BorderColor":10441,"ĠnextPageToken":10442,"ĠrefId":10443,"cz":10444,"Ġcloud":10445,"tel":10446,"ingScrollPhysics":10447,"ĠSo":10448,"una":10449,"amage":10450,"('');":10451,"ĠĠĠĠĠĠĠĠĠĠĠĠĠĠĠĠĠĠĠĠĠĠĠĠĠĠĠĠĠĠĠĠĠĠĠĠĠĠĠĠĠĠĠĠĠĠĠĠĠĠĠĠĠĠĠĠĠĠĠĠĠĠĠĠĠĠĠ":10452,"Ġexplicit":10453,"Ġ57":10454,"centerRight":10455,"Ð½Ñĭ":10456,"Checkbox":10457,"Activ":10458,"istrib":10459,"Ġmouse":10460,"NetworkImage":10461,"ĠLeft":10462,"Indent":10463,"ĠMember":10464,"264":10465,"Pen":10466,"WT":10467,"cal":10468,"cert":10469,"artist":10470,"Ġpicker":10471,"ultil":10472,"Ġexam":10473,"ardware":10474,">[],":10475,"185":10476,"ĠJOINER":10477,"?',":10478,"sPage":10479,"TextEditingController":10480,"ĠfilePath":10481,"Ð¸ÑĤ":10482,"Ġmodified":10483,"ä½į":10484,"10101010101010101010101010101010":10485,"228":10486,"La":10487,"Smart":10488,"speed":10489,"Ġptr":10490,"endance":10491,"buildUnnamed":10492,"258":10493,"337":10494,"KeepAlive":10495,"lbnQ":10496,"åĴĮ":10497,"266":10498,"Cross":10499,"ien":10500,"Ġfunc":10501,"Ġpatch":10502,"Ġiso":10503,"ĠonLongPress":10504,"fromIterable":10505,"program":10506,"angumi":10507,"checkbox":10508,"covered":10509,"Priority":10510,"DescriptorProto":10511,"receive":10512,"ĠDetail":10513,"Ġstarted":10514,"dmFyIHQ":10515,"350":10516,"PUT":10517,"poll":10518,"qf":10519,"wiki":10520,"å»":10521,"ç¤º":10522,"ission":10523,"getter":10524,"ĠMMMM":10525,"Decimal":10526,"189":10527,"Ġimple":10528,"mismatch":10529,"ĠminHeight":10530,"230000":10531,"KXty":10532,"utilities":10533,"Ġdirective":10534,"polation":10535,"215":10536,"binding":10537,"han":10538,"Ġmp":10539,"inated":10540,"invo":10541,"ĠSome":10542,"usage":10543,"ught":10544,"LogEnabled":10545,"fluttifyLogEnabled":10546,"Ġgeo":10547,"444447":10548,"ExpansionProfile":10549,"214":10550,"bundle":10551,"destroy":10552,"ĠCan":10553,"ĠCancel":10554,"Stub":10555,"updateMask":10556,"Ġgenerator":10557,"Market":10558,"ĠanimationController":10559,"HJvdG":10560,"ä¿¡æģ¯":10561,"'}":10562,"Lex":10563,"tri":10564,"del":10565,"chant":10566,"Ġtoast":10567,"Dependency":10568,"plied":10569,"Scene":10570,"=\");":10571,"ĠtypeArguments":10572,"Ġstates":10573,"555":10574,"MaterialApp":10575,"ĠOtherwise":10576,"WithEmailAndPassword":10577,"AST":10578,"Dri":10579,"MIS":10580,"blog":10581,"calculate":10582,"iation":10583,"åİ":10584,"recipe":10585,"ingStyle":10586,"ĠSocket":10587,"Ġmilliseconds":10588,"ulty":10589,"ĠRepresents":10590,"991":10591,"Classes":10592,"Words":10593,"Ġimplemented":10594,"Battery":10595,"Ng":10596,"bd":10597,"kl":10598,"seed":10599,"Inherited":10600,"ĠOAuth":10601,"Logs":10602,"Ġknow":10603,"Calls":10604,"ĠÐ¼":10605,"ĠhasLength":10606,"Structure":10607,"SideA":10608,"without":10609,"Ġ4022":10610,"ASg":10611,"ĠTransition":10612,"accounts":10613,"escape":10614,"AW":10615,"Ġcupertino":10616,"Ġcause":10617,"Ġfour":10618,"Ġmobile":10619,"Ġhapp":10620,"ĠresultBatch":10621,"layer":10622,"Dates":10623,"RECT":10624,"cyan":10625,"åľ°":10626,"filename":10627,"ĠRenderBox":10628,"ĠGridView":10629,"CrossAxis":10630,"Fraction":10631,"Lite":10632,"UTE":10633,"nor":10634,"operations":10635,"rs":10636,"integer":10637,"ĠSoftware":10638,"Ġbest":10639,"Ġbrowser":10640,"countries":10641,"els":10642,"Ġtmp":10643,"ĠisValid":10644,"flash":10645,"datetime":10646,"filePath":10647,"backend":10648,"ĠformParams":10649,"moving":10650,"RX":10651,"éľ":10652,"Stage":10653,"ĠbottomRight":10654,"xFFF":10655,"Protobuf":10656,"ĠâĢĶ":10657,"HUAWEI":10658,"ala":10659,"etched":10660,"ĠPAR":10661,"ailability":10662,"explicit":10663,"ErrorEnum":10664,"853":10665,"ĠauthNames":10666,"Ġtranslation":10667,"ĠTyped":10668,"Ġfiltered":10669,"ĠTextInputAction":10670,"æµ":10671,"Secure":10672,"Ġ46":10673,"992":10674,"997":10675,"335":10676,"135":10677,"ParameterType":10678,"ĠPhone":10679,"FfiHandle":10680,"dHlw":10681,"ĠDbType":10682,"CN":10683,"brown":10684,"ev":10685,"uent":10686,"met":10687,"Ġinv":10688,"207":10689,"WebSocket":10690,">{'":10691,"labelText":10692,"tabs":10693,"Tracking":10694,"AILED":10695,"riculum":10696,"FormalParameter":10697,"writeToBuffer":10698,"Ai":10699,"pack":10700,"standard":10701,"ĠTuple":10702,"206":10703,"608":10704,"ĠbaseUrl":10705,"Ð¾Ð´":10706,"Ġcards":10707,"framework":10708,"nl":10709,"Ġes":10710,"Ġcalculate":10711,"lout":10712,"Ins":10713,"Ġmer":10714,"Typed":10715,"ĠIconThemeData":10716,"finish":10717,"ãĥ³":10718,"Spot":10719,"snapshots":10720,"fullName":10721,"Ġproducts":10722,"Genre":10723,"Aware":10724,"qparams":10725,"trey":10726,"enario":10727,"ĠBr":10728,"ĠonDone":10729,"ĠhWnd":10730,"ĠScript":10731,"345":10732,"609":10733,"359":10734,"Positions":10735,"ContentType":10736,"CompilationUnit":10737,"Ġarticle":10738,"ynthetic":10739,"!',":10740,"CTION":10741,"Patient":10742,"Support":10743,"Vote":10744,"pow":10745,"idade":10746,"chapter":10747,"strument":10748,"286":10749,"Stroke":10750,"preter":10751,"ĠminPrice":10752,"Defaults":10753,"Modifier":10754,"buttons":10755,"ĠaccessToken":10756,".</":10757,"SL":10758,"twitter":10759,"Ġrethrow":10760,"Ġbind":10761,"Ġstage":10762,"START":10763,"Interceptor":10764,"ĠAccess":10765,"velopment":10766,"029":10767,"dependencies":10768,"Ġthumb":10769,"toSet":10770,"Ġ49":10771,"ips":10772,"ĠsearchText":10773,"bluetooth":10774,")[":10775,"366":10776,"gredient":10777,"sv":10778,"àª":10779,"mess":10780,"Ġthose":10781,"Ġetc":10782,"endregion":10783,"ĠPart":10784,"DatePicker":10785,"OrMaker":10786,"ĠdefaultOrMaker":10787,"Crew":10788,"shopping":10789,"factor":10790,"youtube":10791,"ĠðŁ":10792,"ĠPRO":10793,"ĠRouter":10794,"asket":10795,"Nullability":10796,"Translation":10797,"à¸Ļ":10798,"bookmark":10799,"ÑĢÐ¸":10800,"ĠdbDate":10801,"Ġ'../../../../":10802,"Confirmation":10803,"bWVud":10804,"Music":10805,"Rob":10806,"picture":10807,"åĿ":10808,"ĠonChange":10809,"245":10810,"Desktop":10811,"checkUnnamed":10812,"byValue":10813,"ĠClassElement":10814,"irthday":10815,"365":10816,"Poll":10817,"Zih":10818,"jump":10819,"ĠfontStyle":10820,"lyph":10821,"CodeSystem":10822,"Ġ54":10823,"249":10824,"Ġthrown":10825,"minutes":10826,"ĠÐ±":10827,"çĶ»":10828,"Ġwords":10829,"Connectivity":10830,"producer":10831,"æĽ´":10832,"Emoji":10833,"GER":10834,"Mj":10835,"Sn":10836,"rain":10837,"yB":10838,"Ġlang":10839,"ĠONE":10840,"307":10841,"3030":10842,"currentPage":10843,"å½ĵ":10844,"dat":10845,"drive":10846,"fine":10847,"Ùģ":10848,"èµ":10849,"entral":10850,"plate":10851,"ponent":10852,"Ġextend":10853,"Round":10854,"154":10855,"ĠstatusElement":10856,"IAEo":10857,"Ġprovides":10858,"EngineParams":10859,"åŃĲ":10860,"KGUEKGUEKGUEKGUEKGUEKGUEKGUEKGUEKGUEKGUEKGUEKGUEKGUEKGUEKGUEKGUEKGUEKGUEKGUEKGUEKGUEKGUEKGUEKGUEKGUEKGUEKGUEKGUEKGUEKGUEKGUEKGUE":10861,"ĠFormatException":10862,"bubble":10863,"gas":10864,"anceled":10865,"ugal":10866,"157":10867,"SideE":10868,"mitter":10869,"Linear":10870,"Lyric":10871,"rength":10872,"SG":10873,"hub":10874,"Ġcy":10875,"isAndroid":10876,"ici":10877,"ĠOption":10878,"184":10879,"174":10880,"ĠCounter":10881,"divid":10882,"FILE":10883,"ĠSignIn":10884,"ĠDescriptor":10885,"Bot":10886,"Dimensions":10887,"Fee":10888,"uT":10889,"wan":10890,"ç½®":10891,"alias":10892,"itions":10893,"adial":10894,"scheme":10895,"ĠvalueOf":10896,"ĠGo":10897,"246":10898,"196":10899,"times":10900,"posts":10901,"Capital":10902,"Ġregistered":10903,"ApQyApQyApQyApQy":10904,"Pj":10905,"baz":10906,"inf":10907,"ĠPub":10908,"Ġtyp":10909,"Ġratio":10910,"Segments":10911,"illa":10912,"014":10913,"architecture":10914,"240":10915,"ServiceCall":10916,"170":10917,"Logging":10918,"Ġtranslate":10919,"Ġenums":10920,"FORMAT":10921,"JT":10922,"RIGHT":10923,"half":10924,"shelf":10925,"Ġcross":10926,"apse":10927,"ĠAUT":10928,"Ġids":10929,"ĠmaxPrice":10930,"Listenable":10931,"Ġsomething":10932,"ĠSMALL":10933,"cha":10934,"Ġdeserialize":10935,"')))":10936,"Ġsemantics":10937,"portion":10938,"ively":10939,"198":10940,"Ġdispatch":10941,"Ġ2015":10942,"Ġlinks":10943,"icipants":10944,"OSPolicyResource":10945,"ĠtextInputAction":10946,"åĪĹè¡¨":10947,"kh":10948,"ĠPO":10949,"plug":10950,"Ġtesting":10951,"505":10952,"requestFocus":10953,"ceptors":10954,"484":10955,"DetailPage":10956,"ĠTransfer":10957,"CurrentUser":10958,"Diagnostic":10959,"Ġdeclared":10960,"åĢ¼":10961,"225":10962,"Fly":10963,"kan":10964,"ĠNamed":10965,"Ġretrieve":10966,"Ġnavigate":10967,"Removed":10968,"WidgetBuilder":10969,"Developer":10970,"Scanner":10971,"ĠHandle":10972,"136":10973,"177":10974,"388":10975,"ĠThrows":10976,"tailed":10977,"498":10978,"ĠUnder":10979,"Games":10980,"tracker":10981,"ĠfbBuilder":10982,"Recognizer":10983,"SizedBox":10984,"water":10985,"Ġsur":10986,"Cons":10987,"Logout":10988,"STAT":10989,"223":10990,"äºİ":10991,"Monitor":10992,"Iiwi":10993,"\"===":10994,"216":10995,"Diff":10996,"Good":10997,"func":10998,"ÉĻ":10999,"758":11000,"authenticated":11001,"ĠStackTrace":11002,"UMBER":11003,"/_":11004,"Friend":11005,"urses":11006,"Ġsquare":11007,"0001":11008,"Ġlik":11009,"Ġ53":11010,"logout":11011,"604":11012,"Ð¾ÑĤ":11013,"596":11014,"Ġabstract":11015,"HR":11016,"Mesh":11017,"Pic":11018,"Tweet":11019,"eff":11020,"fish":11021,"tu":11022,"ton":11023,"ula":11024,"rim":11025,"livers":11026,"143":11027,"ĠmainAxis":11028,"336":11029,"ĠbuilderFunc":11030,"Ø§ÙĨ":11031,"ãĢĢ":11032,"Ġnegative":11033,"ĠCheckbox":11034,"Footer":11035,"jpeg":11036,"pm":11037,"mplemented":11038,"348":11039,"bottomRight":11040,"Ġzone":11041,"organization":11042,"ĠStep":11043,"\"></":11044,"href":11045,"writer":11046,"ĠDouble":11047,"Ġunselected":11048,"authors":11049,"558":11050,"Ġnecessary":11051,"globals":11052,"ĠCallback":11053,"BuiltList":11054,"Ġnotifications":11055,"274":11056,"Average":11057,"Gray":11058,"cus":11059,"du":11060,"ĠclosingPrice":11061,"ĠStudent":11062,"proxy":11063,"Ġnamespace":11064,"757":11065,"EventType":11066,"507":11067,"translation":11068,"AuthState":11069,"ĠChrom":11070,"Ġoverrid":11071,"Ġable":11072,"Ġpract":11073,"ĠprevClosingPrice":11074,"ĠfluctateRate":11075,"ĠcursorColor":11076,"ĠopeningPrice":11077,"rocery":11078,"Capture":11079,"NEL":11080,"gASg":11081,"semb":11082,"tek":11083,"ĠStop":11084,"usable":11085,"ĠMeta":11086,"ResponseMerr":11087,"ChangeDetector":11088,"Ġoutside":11089,"Ġappear":11090,"BytesNestedInt":11091,"æ¬":11092,"react":11093,"encoded":11094,"measure":11095,"ĠSY":11096,"getUser":11097,"Ġ114":11098,"Shader":11099,"Ġ_$$":11100,"156":11101,"ĠThere":11102,"screenutil":11103,"URN":11104,"2017":11105,"ĠHttpClient":11106,"BytesNestedFloat":11107,"è¾ĵ":11108,"KcmV":11109,"browser":11110,"utr":11111,"ĠCurrent":11112,"Regex":11113,"645":11114,"OfWeek":11115,"Ġ})));":11116,"ï¼Ī":11117,"Capacity":11118,"åĽ¾":11119,"ĠBehavior":11120,"ingredients":11121,"çĲĨ":11122,"Les":11123,"badge":11124,"å¥":11125,"Ġnested":11126,"ĠonSelected":11127,"ĠDel":11128,"exclude":11129,"TextController":11130,"adient":11131,"165":11132,"Ġyaml":11133,"ĠerrorCode":11134,"noSuchMethod":11135,"removeLast":11136,"ĠAuthor":11137,"KGEp":11138,"Ġindicates":11139,"RoaXMuY":11140,"ĠNeverScrollableScrollPhysics":11141,"Polyline":11142,"æĬ":11143,"online":11144,"ĠFOR":11145,"Ġgit":11146,"Sec":11147,"emb":11148,"705":11149,"creation":11150,"Ġinputs":11151,"longer":11152,"ĠTeam":11153,"exitCode":11154,"Em":11155,"Hote":11156,"ION":11157,"datas":11158,"Ġcal":11159,"Ġpatient":11160,"ĠStandard":11161,"lyZXR":11162,"202":11163,"olicies":11164,"ï¼ī":11165,"ĠorderBy":11166,"UCCESS":11167,"Brands":11168,"å°ı":11169,"Statistics":11170,"pixels":11171,"132":11172,"fol":11173,"Ġturn":11174,"Ġio":11175,"ĠSans":11176,"Ġbadge":11177,"Ġsurface":11178,"Ġconverted":11179,"scrib":11180,"Ġpaths":11181,"334":11182,"ĠFontStyle":11183,"ĠfindNode":11184,"feedback":11185,"MONTHS":11186,"DR":11187,"Kh":11188,"Mutation":11189,"Ġlow":11190,"arator":11191,"Ġ'+":11192,"cores":11193,"chan":11194,"Cookie":11195,"Shh":11196,"ĠInline":11197,"176":11198,"Contains":11199,"stringValue":11200,"purchase":11201,"aurants":11202,"deepPurple":11203,"Middleware":11204,"GS":11205,"gs":11206,"Ġcredits":11207,"Ġinvoice":11208,"ĠaspectRatio":11209,"Ġshown":11210,"placeholder":11211,"atterns":11212,"236":11213,"ĠShare":11214,"Reporter":11215,"Ġpressed":11216,"Ð¼ÐµÑģÑĤ":11217,"Ġsupports":11218,"DiagnosticsProperty":11219,"232":11220,"Otp":11221,"USD":11222,"pal":11223,"yGNode":11224,"utures":11225,"Ġmixin":11226,"ĠĠĠĠĠĠĠĠĠĠĠĠĠĠĠĠĠĠĠĠĠĠĠĠĠĠĠĠĠĠĠĠĠĠĠĠĠĠĠĠĠĠĠĠĠĠĠĠĠĠĠĠĠĠĠĠĠĠĠĠĠĠĠĠĠĠĠĠĠ":11227,"Resources":11228,"typeParameters":11229,"113":11230,"boto":11231,"704":11232,"signOut":11233,"gradient":11234,"posal":11235,"ĠDiagnost":11236,"Ġcached":11237,"STANDALON":11238,"Land":11239,"Zy":11240,"bri":11241,"contract":11242,"etag":11243,"ENTI":11244,"ENTH":11245,"ARROW":11246,"745":11247,"âĢĶ":11248,"Flash":11249,"ĠDropdownButton":11250,"organizations":11251,"@@":11252,"Ol":11253,"boolean":11254,"umed":11255,"ĠCool":11256,"Increment":11257,"Connector":11258,"locator":11259,"ĠRadio":11260,"forms":11261,"Viewer":11262,"338":11263,"à¸ģ":11264,"ĠCurvedAnimation":11265,"FillProperties":11266,"è¿Ķ":11267,"Libraries":11268,"Needs":11269,"ÑĢÐµÐ´Ð½ÑıÑı":11270,"Flip":11271,"JECT":11272,"Vo":11273,"tre":11274,"áŀ":11275,"onChange":11276,"related":11277,"Ġretry":11278,"Ġmapping":11279,"Ġexport":11280,"Travel":11281,"ĠHow":11282,"666":11283,"785":11284,"ãģı":11285,"Minutes":11286,"Stopped":11287,"Ġartist":11288,"ĠSystemChrome":11289,"VI":11290,"xk":11291,"Include":11292,"upon":11293,"Ġtouch":11294,"ardown":11295,"ĠExp":11296,"709":11297,"ĠCONSTRUCTOR":11298,"CornerA":11299,"Ġindent":11300,"ENTHESIS":11301,"279":11302,"bor":11303,"wb":11304,"cel":11305,"Ġmerge":11306,"interfaces":11307,"440":11308,"BytesPacked":11309,"commerce":11310,"ĠbottomLeft":11311,"çĻ»":11312,")]);":11313,"eg":11314,"à´":11315,"ç®":11316,"olocation":11317,"Ġfn":11318,"ullet":11319,"ĠjsonRes":11320,"ERE":11321,"subscriptions":11322,"Artist":11323,"å¤ļ":11324,"APP":11325,"answers":11326,"allowed":11327,"assertion":11328,"229":11329,"tw":11330,"à°":11331,"Ġ\"_":11332,"Ġconnected":11333,"ĠFraction":11334,"Ġlater":11335,"perform":11336,"ĠVM":11337,"994":11338,"ĠWIDTH":11339,"removeWhere":11340,"ÑģÑı":11341,"ParserErrorCode":11342,"Ġnever":11343,"permissions":11344,"åı¯ä»¥":11345,"ĠFROM":11346,"riculumSetting":11347,"/\"));":11348,"Dashboard":11349,"ZC":11350,"fragment":11351,"Ãł":11352,"Ġrec":11353,"Ġpref":11354,"Ġsnap":11355,"Ġsetter":11356,"Ġ52":11357,"UserEvent":11358,"Presenter":11359,"cording":11360,"Ġverification":11361,"ĠphoneNumber":11362,"ĠsuffixIcon":11363,"COLOR":11364,"NL":11365,"Water":11366,"Ã¢":11367,"åĵ":11368,"ĠÑĢ":11369,"ilist":11370,"istent":11371,"amaz":11372,"uba":11373,"imeter":11374,"__++)":11375,"698":11376,"greg":11377,"compile":11378,"ĠShared":11379,"themes":11380,"ĉĉĉĉĉ":11381,"LIST":11382,"ĠPARENTHESIS":11383,"KCl":11384,"blob":11385,"mirror":11386,"nemonic":11387,"publish":11388,"aci":11389,"getI":11390,"Ġoptim":11391,"Ġ216":11392,"287":11393,"395":11394,"747":11395,"ĠpageToken":11396,"Ġmatcher":11397,"Lmxl":11398,"åħ³":11399,"Ġtasks":11400,"Ġcrew":11401,"Ġredirect":11402,"å»º":11403,"Ñī":11404,"icial":11405,"apon":11406,"ĠTile":11407,"Coin":11408,"subTopic":11409,"GoogleLongrunning":11410,"Ġprepare":11411,"ĠdemoCupertino":11412,"è¿ĩ":11413,"absolute":11414,"ĠResponsive":11415,"ĠTemplate":11416,"ĠSlide":11417,"Dash":11418,"SF":11419,"`:":11420,"snap":11421,"æĥ":11422,"Ġfamily":11423,"Ġsoft":11424,"TypeId":11425,"Ġpreview":11426,"MyHomePage":11427,"ĠValueChanged":11428,"DELE":11429,"POINT":11430,"Suggestions":11431,"Hidden":11432,"cue":11433,"ç«":11434,"Ġpause":11435,"Incident":11436,"Ġtoo":11437,"ima":11438,"ĠgetAll":11439,"163":11440,"668":11441,"Addresses":11442,"ĠresponseBody":11443,"door":11444,"Ġstored":11445,"DEX":11446,"stackTrace":11447,"Finish":11448,"ĠPaintingStyle":11449,"Ġstudents":11450,"æ±Ĥ":11451,"EA":11452,"bon":11453,"àº":11454,"ç´":11455,"unfocus":11456,"009":11457,"endTime":11458,"Ġexact":11459,"Ġ108":11460,"Updates":11461,"Ġ73":11462,"SideB":11463,"ĠnumberOf":11464,"ffffffff":11465,"BoldItalic":11466,"Symbols":11467,"IamPermission":11468,"ultiline":11469,"212":11470,"CAN":11471,"ZV":11472,"btn":11473,"here":11474,"sell":11475,"Coordinates":11476,"Resize":11477,"places":11478,"peria":11479,"ĠNative":11480,"pyZXR":11481,"Force":11482,"356":11483,"Help":11484,"ditional":11485,"reditCard":11486,"ternate":11487,"sqflite":11488,"SemanticLabel":11489,"ENGTH":11490,"KXtyZXR":11491,"publicKey":11492,"Ġfi":11493,"loop":11494,"amed":11495,"orders":11496,"ĠtextScaleFactor":11497,"Bearer":11498,"658":11499,"blueAccent":11500,"586":11501,"åĪ¶":11502,"connectivity":11503,"Foreign":11504,"CmlmKH":11505,"rediction":11506,"Cmd":11507,"Lik":11508,"information":11509,"Ġcmd":11510,"Ġcontract":11511,"Consent":11512,"Province":11513,"606":11514,"contents":11515,"à¸Ń":11516,"ĠTestScript":11517,"aptured":11518,"Ġ\\\"":11519,"Ġpubspec":11520,"179000000000000000000":11521,"Net":11522,"credential":11523,"Ġfails":11524,"ĠonRefresh":11525,"(\"&":11526,"fromString":11527,".__":11528,"((__":11529,"Annotations":11530,"redAccent":11531,"186":11532,"Locator":11533,"createTime":11534,"777":11535,"topRight":11536,"793":11537,"going":11538,"ĠCurrency":11539,"Ġincludes":11540,"Delivery":11541,"ĠtoBuilder":11542,"ĠisS":11543,"Arc":11544,"clamp":11545,"289":11546,"ORE":11547,"Functions":11548,"Ġlocalizations":11549,"ILITY":11550,"ÐµÐ¼":11551,"ĠRunOut":11552,"Ġlibraries":11553,"ĠSlider":11554,"æĮī":11555,"Ð¼ÐµÑģÑĤÐ½Ð°Ñı":11556,"Asc":11557,"gray":11558,"ĠEM":11559,"Ġanchor":11560,"Ġchain":11561,"Ġorientation":11562,"779":11563,"TIVE":11564,"Dispose":11565,"ĠKI":11566,"Ġprojects":11567,"Actual":11568,"Minute":11569,"Assign":11570,"Vi":11571,"ingState":11572,"shrink":11573,"Apple":11574,"validation":11575,"TopLevel":11576,"LLABLE":11577,"ĠGoogleSignIn":11578,"padLeft":11579,"'^":11580,"238":11581,"saved":11582,"inh":11583,"inuation":11584,"Ġfs":11585,"Ġ\"\");":11586,"setWidth":11587,"ERS":11588,"298":11589,"Subscriptions":11590,"SELE":11591,"Ġ95":11592,"749":11593,"Previous":11594,"animateTo":11595,"WR":11596,"ampl":11597,"cfe":11598,"à¬":11599,"çķ":11600,"é«":11601,"today":11602,"Ġmid":11603,"resolved":11604,"Resolved":11605,"197":11606,"684":11607,"Ġgroups":11608,"ĠUserModel":11609,"EndBlock":11610,"DartEntry":11611,"formatted":11612,"Dirty":11613,"LHM":11614,"windows":11615,"ĠCHARACTER":11616,"Ow":11617,"calculator":11618,"fake":11619,"alarm":11620,"Ġ''),":11621,"ĠBR":11622,"extract":11623,"Ġsubmit":11624,"ãģŁ":11625,"Ġexpr":11626,"ĠPluto":11627,"ĠGraphQL":11628,"needEndBlock":11629,"Gro":11630,"Hist":11631,"lazy":11632,"always":11633,"Ġcalcul":11634,"()',":11635,"coord":11636,"ĠDB":11637,"746":11638,"495":11639,"Observable":11640,"CurriculumSetting":11641,"(\"/\"));":11642,"ĠOverlay":11643,"ĠUniqueKey":11644,"FluttifyChannel":11645,"Cal":11646,"Ctor":11647,"yl":11648,"uest":11649,"Ġpay":11650,"activate":11651,"ĠDown":11652,"(\"=\");":11653,"247":11654,"Authors":11655,"lerp":11656,"withAlpha":11657,"ĠSetting":11658,"general":11659,"Ġnothing":11660,"Serializers":11661,"YEOK":11662,"è¿ĶåĽŀ":11663,"ĠKIYEOK":11664,")>('":11665,"BigInt":11666,"FUN":11667,"Hide":11668,"Opt":11669,"]))":11670,"pValue":11671,"åŀ":11672,"delivery":11673,"Ġthree":11674,"quad":11675,"Idx":11676,"Proportion":11677,"ByName":11678,"DateElement":11679,"Ġdiscount":11680,"Ð°ÑĢ":11681,"RED":11682,"compiler":11683,"Numbers":11684,"JldHVybi":11685,"??":11686,"TM":11687,"Tmp":11688,"Ġstory":11689,"187":11690,"344":11691,"OnError":11692,"654":11693,"Ġjurisdiction":11694,"857":11695,"insights":11696,"Ġplan":11697,"Ġcoverage":11698,"ĠMemory":11699,"CiAg":11700,"/[^/]+/":11701,"tmp":11702,"æĻ":11703,"Ġios":11704,"recipes":11705,"trip":11706,"Ġanimate":11707,"Requests":11708,"obs":11709,"778":11710,"prise":11711,"encodeFull":11712,"Ġadmin":11713,"prefixes":11714,"ĠAbstract":11715,"goods":11716,"KCk":11717,"Less":11718,"Snackbar":11719,"bas":11720,"hd":11721,"hold":11722,"men":11723,"tick":11724,"zy":11725,"oler":11726,"Ġequivalent":11727,"Ġdevices":11728,"exceptions":11729,"indigo":11730,"ĠRece":11731,"Ġchoice":11732,"Blur":11733,"Membership":11734,"nativeLibrary":11735,"COUNT":11736,"^^^^^^^^":11737,"âĸĪâĸĪ":11738,"Au":11739,"Es":11740,"oot":11741,"getExtension":11742,"Ġaverage":11743,"removeListener":11744,"Ġsigned":11745,"LOAD":11746,"åŃĺ":11747,"deepOrange":11748,"Messaging":11749,"qrt":11750,"animations":11751,"HiveField":11752,"Cannot":11753,"WJ":11754,"ĠĠĠĠĠĠĠĠĠĠĠĠĠĠĠĠĠĠĠĠĠĠĠĠĠĠ":11755,"Ġfirestore":11756,"Ġdetermin":11757,"ordered":11758,"Ġgrowable":11759,"Ġunexpected":11760,"lying":11761,"ĠtimeStamp":11762,"ĠArray":11763,"ĠparseBool":11764,"Ø§Ø±":11765,"Ġ['|+":11766,"é»ĺ":11767,"Grade":11768,"Welcome":11769,"`).":11770,"eval":11771,"oauth":11772,"Ġrelev":11773,"getColor":11774,"ĠPuzzle":11775,"Ġdel":11776,"644":11777,"Ġ(_$":11778,"ĠquerySelector":11779,"294":11780,"parts":11781,"Phrase":11782,"ĠShape":11783,"Expand":11784,"modifiable":11785,"Participant":11786,"IfNull":11787,"OLD":11788,"renderer":11789,"Ġstops":11790,"sessment":11791,"301":11792,"Da":11793,"\\':":11794,"rel":11795,"orientation":11796,"enant":11797,"undefined":11798,"ĠMake":11799,"vest":11800,"Ġgood":11801,"Poi":11802,"ills":11803,"apiKey":11804,"ĠValueKey":11805,"ĠButtonStyle":11806,"thesis":11807,"Preferred":11808,"np":11809,"ona":11810,"isSelected":11811,"ulo":11812,"ĠMust":11813,"\":{\"":11814,"tests":11815,"ĠBool":11816,"ĠUi":11817,"currentContext":11818,"504":11819,"222":11820,"Ġstarts":11821,"tribution":11822,"Channels":11823,"VariableDeclaration":11824,"DropdownMenuItem":11825,"VtZW":11826,"ĠSDK":11827,"é»ĺè®¤":11828,"DATA":11829,"Timing":11830,"iance":11831,"}\"":11832,"isIOS":11833,"Ġconverter":11834,"ĠBand":11835,"ĠOK":11836,"props":11837,"Shift":11838,"Paragraph":11839,"Heading":11840,"190":11841,"Ġversions":11842,"ATOR":11843,"Ġgeneration":11844,"LastName":11845,"PixelRatio":11846,"ĠValidation":11847,"QUEST":11848,"ĠSYLLABLE":11849,"Tuple":11850,"mr":11851,"stinations":11852,"ĠCalled":11853,"Ġ112":11854,"Ġoprot":11855,"challenge":11856,"Reserved":11857,"Season":11858,"Themes":11859,"703":11860,"Logic":11861,"ĠgroupValue":11862,"Based":11863,"OTT":11864,"æĢģ":11865,"supports":11866,"ĠtearDown":11867,"Circular":11868,"FN":11869,"Jd":11870,"Xperia":11871,"sis":11872,"Ġcamel":11873,"Ġfast":11874,"Ġrecogn":11875,"Ġpool":11876,"Ġkeyvalue":11877,"ĠAny":11878,"659":11879,"ĠKEY":11880,"Successful":11881,"Ġimmediate":11882,"Ġfeatures":11883,"/\\[^/\\]+/":11884,"(\"&\"))":11885,"Qg":11886,"tweet":11887,"deleted":11888,"covariant":11889,"ressed":11890,"Problem":11891,"Ġseed":11892,"339":11893,"Ġ001":11894,"ĠsearchList":11895,"ĠCustomPainter":11896,"æľĪ":11897,"SIGN":11898,"Suite":11899,"Tv":11900,"ĠDraw":11901,"oldWidget":11902,"errorCode":11903,"ĠPossible":11904,"405":11905,"ĠstatusCode":11906,"ZXcg":11907,"ĠEntypo":11908,"FirstName":11909,"SHORT":11910,"Ġdivider":11911,"Personal":11912,"Crop":11913,"dropdown":11914,"eded":11915,"sup":11916,"third":11917,"Ġ\"#":11918,"ListResponse":11919,"TypeName":11920,"ĠDiv":11921,"paces":11922,"ĠSelection":11923,"([])');":11924,"xFFFF":11925,"ĠInternet":11926,"ĠBounc":11927,"scriptor":11928,"LnByb":11929,"ĠDefines":11930,"Ġassigned":11931,"Shopping":11932,"é«ĺ":11933,")];":11934,"LM":11935,"school":11936,"Ġdropdown":11937,"Ġ116":11938,"Ġmaint":11939,"StateError":11940,"embed":11941,">([":11942,"ĠVertical":11943,"755":11944,"Ġalt":11945,"Ġ160":11946,"newValue":11947,"++){":11948,"Paren":11949,"Healthcare":11950,"235":11951,"cf":11952,"ea":11953,"|'":11954,"Ãº":11955,"ĠWith":11956,"tele":11957,"Ġbetter":11958,"converter":11959,"Ġ011":11960,"resolution":11961,"enda":11962,"ĠRET":11963,"ĠIndic":11964,"ocker":11965,"ĠAnsi":11966,"timeline":11967,"Ġlogic":11968,"è½½":11969,"<<":11970,"FAILED":11971,"GA":11972,"Yi":11973,"jf":11974,"TypeParameter":11975,"ĠLI":11976,"ĠURI":11977,"Ð¾Ð½":11978,"EEE":11979,"catchArgumentError":11980,"Ġcreating":11981,"åĩ»":11982,"Ġpixels":11983,"è¾ĵåħ¥":11984,"/\",":11985,"Md":11986,"nome":11987,"Ġlookup":11988,"Ġvis":11989,"Ġresize":11990,"experimental":11991,"ĠUP":11992,"based":11993,"uffle":11994,"Ġpositional":11995,"IamV":11996,"Business":11997,"123456":11998,"Capitalization":11999,"Ġcredentials":12000,"ĠPe":12001,"parate":12002,"words":12003,"ucHJvdG":12004,"\"]!.":12005,"Authenticated":12006,"maj":12007,"Ġcluster":12008,"ĠValueNotifier":12009,"blems":12010,"ĠInternal":12011,"||(":12012,"xxxx":12013,"restaurant":12014,"ancy":12015,"Ġactor":12016,"WidgetDj":12017,"ĠDay":12018,"Ġ85":12019,"FileSystem":12020,"OfType":12021,"Ġicons":12022,"ĠgroupId":12023,"localhost":12024,"Ġmodifier":12025,"å®¹":12026,"lectric":12027,"364":12028,"875":12029,"CV":12030,"Nj":12031,"fess":12032,"kt":12033,"pied":12034,"sources":12035,"ĠĠĠĠĠĠĠĠĠĠĠĠĠĠĠĠĠĠĠĠĠĠĠĠĠĠĠĠ":12036,"Ġclean":12037,"security":12038,"Ġsyntax":12039,"Ġ\"\")":12040,"ĠCronet":12041,"copyright":12042,"aths":12043,"fluttertoast":12044,"Ġgreen":12045,"Ġstyles":12046,"redirect":12047,"anned":12048,"689":12049,"General":12050,"695":12051,"à¸£":12052,"Associ":12053,"DAY":12054,"////////////////////////////////////////////////////////////////":12055,"ĠManage":12056,"Care":12057,"Rout":12058,"Sender":12059,"policy":12060,"sd":12061,"à®":12062,"reversed":12063,"Ġ'{":12064,"ĠMobile":12065,"ĠAtom":12066,"Ġdesired":12067,"IconsData":12068,"ButtonState":12069,"ActionController":12070,"Aligned":12071,"ĠendTime":12072,"xffF":12073,"åı·":12074,"numberOf":12075,"éĻ¤":12076,"ĠhighlightColor":12077,"ĠCoolIconsData":12078,"BK":12079,"Implemented":12080,"Mail":12081,"binary":12082,"uv":12083,"ros":12084,"roboto":12085,"getElement":12086,"todos":12087,"0040":12088,"Ġmade":12089,"Ġisn":12090,"Ġdescribe":12091,"ĠBody":12092,"Ġhidden":12093,"ĠOpacity":12094,"Pokemon":12095,"corded":12096,"Ġiprot":12097,"259":12098,"Ġlocations":12099,"394":12100,"ensation":12101,"cmF":12102,"Questions":12103,"afety":12104,"bf":12105,"ìĹ":12106,"ĠÄ":12107,"meter":12108,"Ġng":12109,"ĠFirst":12110,"ĠMMM":12111,"Ġdead":12112,"')[":12113,"minimum":12114,"686":12115,"ĠJava":12116,"ĠFluttertoast":12117,"GVuZ":12118,"unknownEnumValue":12119,"vanced":12120,".'),":12121,"LENGTH":12122,"ZM":12123,"dÃ©":12124,"tit":12125,"Ð¡":12126,"Ġmag":12127,"ĠAv":12128,"shield":12129,"udi":12130,"ĠcaseSensitive":12131,"756":12132,"ĠfromMap":12133,"screenWidth":12134,"Packages":12135,"dylib":12136,"Ġexecuted":12137,"graphy":12138,"Directives":12139,"guide":12140,"yyyy":12141,"variables":12142,"Printer":12143,"irtual":12144,"pk":12145,"ç¨":12146,"Ġspe":12147,"Ġdx":12148,"arging":12149,"ĠexpectLater":12150,"UrlResponse":12151,"bounce":12152,"697":12153,"airs":12154,"ĠCustomPaint":12155,"ILD":12156,"ãģĦãģ":12157,"ĠCachedNetworkImage":12158,"éľĢ":12159,"Ma":12160,"iate":12161,"xh":12162,"Ġer":12163,"tection":12164,"Exam":12165,"QuerySnapshot":12166,"Ġenv":12167,"ĠSchedule":12168,"letter":12169,"ĠSliverGrid":12170,"Negative":12171,"directions":12172,"ĠgoogleSignIn":12173,"BD":12174,"Ji":12175,"Sizes":12176,"growable":12177,"urnament":12178,"Dec":12179,"DataHeader":12180,"ĠGA":12181,"ongo":12182,"795":12183,"385":12184,"penses":12185,"Ġuseful":12186,"ĠCustomer":12187,"Ġ2016":12188,"KXJldHVybiB":12189,"ä½ľ":12190,"Clicked":12191,"perience":12192,"ĠstrokeWidth":12193,"bounds":12194,"uKGEpe":12195,"pushReplacementNamed":12196,"Lmxlbmd":12197,"Github":12198,"ulate":12199,"getValue":12200,"ListPage":12201,"Ġasm":12202,"ibration":12203,"TextSpan":12204,"ĠargFields":12205,"508":12206,"346":12207,"ARD":12208,"webview":12209,"Switcher":12210,"ĠAbout":12211,"Today":12212,"DIT":12213,"Mal":12214,"ZG":12215,"calc":12216,"friend":12217,"gC":12218,"oy":12219,"rr":12220,"ateScreen":12221,"ĠTap":12222,"verification":12223,"weep":12224,"131":12225,"community":12226,"367":12227,"ConceptMap":12228,"ambda":12229,"Docs":12230,"Ġpigeon":12231,"arrative":12232,"incipal":12233,")=>":12234,"ç©":12235,"Ġ\"<":12236,"Ingredient":12237,"Alarm":12238,"013":12239,"Ġshift":12240,"fileName":12241,"ĠstartDate":12242,"Ġinitialized":12243,"MH":12244,"gmail":12245,"lood":12246,"Ġ115":12247,"Ġam":12248,"Algorithm":12249,"(\"\\":12250,"Uniform":12251,"episode":12252,"173":12253,"227":12254,"Online":12255,"Ð°Ñģ":12256,"Ġcompiler":12257,"Minus":12258,"ĠHealth":12259,"ProportionateScreen":12260,"Did":12261,"OV":12262,"PG":12263,"SING":12264,"ucted":12265,"utral":12266,"Ġir":12267,"orary":12268,"anchor":12269,"0028":12270,"()[":12271,"ĠEND":12272,"ĠgetData":12273,"reflective":12274,"Ġannotate":12275,"445":12276,"divider":12277,"generic":12278,"ĠAdaptive":12279,"Ð°Ð·":12280,"Ġlisteners":12281,"ĠenumValues":12282,"integr":12283,"ĠChromium":12284,"!._":12285,"JC":12286,"TS":12287,"ni":12288,"wave":12289,"meup":12290,"Ġsales":12291,"chunk":12292,"rib":12293,"ĠtoList":12294,"encry":12295,"858":12296,"Ġtoolbar":12297,"ĠHTML":12298,"à¥ģ":12299,"strHomeaddressLive":12300,"ĠFeather":12301,"218":12302,"Ny":12303,"Velocity":12304,"Ġcare":12305,"Ġbalance":12306,"():":12307,"Ġ05":12308,"plain":12309,"Ġvariant":12310,"Ġnotice":12311,"Checkout":12312,"resourceType":12313,"FIELD":12314,"å¯Ĩ":12315,"è¯·æ±Ĥ":12316,"èĩª":12317,"211":12318,"DIS":12319,"JV":12320,"Pol":12321,"cake":12322,"syntax":12323,"Ã°":12324,"alCode":12325,"Ġsit":12326,"setBool":12327,"ĠAut":12328,"Sha":12329,"ĠSecond":12330,"gestures":12331,"ĠTabController":12332,"ainedBox":12333,"Ġpicked":12334,"ĠmapsEventListener":12335,"SELECT":12336,"Lang":12337,"Persistent":12338,"Serial":12339,"dummy":12340,"pull":12341,"Ø²":12342,"iced":12343,"adaptive":12344,"Ġsorted":12345,"verbose":12346,"Ġdetailed":12347,"ĠUs":12348,"typeArguments":12349,"ĠHistory":12350,"Quiz":12351,"players":12352,"createSync":12353,"798":12354,"396":12355,"748":12356,"694":12357,"Ġprevent":12358,"ĠprojectId":12359,"Ġdocuments":12360,"AccessToken":12361,"Ġordered":12362,"æľĢ":12363,"ModalBottomSheet":12364,"RvdHlw":12365,"Relationship":12366,"uKGEsY":12367,"278":12368,"Hy":12369,"Si":12370,"Ts":12371,"Uris":12372,"WS":12373,"_:":12374,"runtime":12375,"Ġâ":12376,"roles":12377,"asi":12378,"Ġbanner":12379,"Ġpoll":12380,"ImageUrl":12381,"servation":12382,"Tiles":12383,"())?.":12384,"Ġslider":12385,"Certificate":12386,"TextInputFormatter":12387,"230":12388,"IV":12389,"UY":12390,"ban":12391,"little":12392,"èİ·åıĸ":12393,"ention":12394,"urer":12395,"Ġrequires":12396,"ĠSession":12397,"Ġ\")":12398,"ĠPush":12399,"Decl":12400,"Anime":12401,"TestCase":12402,"ThemeMode":12403,"Ġenclosing":12404,"CallBack":12405,"ĠThemeMode":12406,"barcode":12407,"########":12408,"LifecycleState":12409,"ĠUnderlineInputBorder":12410,"KSl":12411,"MI":12412,"Optim":12413,"à¨":12414,"rott":12415,"Ġrecent":12416,"ĠbgColor":12417,"Ġsin":12418,"Invoke":12419,"absent":12420,"IconButton":12421,"Ġdec":12422,"Ġdependency":12423,"BoxAdapter":12424,"ClassElement":12425,"ĠShould":12426,"bmV":12427,"HttpRequest":12428,"ascade":12429,"ĠConfiguration":12430,"ĠArticle":12431,"Finding":12432,"Half":12433,"Merge":12434,"hidden":12435,"åŁ":12436,"ç¼":12437,"éħ":12438,"ĠPublic":12439,"019":12440,"ĠAlbum":12441,"centerinsights":12442,"singleton":12443,"ĠSpace":12444,"è½¬":12445,")['":12446,".'":12447,">*/":12448,"Ed":12449,"Hi":12450,"SB":12451,"jlas":12452,"pCn":12453,"sjd":12454,"icular":12455,"Ġ\"%":12456,"los":12457,"cho":12458,"Ġextract":12459,"strong":12460,"Ance":12461,"750":12462,"Ġalks":12463,"achable":12464,"774":12465,"ARB":12466,"priate":12467,"559":12468,"GoogleCloudPrivate":12469,"AAA":12470,"jsfd":12471,"ĠAssert":12472,"Reports":12473,"Ġlakjlas":12474,"Ġlaksjd":12475,"Ġlakjsfd":12476,"æĸ¹æ³ķ":12477,"jfdlk":12478,"Ġlaskjdf":12479,"Ġlaskjfdlk":12480,"uyen":12481,"Ġalksjfd":12482,"GoogleCloudPrivatecatalog":12483,"Ġlakjlasd":12484,"Pod":12485,"Piece":12486,"]!;":12487,"ìļ":12488,"ara":12489,"),_":12490,"ĠCre":12491,"ĠgetIt":12492,"which":12493,"initWith":12494,"keleton":12495,"GoogleIamV":12496,"657":12497,"ScrollExtent":12498,"Ġauthorization":12499,"replaceFirst":12500,"ndGg":12501,"instances":12502,"Ġcontrols":12503,"ĠWidgetsFlutterBinding":12504,"Ax":12505,"Nh":12506,"ior":12507,"tur":12508,"}${":12509,"Ġut":12510,"iders":12511,"Ġpower":12512,"Ġsn":12513,"Ġstreet":12514,"ĠFit":12515,"ĠFace":12516,"ĠMultipart":12517,"ĠPin":12518,"mouth":12519,"UserList":12520,"ImageProvider":12521,"ĠerrorText":12522,"encil":12523,"ystick":12524,"commands":12525,"AndRemove":12526,"Compan":12527,"ĠNews":12528,"ĠmaybeMap":12529,"ĠforegroundColor":12530,"ĠshrineProduct":12531,"ĠBehaviorSubject":12532,"BC":12533,"CATE":12534,"bill":12535,"elevation":12536,"ku":12537,"nn":12538,"éĺ":12539,"separated":12540,"ĠTw":12541,"Ġdt":12542,"ĠFore":12543,"Resume":12544,"Ġhalf":12545,"ĠInc":12546,"288":12547,"651":12548,"Contactcenterinsights":12549,"Ġaccounts":12550,"dXJuIH":12551,"ErrorsIn":12552,"OFTW":12553,"heduling":12554,"Millis":12555,"Eh":12556,"Ear":12557,"PY":12558,"Py":12559,"hu":12560,"rol":12561,"Ġslivers":12562,"Ġstrict":12563,"']));":12564,"ĠThese":12565,"Ġannotations":12566,"reddit":12567,"ĠHook":12568,"759":12569,"502":12570,"Screens":12571,"295":12572,"687":12573,"ĠGenerator":12574,"ĠLoginPage":12575,"Ġeditor":12576,"Ġpurchase":12577,"ĠVerify":12578,"ĠFhirUri":12579,"ContactcenterinsightsV":12580,"Cut":12581,"arc":12582,"declaration":12583,"istr":12584,"ĠRel":12585,"ĠRecipe":12586,"ĠDebug":12587,"backup":12588,"Urls":12589,"685":12590,"Ġ900":12591,"HomeScreen":12592,"CardState":12593,"Ġserbia":12594,"Ġtele":12595,"547":12596,"runner":12597,"ĠGenerate":12598,"MEd":12599,"Executable":12600,"ĠNeumorphic":12601,"¾ç¤º":12602,"Ġcorrectly":12603,"Install":12604,"ĠVerification":12605,"ĠmaybeWhen":12606,"ĠDetails":12607,"ĠPopupMenuItem":12608,"OTTOM":12609,"Est":12610,"Employee":12611,"Io":12612,"vp":12613,"unities":12614,"scene":12615,"most":12616,"ĠGr":12617,"ĠUrl":12618,"Ansi":12619,"ĠHex":12620,"TEGER":12621,"770":12622,"353":12623,"Linked":12624,"CacheState":12625,"ESSAGE":12626,"jdGlvbihhLG":12627,"Ezsign":12628,"OFTWARE":12629,".\";":12630,"Needed":12631,"daily":12632,"maybe":12633,"getData":12634,"Ġos":12635,"ĠMet":12636,"rending":12637,"Ġhit":12638,"ĠStu":12639,"357":12640,"Ġlogging":12641,"Ġcharts":12642,"ĠBRACKET":12643,"311":12644,"Humidity":12645,"UST":12646,"Vl":12647,"yr":12648,"inance":12649,"ĠSave":12650,"Ġnor":12651,"ĠRight":12652,">>?":12653,"rappe":12654,"Ð°Ñİ":12655,"406":12656,"Ġactiv":12657,"ABILITY":12658,"Ġworks":12659,"æĺ¾ç¤º":12660,"ZSx":12661,"UiOverlayStyle":12662,"Ġpeople":12663,"âĢĶâĢĶ":12664,"åŀĭ":12665,"NA":12666,"Put":12667,"rg":12668,"Ġ::":12669,"Ġcodes":12670,"696":12671,"Filters":12672,"descriptionElement":12673,"çĶŁ":12674,"ĠTimestamp":12675,"DragEnd":12676,"ilerplate":12677,"stitution":12678,"Features":12679,"DELETE":12680,"219":12681,"Wheel":12682,"jm":12683,"machine":12684,"ToBoxAdapter":12685,"387":12686,"Thumbnail":12687,"Club":12688,"898":12689,"Ġphase":12690,"uxemb":12691,"drawPath":12692,"KCJ":12693,"Ġmedium":12694,"ĠWindows":12695,"ĠBandData":12696,"ele":12697,"pot":12698,"Ġsun":12699,"Ġ148":12700,"Repeat":12701,"pector":12702,"ServicePer":12703,"776":12704,"706":12705,"ãģ«":12706,"ĠurlElement":12707,"ĠsearchTag":12708,"swap":12709,"PostCode":12710,"Ġposts":12711,"ĠrenderObject":12712,"Crypto":12713,"iliate":12714,"Ġfinish":12715,"ĠGitHub":12716,"ĠBouncingScrollPhysics":12717,"ĠIndicates":12718,"ErrorsInCode":12719,".\"":12720,"025":12721,"Ay":12722,"sible":12723,"stderr":12724,"leting":12725,"ĠSide":12726,"Ġintrod":12727,"Deep":12728,"000001":12729,"shift":12730,"649":12731,"queryParameters":12732,"Ġalpha":12733,"ĠsearchContent":12734,"emailAddress":12735,"ĠLogicalKeyboardKey":12736,"modal":12737,"ĠYaml":12738,"TestScriptRule":12739,"?;":12740,"HL":12741,"Old":12742,"Ġí":12743,"devices":12744,"adapter":12745,"()['":12746,"aming":12747,"Ġtakes":12748,"Ġcoordinates":12749,"shown":12750,"ĠLight":12751,"))'):":12752,"usecases":12753,"342":12754,"297":12755,"dian":12756,"Ġoverrides":12757,"Ð»Ð°Ð²":12758,"bottomLeft":12759,"posure":12760,"FIX":12761,"install":12762,"Instances":12763,"AUkaAUkaAUkaAUkaAUkaAUkaAUkaAUkaAUkaAUkaAUkaAUkaAUkaAUkaAUkaAUkaAUkaAUkaAUkaAUkaAUkaAUkaAUkaAUkaAUkaAUkaAUkaAUkaAUkaAUkaAUkaAUka":12764,"310":12765,"Fz":12766,"suffix":12767,"iggers":12768,"Ġdial":12769,"packageName":12770,"anton":12771,"506":12772,"ORY":12773,"556":12774,"ĠfieldName":12775,"grees":12776,"276":12777,"ĠsearchProfile":12778,"ĠsearchSecurity":12779,"ĠsearchLastUpdated":12780,"RenderBox":12781,"ĉĉĉĉĉĉ":12782,"GeneratedUnknown":12783,"ĠSliverChild":12784,"cells":12785,"ĠConstraint":12786,"GestureRecognizer":12787,"BASE":12788,"aggerGeneratedUnknown":12789,"ĠSerializer":12790,"effective":12791,"minder":12792,",'":12793,"CJ":12794,"xv":12795,"ĠÑ":12796,"regex":12797,"entr":12798,"ternative":12799,"Ġ///@":12800,"Ġchapter":12801,"Present":12802,"TEST":12803,"669":12804,"788":12805,"LLL":12806,"completer":12807,"Special":12808,"Cape":12809,"Don":12810,"FS":12811,"Fence":12812,"VR":12813,"lator":12814,"ley":12815,"ĠScope":12816,"Ġwire":12817,"ĠPR":12818,"DataProvider":12819,"ĠDat":12820,"0000000":12821,"Anonymous":12822,"ĠinitialRoute":12823,"URI":12824,"ĠAnimationStatus":12825,"ByteAligned":12826,"ĠBuilderInfo":12827,"ĠTooltip":12828,"Entities":12829,"ĠModalRoute":12830,"Daily":12831,"Ipe":12832,"Mz":12833,"gression":12834,"kc":12835,"leading":12836,"Ġ{\\":12837,"deprecated":12838,"ĠpublicKey":12839,"Ġ\"../../":12840,"cost":12841,"moon":12842,"ogram":12843,"EventToState":12844,"locked":12845,"TEC":12846,"226":12847,"ĠGetPage":12848,"::@":12849,"monitor":12850,"Ġcontacts":12851,"ĠMarker":12852,"MillisecondsSinceEpoch":12853,"UrlRequestParams":12854,">()));":12855,"EdgeInsets":12856,"WITH":12857,"bal":12858,"ii":12859,"reamed":12860,"Ġ\");":12861,"ĠisActive":12862,"tesian":12863,"IGIT":12864,"SCRI":12865,"ĠComm":12866,"ambient":12867,"ĠParameters":12868,"ĠMoney":12869,"ĠHelper":12870,"Ġfront":12871,"BRE":12872,"Broadcast":12873,"Fw":12874,"UInt":12875,"VO":12876,"Ġadding":12877,"onom":12878,"require":12879,"anonymous":12880,"overflow":12881,"Ġtiming":12882,"ĠgetUser":12883,"Ġdep":12884,"reduce":12885,"Ġwhose":12886,"Ġlists":12887,"startDate":12888,"ĠapiKey":12889,"Ġ])),":12890,"Toolbar":12891,"ĠBoard":12892,"QQQ":12893,"VALUE":12894,"åºĶ":12895,"Ġstructure":12896,"Cast":12897,"Frequency":12898,"Mer":12899,"kK":12900,"sized":12901,"vr":12902,"ç¡":12903,"ati":12904,"trop":12905,"Ġdili":12906,"Ġaff":12907,"overview":12908,"overnor":12909,"ĠisIn":12910,"Ġ240":12911,"scy":12912,"ĠNon":12913,"ixj":12914,">(()":12915,"logic":12916,"797":12917,"prepare":12918,"786":12919,"408":12920,"signup":12921,"modular":12922,"åıĺ":12923,"SimpleTokenType":12924,"Execute":12925,"ExtraLight":12926,"Ġpercentage":12927,"Avoid":12928,"Called":12929,"DESC":12930,"mid":12931,"uped":12932,"ĠMapping":12933,"flame":12934,"ĠjsonMap":12935,"296":12936,"commended":12937,"Ð»Ñİ":12938,"modified":12939,"Ġ2013":12940,"Ġdefines":12941,"FrameCallback":12942,"retVal":12943,"Correct":12944,"Ġaround":12945,"Ġappropriate":12946,"FORMATS":12947,"Band":12948,"Mat":12949,"Sun":12950,"VIE":12951,"cies":12952,"pref":12953,"ĠÑĩ":12954,"sequ":12955,"Ġreload":12956,"console":12957,"vertex":12958,"addPost":12959,"ĠBatch":12960,"Namespace":12961,"fromMillisecondsSinceEpoch":12962,"Ġseq":12963,"mapMap":12964,"142":12965,"ĠmethodName":12966,"Ġattach":12967,"THOD":12968,"456":12969,"aws":12970,"à¤¨":12971,"Offer":12972,"ç»ĵ":12973,"QQQQ":12974,"Ġarc":12975,"Ġpanel":12976,")\\":12977,"lu":12978,"xd":12979,"Ø¬":12980,"æ»":12981,"è£":12982,"ĠQU":12983,"Ġclosing":12984,"ĠSOFTWARE":12985,"Ġet":12986,"ĠTABLE":12987,"ĠOTHER":12988,"121":12989,"380":12990,"386":12991,"607":12992,"489":12993,"Checks":12994,"versations":12995,"Steps":12996,"Ġexpand":12997,"Boundary":12998,"Languages":12999,"ĠModule":13000,"Locked":13001,"MINUS":13002,"WEEKDAYS":13003,"å¦Ĥæŀľ":13004,"olerance":13005,"FE":13006,"Fun":13007,"Montserrat":13008,"XR":13009,"cmd":13010,"hot":13011,"erv":13012,"ini":13013,"isA":13014,"isDark":13015,"ĠSuccess":13016,"uel":13017,"ĠChild":13018,"Conv":13019,"ĠMIT":13020,"ĠLINE":13021,"indent":13022,"Views":13023,"257":13024,"fied":13025,"Ġ''';":13026,"ZWxz":13027,"å®ŀ":13028,"validateMode":13029,"ĠGeneric":13030,"Tools":13031,"Ġsteps":13032,"referredSize":13033,"Om":13034,"Pipe":13035,"TOP":13036,"Ġ'*":13037,"ican":13038,"Ġpow":13039,"Ġelem":13040,"Intrinsic":13041,"ĠPrimary":13042,"userData":13043,"Unable":13044,"arest":13045,"TestIamPermission":13046,"spacing":13047,"340":13048,"Ġsubscriptions":13049,"IsWeb":13050,"488":13051,"localized":13052,"mocks":13053,"cussion":13054,"UrlResponseInfo":13055,"?'":13056,"Ban":13057,"NING":13058,"çŁ¥":13059,"Ġremaining":13060,"Ġinstruction":13061,"ĠMore":13062,"ĠAg":13063,"Ġtweet":13064,"andbox":13065,"ElementImpl":13066,"vided":13067,"AlignmentInt":13068,"iving":13069,"754":13070,"000000000":13071,">>.":13072,"pressed":13073,"447":13074,"\":\"\",\"":13075,"ĠshowError":13076,"787":13077,"Ð¾Ñĩ":13078,"Ð½Ð¸":13079,"popular":13080,"TargetSize":13081,"ĠfullName":13082,"Designation":13083,"Ġregistry":13084,"ufact":13085,"é¡µéĿ¢":13086,"phabet":13087,"ĠFoundation":13088,"dividual":13089,"IK":13090,"ligh":13091,"çľ":13092,"ently":13093,"icted":13094,"unread":13095,"rites":13096,"ĠEDIT":13097,"Ġdetermine":13098,"aginated":13099,"ĠInst":13100,"Extend":13101,"InputField":13102,"requests":13103,"ĠminLength":13104,"tokens":13105,"Ġparticular":13106,"Ġlanguages":13107,"WidgetDjType":13108,"(\\":13109,"Bal":13110,"BorderRadius":13111,"Fy":13112,"SQL":13113,"WV":13114,"Way":13115,"uar":13116,"ytes":13117,"Ġround":13118,"Ġquality":13119,"Ġrepeat":13120,"Ġsafe":13121,"ĠCell":13122,"orts":13123,"Ġ130":13124,"abor":13125,"Ġmakes":13126,"Ġtoday":13127,"Ġtween":13128,"ecture":13129,"ĠjsonData":13130,"Expense":13131,"243":13132,"Heart":13133,"796":13134,"554":13135,"Ġshows":13136,"ĠcurrentPage":13137,"Ġinstanti":13138,"ĠÐ½Ð°":13139,"hintText":13140,"å·²":13141,"Speech":13142,"DM":13143,"Der":13144,"Huyen":13145,"Sal":13146,"]'":13147,"was":13148,"stri":13149,"ola":13150,"dec":13151,"Ġreported":13152,"istant":13153,"Ġdie":13154,"ĠFrame":13155,"ĠMusic":13156,"ĠĠĠĠĠĠĠĠĠĠĠĠĠĠĠĠĠĠĠĠĠĠĠĠĠĠĠĠĠĠĠĠĠĠĠĠĠĠĠĠĠĠĠĠĠĠĠĠĠĠĠĠĠĠĠĠĠĠĠĠĠĠĠĠĠĠĠĠĠĠĠĠĠ":13157,"oman":13158,"Ġsegment":13159,"182":13160,"ĠCount":13161,"casted":13162,"Verified":13163,"Ġbackend":13164,"cedence":13165,"éĩı":13166,"ĠBlue":13167,"æ³¨":13168,"ustry":13169,"uxembour":13170,"overnorate":13171,",)":13172,"Pagination":13173,"Same":13174,"TL":13175,"bk":13176,"ĠCour":13177,"coordinate":13178,"Standard":13179,"ĠFeature":13180,"Ġincrement":13181,"velocity":13182,"Ġtick":13183,"IconColor":13184,"Shipping":13185,"656":13186,"Ġ4035":13187,"ĠinitialData":13188,"Ġinitializer":13189,"ĠsearchId":13190,"xea":13191,"ĠDataCell":13192,"ĠWebSocket":13193,"ìĿ´":13194,"Mute":13195,"Wifi":13196,"fX":13197,"oa":13198,"ĠSto":13199,"ĠTO":13200,"urnal":13201,"ceed":13202,"ĠĠĠĠĠĠĠĠĠĠĠĠĠĠĠĠĠĠĠĠĠĠĠĠĠĠĠĠĠĠĠĠĠĠĠĠĠĠĠĠĠĠĠĠĠĠĠĠĠĠĠĠĠĠĠĠĠĠĠĠĠĠĠĠĠĠĠĠĠĠĠ":13203,"TextFormField":13204,"cluster":13205,"dismiss":13206,"ãģĭ":13207,"Performance":13208,"397":13209,"There":13210,"ĠdateElement":13211,"ĠTimeOfDay":13212,"åħ¨":13213,"FIR":13214,"Ġtiles":13215,"ç©º":13216,"Cycle":13217,"Ġclock":13218,"Ġcredential":13219,"()}');":13220,"Console":13221,"serted":13222,"ĠonWillPop":13223,"ĠNULL":13224,"Ġidx":13225,"ĠRegist":13226,"AddAll":13227,"ĠbuildCounterGoogleCloudRetailV":13228,"Ġmodels":13229,"themeData":13230,"åıĤ":13231,"Ġinstall":13232,"rectangle":13233,"Ġlonger":13234,"landscape":13235,"DEFAULT":13236,"ievement":13237,"!\",":13238,"Talent":13239,"credentials":13240,"æ¨":13241,"olt":13242,"ctype":13243,"ofill":13244,"Ġproper":13245,"152":13246,"__\":":13247,"subtract":13248,"ĠAnt":13249,"ĠimagePath":13250,"DeviceInfo":13251,"ĠSection":13252,"458":13253,"Refactoring":13254,"Ð°Ðº":13255,"Returns":13256,"Trip":13257,"structure":13258,")+":13259,"Clipboard":13260,"Mag":13261,"Sup":13262,"XY":13263,"pu":13264,"vin":13265,"three":13266,"itizer":13267,">>('":13268,"writeAsStringSync":13269,"ĠCharacter":13270,"Compensation":13271,"market":13272,"ãĥĪ":13273,"buildCounterGoogleCloudApigeeV":13274,"Relative":13275,"Ġpopup":13276,"wrapper":13277,"ApYwApYwApYwApYw":13278,"ĠshouldRepaint":13279,":_":13280,"clipboard":13281,"nuniform":13282,"rup":13283,"ÄŁ":13284,"inja":13285,"thumbnail":13286,"Ġpublish":13287,"Require":13288,"flush":13289,"english":13290,"Ġ(__":13291,"Upgrade":13292,"viewport":13293,"Ġignored":13294,"2222":13295,"Filtered":13296,"Ġ''',":13297,"UNKNOWN":13298,"Slice":13299,"BottomBar":13300,"Ġready":13301,"tempts":13302,"received":13303,"Ġwritten":13304,"ĠexitCode":13305,"Ġbelong":13306,"ĠConverts":13307,"ChlBChlBChlBChlB":13308,"\\':$":13309,"AndRemoveUntil":13310,"NC":13311,"WORD":13312,"jud":13313,"lon":13314,"inline":13315,"Ġ'%":13316,"dependency":13317,"Ġbad":13318,"Ġ350":13319,"Ġ360":13320,"Ġalgorithm":13321,"ĠiconTheme":13322,"transport":13323,"808":13324,"DialogState":13325,"xeme":13326,"website":13327,"firebaseAuth":13328,"NonNull":13329,"éĹ®":13330,"DropDown":13331,"æ¡Ĩ":13332,"major":13333,"Equatable":13334,"Sm":13335,"tb":13336,"injectable":13337,"addByte":13338,"ancestor":13339,"ĠsharedPreferences":13340,"ĠRelease":13341,"UserModel":13342,"284":13343,"ĠiconColor":13344,"TargetPlatform":13345,"LOW":13346,"Ð°Ð¼":13347,"Finite":13348,"Ġterminal":13349,"Ġcookie":13350,"addPostFrameCallback":13351,"NEXT":13352,"PV":13353,"your":13354,"Ġ))),":13355,"Ġfa":13356,"Ġsending":13357,"Ġconflict":13358,"ammouth":13359,"resize":13360,"ĠFlag":13361,"endant":13362,"ombre":13363,"Ġ43":13364,"logs":13365,"SubTopic":13366,"ForTesting":13367,"bGw":13368,"Ġcollect":13369,")/":13370,"cnV":13371,"dao":13372,"Ġqual":13373,"acion":13374,"Repl":13375,"pokemon":13376,"tedBox":13377,"ĠvalueColor":13378,"))));":13379,"203":13380,"ĠReview":13381,"252":13382,"Ġalong":13383,"Ġinitialization":13384,"facebook":13385,"BodyBytes":13386,"à¤¿":13387,"CLASS":13388,"andidates":13389,"ĠMove":13390,"ĠLayoutBuilder":13391,"atisfied":13392,"ĠConnectivity":13393,"Ð»Ð°Ð²Ð½Ð°Ñı":13394,"Por":13395,"TypeEnum":13396,"ToMap":13397,"omial":13398,"reducer":13399,"153":13400,"Thread":13401,"StartTime":13402,"poster":13403,"swid":13404,"ĠmatchTextDirection":13405,"UTF":13406,"ĠParam":13407,"Ġadapter":13408,"started":13409,"ĠshadowColor":13410,"Ġcharacteristic":13411,"éĩį":13412,"ĠseparatorBuilder":13413,"æıĲ":13414,"folio":13415,"Vehicle":13416,"dice":13417,"sIn":13418,"inux":13419,"getCurrent":13420,"ĠStory":13421,"Ġgrade":13422,"StyleSet":13423,"Ġcreates":13424,"INFO":13425,"Thumb":13426,"859":13427,"267":13428,"whereString":13429,"jdGlvbiB":13430,"RawJson":13431,"itTestBehavior":13432,"Complexity":13433,"Ġdigit":13434,"CREATE":13435,"Bad":13436,"Hot":13437,"Jy":13438,"]]":13439,"æ²":13440,"ê¸":13441,"Ġfloating":13442,"Ġrecipe":13443,"Ġcoordinate":13444,"ĠOct":13445,"Indexed":13446,"805":13447,"ragments":13448,"dbDate":13449,"painter":13450,"ĠConstruct":13451,"Ġhandling":13452,"RWxl":13453,"dee":13454,"acted":13455,"cookie":13456,"setValue":13457,"itel":13458,"Ġ41":13459,"ANA":13460,"457":13461,"à¸±":13462,"earby":13463,"ĠJsonUtils":13464,"Ġprocessing":13465,"Ġexecutable":13466,"ĠSliverToBoxAdapter":13467,"MoveEvent":13468,"à¹ī":13469,"Ġsuggestions":13470,"celerator":13471,"fessor":13472,"BG":13473,"BAR":13474,"Polygon":13475,"Sat":13476,"iam":13477,"inity":13478,"invoice":13479,"elapsed":13480,"':'":13481,"ubGVuZ":13482,"ĠPER":13483,"Ġdes":13484,"orem":13485,"ĠHEAD":13486,"opper":13487,"Unsupported":13488,"ãģį":13489,"ĠFileSystem":13490,"Ġissues":13491,"ĠcrossAxisSpacing":13492,"CalculateResult":13493,"(?:":13494,"Dr":13495,"Java":13496,"Wave":13497,"average":13498,"dm":13499,"fp":13500,"lg":13501,"lng":13502,"stock":13503,"isk":13504,"Ġvote":13505,"textAlign":13506,"ĠPur":13507,"See":13508,"Ġ`^":13509,"SearchDate":13510,"groupId":13511,"ĠanyNamed":13512,"House":13513,"ĠYour":13514,"Ġfilters":13515,"BytesHomogeneousInt":13516,"ĠAnimatedBuilder":13517,"STRING":13518,"Watcher":13519,"ĠClients":13520,"Crash":13521,"picked":13522,"Ġperformance":13523,"Blob":13524,"HD":13525,"Night":13526,"RS":13527,"dj":13528,"dating":13529,"hw":13530,"ĠåĪ":13531,"itive":13532,"ando":13533,"imen":13534,"ĠEasy":13535,"DataType":13536,"ĠDOM":13537,"moval":13538,"Existing":13539,"993":13540,"ĠcallMethod":13541,"generation":13542,"Ġcommands":13543,"azz":13544,"versions":13545,"Ð¾Ð±":13546,"ĠSubscription":13547,"ĠPhD":13548,"æĿ¥":13549,"jumpTo":13550,"ĠmainAxisSpacing":13551,"surface":13552,"uis":13553,"inactive":13554,"Ġmis":13555,"Confirmed":13556,"ayers":13557,"Ġcos":13558,"Maps":13559,"eneration":13560,"Ġproblem":13561,"ĠReport":13562,"347":13563,"690":13564,"ReferenceCopyWith":13565,"Executor":13566,"YgNode":13567,"Ġfeedback":13568,"Airlines":13569,"éĴ®":13570,"-${":13571,"Caption":13572,"Ql":13573,"cv":13574,"emp":13575,"nested":13576,"rd":13577,"zw":13578,"Ġconsole":13579,"quot":13580,"ynomial":13581,"ĠAS":13582,"Ġsubunit":13583,"fee":13584,"Ġnumeric":13585,"EMENT":13586,"OPEN":13587,"unito":13588,"bGVtZW":13589,"CodeableConceptCopyWith":13590,"ĠcompareTo":13591,"ĠDesign":13592,"Stores":13593,"ĠByteData":13594,"ssibly":13595,"Ao":13596,"ansit":13597,"ille":13598,"Ġthread":13599,"ĠSort":13600,"ĠCAM":13601,"Ġunspecified":13602,"pbm":13603,"ButtonText":13604,"552":13605,"ANCE":13606,"IsYy":13607,"cesses":13608,"EditingValue":13609,"Ġ'\\$":13610,"Definitions":13611,"steps":13612,"è§Ĩ":13613,"ĠActivity":13614,"References":13615,"LazySingleton":13616,"ĠEngine":13617,"Ġhappen":13618,">=":13619,"Central":13620,"VU":13621,"]!.":13622,"fy":13623,"pip":13624,"pkg":13625,"Ã½":13626,"ĠØ§ÙĦ":13627,"erc":13628,"Ġregex":13629,"Ġrecipient":13630,"ĠSample":13631,"Recovery":13632,"SharedPreferences":13633,"Parsed":13634,"640":13635,"990":13636,"ĠWrite":13637,"ANY":13638,"callMethod":13639,"909":13640,"à¤®":13641,"ĠPageView":13642,"ConnectionState":13643,"åĬŁ":13644,"Ġslide":13645,"Canonical":13646,"JsObject":13647,"ĠMarkdown":13648,"Ã³n":13649,"ç»Ħä»¶":13650,"ARGUMENT":13651,"Ancestor":13652,"Governorate":13653,"Wrong":13654,"mal":13655,"using":13656,"Ġmicro":13657,"resolver":13658,"Expect":13659,"(__":13660,"Ġ66":13661,"181":13662,"spital":13663,"ĠScale":13664,"ĠÐ³":13665,"readAsStringSync":13666,"459":13667,"TabController":13668,"inputs":13669,"Imply":13670,"Ġquote":13671,"Ġrectangle":13672,"ëĭ¤":13673,"ĠWillPop":13674,"Cat":13675,"dto":13676,"ees":13677,"Invo":13678,"Ġti":13679,"ocal":13680,"Ġresolution":13681,"AppTheme":13682,"ARI":13683,"Ġ1234":13684,"EEA":13685,"underline":13686,"DragStart":13687,"aaaa":13688,"controls":13689,"OperationsResponse":13690,"Datas":13691,"Sint":13692,"ìł":13693,"stu":13694,"Ġcm":13695,"des":13696,"Ġrepeated":13697,"Ġpw":13698,"ĠTown":13699,"Ġstderr":13700,"ĠEach":13701,"ĠBE":13702,"Ġgot":13703,"userID":13704,"Ġanimated":13705,"ĠlistOf":13706,"ãģ¦":13707,"InstanceOf":13708,"ĠpageController":13709,"decodeBodyBytes":13710,"Physical":13711,"UNG":13712,"Ð¾Ð³":13713,"Recording":13714,"ByteData":13715,"Ġbackup":13716,"Execution":13717,"Ġfooter":13718,"ĠInitialize":13719,"StoppedAnimation":13720,"Golden":13721,"ILm":13722,"tf":13723,"wu":13724,"}')":13725,"ĠTextTheme":13726,"ĠBackground":13727,"usercontent":13728,"Ġheading":13729,"Bezier":13730,"ĠscreenHeight":13731,"Ġabsolute":13732,"ĠLoginScreen":13733,"Guard":13734,"ĠQR":13735,"Favorites":13736,"éľĢè¦ģ":13737,"828":13738,"Machine":13739,"UG":13740,"candle":13741,"mak":13742,"atom":13743,"ani":13744,"ulated":13745,"InApp":13746,"Ġdatas":13747,"Ġinform":13748,"Ġhy":13749,"ĠstaticElement":13750,"Ġdismiss":13751,"maximum":13752,"Ġlogo":13753,"376":13754,"ĠclientId":13755,"DelegateWith":13756,"Ġworkspace":13757,"stacked":13758,"ĠNameNode":13759,"ĠTemp":13760,"00189":13761,"NavBar":13762,"aggered":13763,"navigateTo":13764,"ĠAlwaysStoppedAnimation":13765,"ĠsoftWrap":13766,"NG":13767,"VG":13768,"ratio":13769,"station":13770,"mentType":13771,"heading":13772,"omb":13773,"ĠNum":13774,"Times":13775,"Ġ84":13776,"ĠProd":13777,"ĠcheckList":13778,"ĠcheckException":13779,"actionInfo":13780,"osen":13781,"functionType":13782,"ĠTrue":13783,"alyzed":13784,"AccessLevel":13785,"Cached":13786,"957":13787,"PWE":13788,"ReleaseFfiHandle":13789,"ĠWorkout":13790,"åĬ¨çĶ»":13791,"Ġlegacy":13792,"0000000000000000000000000000000000000000000000000000000000000000000000000000000000000000000000000000000000000000000000000000000000000000000000000000000000000000000000000000000000000000000000000000000000000000000000000000000000000000000000000000000000000000":13793,"Eat":13794,"fork":13795,"qs":13796,"itch":13797,"Ġfee":13798,"servers":13799,"ByTag":13800,"Ġdataset":13801,"302":13802,"303":13803,"readAsString":13804,"Buy":13805,"________":13806,"ĠDownload":13807,"'|'":13808,"469":13809,"BOTTOM":13810,"Css":13811,"DP":13812,"Txt":13813,"oe":13814,"Ġ].":13815,"Ġ([":13816,"ĠTry":13817,"charge":13818,"Exchange":13819,"Meeting":13820,"Transport":13821,"Ġtex":13822,"Ġanything":13823,"ĠCustomScrollView":13824,"BytesHomogeneousDouble":13825,"Cancelled":13826,"Trivia":13827,"à¹Ī":13828,"Ġsuggestion":13829,"ĠCrypto":13830,"çĻ»å½ķ":13831,"ĠWillPopScope":13832,"Fk":13833,"Jv":13834,"Mut":13835,"Vk":13836,"bX":13837,"lab":13838,"declarations":13839,"untokenize":13840,"cook":13841,"imports":13842,"addr":13843,"KeyPair":13844,"Ġprop":13845,"242":13846,"665":13847,"ãģ¾":13848,"496":13849,"nextDouble":13850,"ĠversionElement":13851,"registration":13852,"Greater":13853,"Just":13854,"snackbar":13855,"Ġutils":13856,"onClick":13857,"Ġface":13858,"Ġthumbnail":13859,"ĠSuper":13860,"0014":13861,"ĠTickerProviderStateMixin":13862,"ĠPass":13863,"ĠEvaluation":13864,"Ġhook":13865,"Ġextent":13866,"ĠvalueElement":13867,"BoxShadow":13868,"fieldID":13869,"uffers":13870,"ĠkDefault":13871,"missing":13872,"BytesInlineArray":13873,"807":13874,"ĠGetIt":13875,"privateKey":13876,"Ġautoc":13877,"ĠIsolate":13878,"Ġagainst":13879,"Ġpressure":13880,"Ġdigits":13881,"UpliftEle":13882,"åĨħå®¹":13883,"TECNO":13884,"?\",":13885,"Ball":13886,"FD":13887,"GDateTime":13888,"Publish":13889,"Shell":13890,"^{":13891,"hard":13892,"sZ":13893,"reload":13894,"anime":13895,"ateway":13896,"ĠFL":13897,"ĠonClick":13898,"Ġnews":13899,"corated":13900,"162":13901,"Ġ1024":13902,"Assessment":13903,"viewer":13904,"Ġ>('":13905,"bean":13906,"gregate":13907,"AccountData":13908,"ĠstatusBar":13909,"Ð¸Ð»":13910,"ĠPeriod":13911,"songs":13912,"eXBlPX":13913,"onboarding":13914,"ingContext":13915,"isCompleted":13916,"Ġresearch":13917,"ĠSpan":13918,"Ġpdf":13919,"ĠTri":13920,"Study":13921,"upper":13922,"Ġconstants":13923,"ĠPolicy":13924,"ĠgetProportionateScreen":13925,"Alt":13926,"ĠGL":13927,"udo":13928,"updateTime":13929,"Ġchecks":13930,"444":13931,"Globals":13932,"ĠLinked":13933,"periodic":13934,"Ġ\"\"\"<":13935,"ĠNgSimpleTokenType":13936,"Hold":13937,"Simul":13938,"Wall":13939,"every":13940,"km":13941,"ulse":13942,"Ġsite":13943,"activ":13944,"valueOf":13945,"Ġ51":13946,"conditions":13947,"varName":13948,"ĠcanLaunch":13949,"ainty":13950,"requestId":13951,"defaults":13952,"booking":13953,"SDK":13954,"ccup":13955,"ĠUpdates":13956,"visitor":13957,"é¢ľ":13958,"ĠGoogleCloudContactcenterinsightsV":13959,"ShkBShkBShkBShkBShkBShkBShkBShkBShkBShkBShkBShkBShkBShkBShkBShkBShkBShkBShkBShkBShkBShkBShkBShkBShkBShkBShkBShkBShkBShkBShkBShkBShkBShkBShkBShkBShkBShkBShkBShkBShkBShkBShkBShkBShkBShkBShkBShkBShkBShkBShkBShkBShkBShkBShkBShkBShkBShkBShkBShkBShkBShkBShkBShkB":13960,"BQ":13961,"NON":13962,"Persist":13963,"aque":13964,"fhir":13965,"ionError":13966,"Ġfriend":13967,"ulation":13968,"Retry":13969,"Reward":13970,"ĠPs":13971,"ĠBinary":13972,"Ġextr":13973,"namespace":13974,"ĠnewState":13975,"Ġseparate":13976,"codes":13977,"codeUnit":13978,"773":13979,"680":13980,"Ġ72":13981,"ä¸»":13982,"273":13983,"ISteam":13984,"DefaultValues":13985,"ByteInt":13986,"DragUpdate":13987,"Ġmarkers":13988,"ZSB":13989,"STATUS":13990,"æĮīéĴ®":13991,",_":13992,"Dimens":13993,"hair":13994,"mute":13995,"ĠQueue":13996,"Ĭ¶":13997,"Ġ'(":13998,"Ġshell":13999,"verified":14000,"Condensed":14001,"ĠFa":14002,"ĠBO":14003,"ollar":14004,"ague":14005,"Continue":14006,"806":14007,"ĠMyColors":14008,"tables":14009,"äºº":14010,"Ġplatforms":14011,"Ġdistrib":14012,"ä¹ī":14013,"================================":14014,"ICAgICAgICAgICAg":14015,"Lesson":14016,"æĥħ":14017,"ImplyLeading":14018,"pp":14019,"isOn":14020,"atel":14021,"Ġpicture":14022,"Station":14023,"aya":14024,"ĠonCancel":14025,"ĠtextBaseline":14026,"needs":14027,"752":14028,"uched":14029,"292":14030,"ĠappState":14031,"writeMarker":14032,"LEFT":14033,"Ġformatter":14034,"MenuButton":14035,"HTTP":14036,"ĠAdds":14037,"Capability":14038,"agnosis":14039,"dCxz":14040,"æĹ¶éĹ´":14041,"ĠFILE":14042,"mbedded":14043,"è·¯":14044,"ĠRETURN":14045,">\"\"\",":14046,"sig":14047,"zer":14048,"Ø®":14049,"erp":14050,"Ġbi":14051,"hest":14052,"Conflict":14053,"Coordinate":14054,"MapEntry":14055,"253":14056,"Ġparagraph":14057,"ĠtypeName":14058,"ĠPointerMoveEvent":14059,"262":14060,"Ġunderlying":14061,"ĠCurve":14062,"ĠGeneral":14063,"Ġmanifest":14064,"ĠgridDelegate":14065,"Ġgravity":14066,"Formatters":14067,"weekday":14068,"+\"":14069,"Nr":14070,"Oj":14071,"ctrl":14072,"district":14073,"iants":14074,"iPad":14075,"sil":14076,"Ãµ":14077,"éģ":14078,"Ġmachine":14079,"quip":14080,"shader":14081,"ĠHY":14082,"ICATION":14083,"794":14084,"PARAM":14085,"ecapeVariableReserved":14086,"/',":14087,"569":14088,"966":14089,"EI":14090,"LX":14091,"PASS":14092,"yMMMM":14093,"è¨":14094,"isions":14095,"ĠClose":14096,"StateCopyWithImpl":14097,"Ġgets":14098,"ĠDimensions":14099,"323":14100,"continue":14101,"Ġ69":14102,"'''],":14103,"FromStart":14104,"494":14105,"vironments":14106,"rooms":14107,"Bluetooth":14108,"Ġreplacement":14109,"jk":14110,"ratic":14111,"sch":14112,"ÈĽ":14113,"reat":14114,"seat":14115,"travel":14116,"asing":14117,"Ġemoji":14118,"Ġepisode":14119,"Recent":14120,"anda":14121,"Ġshall":14122,"------------":14123,"xffFF":14124,"Plug":14125,"ĠselectedIndex":14126,"URLY":14127,"Utilities":14128,"bGwp":14129,"Keywords":14130,"ä¾ĭ":14131,"Sanitizer":14132,"Ġexplained":14133,"Closure":14134,"TA":14135,"Uo":14136,"Win":14137,"Zv":14138,"ez":14139,"fQp":14140,"vsync":14141,"setPoint":14142,"Ġins":14143,"endDate":14144,"Ġdegree":14145,"Engl":14146,"ĠUuid":14147,"Exercise":14148,"702":14149,"ĠConsole":14150,"oku":14151,"Overview":14152,"767":14153,"ĠINTEGER":14154,"Tracker":14155,"TestScriptAction":14156,"Ġexpressions":14157,"didChangeDependencies":14158,"Ġglad":14159,"RydW":14160,"Something":14161,"ĠnavigatorKey":14162,"Coverage":14163,"(':":14164,"Bubble":14165,"SK":14166,"Src":14167,"dist":14168,"different":14169,"eq":14170,"separator":14171,"uran":14172,"Ġ('":14173,"arter":14174,"peek":14175,"Ġpotential":14176,"Ġstats":14177,"Ġscene":14178,"Players":14179,"collections":14180,"AccessControl":14181,"ĠObx":14182,"ĠdarkTheme":14183,"ĠAPP":14184,"rottle":14185,"SR":14186,"SUCCESS":14187,"capture":14188,"don":14189,"gql":14190,"Ġutil":14191,"concept":14192,"coordinates":14193,"Ret":14194,"Recover":14195,"Reverse":14196,"ĠMAM":14197,"Ġgap":14198,"Shown":14199,"ivot":14200,"TapTargetSize":14201,"Submission":14202,"ouch":14203,"Thin":14204,"crew":14205,"Ġobt":14206,"ãĤ¹":14207,"foreground":14208,"ĠArch":14209,"passwordController":14210,"æľŁ":14211,"JobsResponse":14212,"Frames":14213,"DefinitionSearch":14214,"à¥Ģ":14215,"ĠConstrainedBox":14216,"ThanOr":14217,
[...]
